<pad>	0
<s>	0
</s>	0
<unk>	0
।	-3.96199
,	-3.9973
.	-4.07794
▁	-4.40205
▁के	-4.53963
▁से	-4.76797
▁है	-4.92414
▁में	-4.93362
-	-4.94123
▁को	-4.9958
▁की	-5.10356
न	-5.18665
ी	-5.30004
▁का	-5.30335
▁ने	-5.35467
ं	-5.39858
▁और	-5.42811
sx	-5.43315
xl	-5.43316
▁છે	-5.46256
▁ना	-5.51332
ल	-5.52601
क	-5.53562
ों	-5.55636
र	-5.56348
▁नी	-5.60825
म	-5.6161
ा	-5.66082
▁एक	-5.69532
▁मा	-5.71277
त	-5.72861
▁हैं	-5.75762
ना	-5.7686
▁पर	-5.78895
स	-5.82226
ला	-5.83267
▁कि	-5.83705
▁ते	-5.83726
▁रे	-5.9024
માં	-5.90515
mun	-5.90551
▁hi	-5.90741
ने	-5.93083
▁અને	-5.94388
ता	-5.95058
े	-5.98366
▁आणि	-5.98496
ની	-6.01803
▁।	-6.02997
ના	-6.03534
व	-6.04159
वा	-6.05839
ते	-6.08662
▁आहे	-6.09098
▁भारत	-6.11642
य	-6.16936
ो	-6.17751
▁थी	-6.19546
ह	-6.22271
ट	-6.24497
▁लिए	-6.26937
▁भी	-6.27346
ए	-6.31741
▁हो	-6.34518
▁मां	-6.34822
▁न	-6.34829
द	-6.35642
ले	-6.36283
_	-6.40654
▁या	-6.41259
▁આ	-6.41718
▁अ	-6.41894
ને	-6.42018
▁ता	-6.4217
▁कर	-6.42335
को	-6.44343
प	-6.44369
▁अने	-6.44577
ો	-6.45796
ज	-6.46426
रा	-6.49153
ग	-6.50433
ड	-6.53225
अ	-6.54052
ंग	-6.56814
का	-6.57301
▁"	-6.57644
▁ही	-6.58593
)	-6.60304
?	-6.60484
▁किया	-6.61811
▁(	-6.63776
▁કે	-6.64559
रे	-6.64802
या	-6.66
ई	-6.66208
▁नहीं	-6.67864
▁अन	-6.68954
ः	-6.69373
▁स	-6.70291
▁था	-6.71989
ली	-6.72159
▁नो	-6.72801
▁માટે	-6.73941
च्या	-6.74547
▁आ	-6.75847
▁जो	-6.76401
▁रअः	-6.77131
’	-6.77782
री	-6.77881
ર	-6.78116
ण	-6.79062
ती	-6.79296
▁तो	-6.80418
च	-6.81128
▁इस	-6.81583
'	-6.81657
▁ब	-6.82616
मा	-6.83296
ब	-6.83773
▁ओड़ोः	-6.84067
:	-6.84259
▁काम	-6.85304
ओ	-6.86826
नी	-6.87307
▁जा	-6.875
▁प	-6.87809
ात	-6.88379
आ	-6.88629
अः	-6.88993
ड़	-6.89289
ન	-6.89724
ू	-6.90986
ી	-6.91298
ि	-6.91393
નો	-6.92605
▁म	-6.93268
લ	-6.93326
▁देश	-6.94007
▁क	-6.9545
्	-6.9704
▁part	-6.97651
ે	-6.978
ु	-6.97933
▁चि	-6.98008
इ	-6.99553
▁हम	-7.00282
▁करने	-7.00488
सा	-7.00771
થી	-7.0122
▁ग	-7.01745
ક	-7.03111
▁ये	-7.0352
▁आप	-7.04233
▁हारू	-7.045
▁ह	-7.05096
दा	-7.07086
▁दो	-7.07489
ित	-7.08263
▁रूप	-7.09281
के	-7.09526
▁એક	-7.10239
▁त	-7.11018
गा	-7.11735
▁साथ	-7.13202
▁व	-7.13371
चे	-7.1373
▁गया	-7.14025
सी	-7.14093
▁वे	-7.14106
એ	-7.14761
▁सा	-7.14974
▁मैं	-7.14988
▁પર	-7.15279
▁सरकार	-7.15475
▁ज	-7.16323
મ	-7.16722
▁उ	-7.16878
▁रेअः	-7.17298
कर	-7.17735
▁जी	-7.17812
▁यह	-7.18004
▁पा	-7.18228
▁रहे	-7.18416
▁हे	-7.18739
चा	-7.19176
▁तना	-7.2136
श	-7.21401
▁आज	-7.21415
▁दे	-7.22618
▁द	-7.22778
▁करी	-7.23232
નું	-7.23598
▁अपने	-7.23912
ही	-7.24257
▁बाद	-7.26567
▁रहा	-7.26751
તા	-7.26981
ા	-7.28072
▁ए	-7.3001
▁बहुत	-7.30193
▁वि	-7.31061
ियों	-7.31877
▁कहा	-7.31907
▁-	-7.31926
▁र	-7.32521
डी	-7.3254
▁करवा	-7.32938
गे	-7.33221
▁हा	-7.33322
▁ले	-7.33322
जी	-7.34043
▁इ	-7.35466
▁च	-7.35533
टी	-7.3583
▁राज्य	-7.3593
ड़ा	-7.3604
▁भारतीय	-7.36623
▁પણ	-7.36676
▁बा	-7.36999
ख	-7.39283
▁ओ	-7.39318
▁विकास	-7.40997
▁श्री	-7.41216
વા	-7.41718
ति	-7.42394
▁नि	-7.42662
ळ	-7.43457
▁थे	-7.43561
▁કરી	-7.4379
▁જ	-7.4432
▁क्या	-7.45089
जा	-7.45344
वर	-7.45397
ची	-7.45537
यो	-7.45842
▁मेनते	-7.45983
मध्ये	-7.46196
ડ	-7.46241
▁आहेत	-7.4632
▁हर	-7.46414
▁तक	-7.46765
लो	-7.46823
▁ल	-7.4711
िक	-7.47187
▁मु	-7.48191
▁તે	-7.48589
ै	-7.49201
▁होता	-7.49923
▁करते	-7.50101
वि	-7.50236
▁समय	-7.50638
ङ	-7.50714
वी	-7.50859
▁वह	-7.51089
।"	-7.51259
પ	-7.51296
हा	-7.51523
▁प्र	-7.52208
बा	-7.53313
િ	-7.5387
ત	-7.53919
▁प्रधानमंत्री	-7.54089
▁खास	-7.54676
▁कम	-7.5499
▁સાથે	-7.55037
▁होते	-7.56899
▁गे	-7.57211
▁इना	-7.5785
▁पण	-7.58213
▁जाता	-7.58274
▁दिया	-7.58354
ઓ	-7.58444
▁कु	-7.58797
▁सु	-7.58987
ें	-7.59034
▁इन	-7.59661
्या	-7.59955
▁लोग	-7.60072
ओं	-7.60259
वे	-7.60554
▁मे	-7.60924
▁सो	-7.61478
्य	-7.61799
સ	-7.62507
▁एन	-7.62676
▁बे	-7.62945
मे	-7.63416
▁क्षेत्र	-7.6344
द्	-7.63452
▁बात	-7.63616
फ	-7.63944
रो	-7.63985
▁અ	-7.64355
▁હતું	-7.65702
ीय	-7.66165
से	-7.66346
▁सि	-7.66526
દ	-7.66824
વ	-7.66917
▁केले	-7.67257
▁मंत्री	-7.67867
पा	-7.67991
▁कई	-7.68427
▁मन	-7.6863
▁'	-7.68883
▁होती	-7.69115
▁19	-7.70841
▁उन्होंने	-7.7111
डा	-7.71207
▁बु	-7.7174
▁मो	-7.71869
▁जे	-7.72027
्‍	-7.7247
▁હતી	-7.72766
▁कुछ	-7.73027
रि	-7.73546
▁જે	-7.73723
टा	-7.73785
की	-7.73796
▁ख	-7.74721
▁हु	-7.74825
▁रही	-7.74899
हे	-7.7514
e	-7.75249
उ	-7.7547
▁लोक	-7.75487
तो	-7.75731
s	-7.75736
▁जीवन	-7.76272
▁आदिवासी	-7.76891
▁योजना	-7.77049
▁हुए	-7.77691
िया	-7.78028
नो	-7.78838
▁सं	-7.79134
यों	-7.79561
▁કરવામાં	-7.79622
गी	-7.79801
!	-7.79892
ाच्या	-7.79962
▁पे	-7.80097
▁मी	-7.80538
ॉ	-7.80943
लि	-7.81401
▁गो	-7.82503
▁ति	-7.82943
▁कार्य	-7.83104
▁पु	-7.83512
▁बन	-7.838
ँ	-7.83811
▁अधिक	-7.83828
▁તેમણે	-7.83844
જ	-7.84123
▁वा	-7.84496
ां	-7.84609
दो	-7.84718
▁भाग	-7.84938
▁श	-7.85583
ણ	-7.85743
पे	-7.85981
ગ	-7.8609
▁?	-7.86332
▁सी	-7.86377
▁बि	-7.86472
▁दा	-7.86775
▁मोदी	-7.87009
▁नाही	-7.87136
▁समाज	-7.87331
थ	-7.87369
▁सभी	-7.87567
▁सब	-7.87759
▁रा	-7.8829
▁ଆ	-7.88299
▁दिन	-7.88404
ंड	-7.88628
▁घर	-7.89255
▁लोगों	-7.89834
पी	-7.90078
मी	-7.90198
"	-7.90807
▁सोबेन	-7.91349
ં	-7.91394
...	-7.91414
कार	-7.92153
▁कजि	-7.92232
▁कारण	-7.92414
▁गा	-7.92453
▁पी	-7.92486
▁विशेष	-7.92826
ટ	-7.93558
िंग	-7.93571
नि	-7.93683
्स	-7.93833
▁कोई	-7.93953
▁हूँ	-7.94004
▁दी	-7.94253
▁राज	-7.94267
ाई	-7.94294
▁मुझे	-7.9433
▁करता	-7.94354
▁કરવા	-7.94505
▁तरह	-7.94626
र्	-7.94706
ाने	-7.94854
ॅ	-7.95127
▁ન	-7.953
दे	-7.9567
▁रिका	-7.96276
▁आपल्या	-7.96647
;	-7.9674
▁एना	-7.96797
▁रेन	-7.96835
▁હતો	-7.97919
ુ	-7.98111
o	-7.98137
▁पो	-7.98327
▁अपनी	-7.98373
ળ	-7.9846
▁इसके	-7.9847
ंद	-7.98556
▁प्रदेश	-7.98565
▁तुन	-7.98571
▁लेकिन	-7.98868
▁ક	-7.98965
सि	-7.99074
▁बी	-7.99093
▁तन	-7.99233
▁होड़ो	-7.9936
▁दिसुम	-7.9937
k	-7.99494
▁वाले	-7.99528
બ	-7.99542
▁हमारे	-7.99698
ौ	-7.99966
दी	-8.00561
▁जब	-8.00621
णा	-8.00911
साठी	-8.01291
▁यांनी	-8.01292
▁सेवा	-8.01438
▁ओर	-8.01596
ड़ी	-8.01639
बु	-8.01678
▁चाहिए	-8.01727
णी	-8.01883
▁એ	-8.019
▁केदा	-8.02304
્	-8.02774
▁साल	-8.0285
▁भ	-8.02918
▁जाते	-8.03136
स्	-8.03256
शी	-8.03283
▁गई	-8.03735
रू	-8.03769
▁जन	-8.03793
▁मेरे	-8.03808
વી	-8.03901
जन	-8.04028
▁नाम	-8.04098
▁ला	-8.04138
▁तर	-8.04224
▁કહ્યું	-8.04235
▁नु	-8.04259
▁આવે	-8.04327
▁गु	-8.04651
▁पारंपरिक	-8.04684
क्	-8.05072
▁केली	-8.05134
ય	-8.05329
▁सर्व	-8.05666
बी	-8.05878
ांना	-8.05894
▁द्वारा	-8.06104
▁सके	-8.06106
▁रि	-8.06392
तु	-8.06537
▁करना	-8.06593
ये	-8.06754
▁मेनअः	-8.06856
▁ભારત	-8.07787
▁कार्यक्रम	-8.08605
▁‘	-8.08612
श्	-8.08951
▁हाते	-8.09124
▁सिंह	-8.09144
स्ट	-8.09183
▁खा	-8.09358
▁हि	-8.09777
कि	-8.10315
▁तुम	-8.10947
▁दिल्ली	-8.11004
▁મ	-8.11157
ड़ि	-8.11462
▁त्यांनी	-8.11512
▁असल	-8.11573
▁भर	-8.11589
લા	-8.11614
trans	-8.11643
▁देह	-8.1186
दार	-8.11907
▁હતા	-8.1255
▁जगर	-8.13133
▁हुआ	-8.13176
શ	-8.13194
टे	-8.13306
િત	-8.13315
▁त्या	-8.13599
▁दु	-8.13675
▁उपयोग	-8.13746
▁बारे	-8.13788
यु	-8.1387
▁मि	-8.13888
▁આવી	-8.13906
▁B	-8.14041
▁वात	-8.14467
lated	-8.14506
▁जु	-8.14716
▁ई	-8.14755
ातील	-8.14763
ठ	-8.15252
ष	-8.15502
खा	-8.15604
2	-8.15693
▁बना	-8.15745
▁સ	-8.15911
▁प्रति	-8.15961
▁मंत्रालय	-8.16063
▁पास	-8.16121
▁विचार	-8.16605
▁जना	-8.16689
ध	-8.16931
રી	-8.17298
▁तीन	-8.17751
क्ष	-8.17846
कु	-8.18041
▁बो	-8.18085
▁इनी	-8.18136
ું	-8.18234
▁पहले	-8.18623
नु	-8.18665
▁अब	-8.18745
▁प्रकार	-8.18801
्‍य	-8.19371
ाय	-8.19371
▁होगा	-8.19515
▁तमु	-8.19596
▁करे	-8.19862
▁रो	-8.20012
▁जि	-8.20109
▁.	-8.20129
▁सकते	-8.20335
▁वाला	-8.20377
▁તમે	-8.20544
▁पानी	-8.20582
▁किसी	-8.20678
▁सकता	-8.20691
▁तइकेना	-8.20717
▁पि	-8.20788
यी	-8.20817
ून	-8.20892
▁जल	-8.20986
િક	-8.21092
▁દ્વારા	-8.21143
▁बार	-8.21334
▁બ	-8.21653
▁वर्ष	-8.21783
▁નથી	-8.21913
न्	-8.22275
▁केंद्र	-8.22454
▁आई	-8.22488
▁लगा	-8.22558
ૂ	-8.22728
▁રીતે	-8.22845
ावर	-8.23
गु	-8.23288
ाला	-8.23565
હ	-8.23587
▁गए	-8.2401
/	-8.2436
▁खेल	-8.24726
▁बदल	-8.24886
ଇ	-8.24936
મા	-8.25036
▁भाषा	-8.25222
▁उनके	-8.25463
▁देख	-8.26305
▁मान	-8.26674
एं	-8.26879
पुर	-8.27038
▁अनेक	-8.27178
प्र	-8.2729
दि	-8.27336
▁केंद्रीय	-8.27646
▁पुरअः	-8.28075
▁छ	-8.282
▁જો	-8.28361
▁ଇ	-8.28872
भ	-8.29621
ंस	-8.30086
▁ती	-8.30209
▁પ	-8.30216
त्र	-8.30236
▁હું	-8.30265
▁सम	-8.30306
▁राष्ट्रीय	-8.30495
a	-8.30922
▁असे	-8.31086
▁लो	-8.3179
जो	-8.32171
▁ऐ	-8.32478
▁करें	-8.32483
i	-8.32918
▁उस	-8.33061
t	-8.33196
ांच्या	-8.33282
▁कमि	-8.33461
▁होने	-8.33513
c	-8.33555
daily	-8.33781
PCC	-8.33876
output	-8.33887
▁करोड़	-8.34262
▁आले	-8.34264
▁अबु	-8.34432
▁आली	-8.34443
▁करण्यासाठी	-8.34453
▁પ્રધાનમંત્રી	-8.34481
रु	-8.34484
आई	-8.34537
कन	-8.34551
▁लि	-8.34842
ल्या	-8.35076
िन	-8.3519
एस	-8.35241
▁ज्या	-8.35654
डे	-8.35683
▁बइ	-8.35785
▁बढ़	-8.35825
▁होड़ोको	-8.35854
जि	-8.36016
ાય	-8.36203
▁तथा	-8.36365
वार	-8.36797
▁लाख	-8.36815
▁केला	-8.36838
▁जाने	-8.36985
ाची	-8.3721
▁घ	-8.37215
ડી	-8.37365
मि	-8.37493
ोर	-8.37599
ियो	-8.37741
मान	-8.37856
ર્	-8.37994
રા	-8.38178
▁एवं	-8.38569
p	-8.38618
तर	-8.38704
▁उत्तर	-8.39031
मो	-8.39047
जे	-8.39077
▁करा	-8.39274
ाचे	-8.3928
▁लेल	-8.39324
ड़े	-8.39352
मु	-8.39522
टि	-8.39545
चि	-8.39618
▁हूं	-8.3986
_1	-8.40336
स्त	-8.40443
▁प्रमुख	-8.40488
▁कह	-8.40735
▁अम	-8.41062
यता	-8.41367
▁अलग	-8.41776
मन	-8.41946
▁ખૂબ	-8.42055
दु	-8.4227
णे	-8.42563
▁તો	-8.42602
▁तिना	-8.42671
▁લોકો	-8.42717
▁शिक्षा	-8.42792
तन	-8.42803
▁चल	-8.42914
▁मियद्	-8.42995
▁नेआ	-8.43161
5	-8.43289
▁1	-8.43311
▁मला	-8.43538
▁हमु	-8.43808
डि	-8.43829
▁जाती	-8.43908
▁लेका	-8.43963
▁नम	-8.43995
लु	-8.44319
ंत	-8.44834
▁हमें	-8.44881
ରି	-8.45042
▁હ	-8.45069
क्स	-8.45145
़	-8.45145
▁इनिः	-8.45278
्र	-8.45406
जना	-8.45925
ચ	-8.46137
▁अद्	-8.46412
यू	-8.46621
▁त्यांच्या	-8.46773
शा	-8.46793
▁अपना	-8.46798
▁વધુ	-8.47002
્યા	-8.47238
▁करण्यात	-8.47286
▁आय	-8.47325
▁ली	-8.47353
▁કરે	-8.47415
▁ओम	-8.47591
▁શ્રી	-8.47653
લી	-8.47712
▁थाई	-8.47758
▁फिर	-8.47803
▁उप	-8.48027
▁मदद	-8.48118
तना	-8.48415
ନା	-8.48554
ंट	-8.4868
▁પ્ર	-8.48817
▁जान	-8.48841
▁थाय	-8.4894
କା	-8.49056
▁निर्माण	-8.49131
▁आयोजन	-8.49298
▁હોય	-8.4936
▁नवा	-8.49398
▁आपण	-8.49548
ફ	-8.49576
▁दिवस	-8.49717
▁बैठक	-8.49875
▁शामिल	-8.49947
▁दर	-8.4996
▁पाणी	-8.50002
▁ભ	-8.50059
▁થાય	-8.50109
गो	-8.50241
▁इंडिया	-8.5027
▁पंतप्रधान	-8.50274
▁खेती	-8.50293
▁उपलब्ध	-8.50432
ाचा	-8.50494
वो	-8.50735
▁सुरक्षा	-8.5081
▁परिवार	-8.50888
▁सर	-8.50966
▁जैसे	-8.51018
▁हजार	-8.51044
▁कमी	-8.51155
▁सबसे	-8.51179
▁घणी	-8.51566
_30	-8.51591
્ય	-8.51741
▁શકે	-8.51785
▁10	-8.51913
▁વિ	-8.51975
▁राजा	-8.51987
▁गला	-8.52
ढ	-8.5221
▁भा	-8.52258
▁વ	-8.52329
▁दोनों	-8.52428
▁આપણે	-8.529
▁वाली	-8.53043
ତା	-8.53094
▁आर्थिक	-8.5316
सोर	-8.53232
▁Re	-8.53327
▁કોઈ	-8.5356
▁શું	-8.53625
▁स्	-8.53775
▁2	-8.53954
▁यू	-8.53986
▁જોઈએ	-8.54316
ांमध्ये	-8.54607
▁સુધી	-8.54712
▁3	-8.54775
▁फसल	-8.54917
▁जमा	-8.55112
ंज	-8.55154
g	-8.55263
જી	-8.55384
▁બે	-8.55388
▁शुरू	-8.55401
न्द	-8.55407
▁काही	-8.55424
गि	-8.55515
▁दि	-8.55653
▁नें	-8.55694
ाव	-8.55699
તી	-8.55723
झ	-8.55766
रिया	-8.56206
▁मुख्य	-8.56297
▁हमारी	-8.56387
▁Batch	-8.56443
▁जगा	-8.56661
▁सुविधा	-8.56983
▁वो	-8.57094
र्र	-8.57215
0	-8.57297
▁इद	-8.57317
▁आम	-8.57368
▁उन्हें	-8.57411
▁मेनदो	-8.57416
▁ध	-8.57417
▁कोअः	-8.57484
एम	-8.57971
ढ़	-8.57976
▁રહ્યા	-8.58087
▁कना	-8.58088
िल	-8.58102
▁ઉ	-8.58136
ଃ	-8.58169
▁कल	-8.58566
▁તેમના	-8.58615
▁उत्पादन	-8.58683
ોને	-8.58791
▁વિકાસ	-8.58813
डो	-8.5884
▁|	-8.58924
त्	-8.59142
▁अभियान	-8.59565
સી	-8.59567
▁अवसर	-8.59682
▁जाय	-8.59976
िका	-8.59984
▁चला	-8.60061
7	-8.60271
▁दौरान	-8.60281
▁સં	-8.60415
▁हुई	-8.6046
मुळे	-8.60609
ार	-8.60618
ଆ	-8.60621
▁रंग	-8.60715
▁झ	-8.60801
▁5	-8.60889
▁शहर	-8.60902
▁यांच्या	-8.61074
▁मैंने	-8.61145
▁चा	-8.61389
ର	-8.61495
▁તેમ	-8.61519
▁किसान	-8.61757
ओः	-8.61776
ासाठी	-8.61937
▁महिला	-8.6198
▁करू	-8.61992
n	-8.62047
बे	-8.62101
▁થઈ	-8.62231
▁ଏ	-8.62459
▁महा	-8.62517
▁अस	-8.62703
▁चार	-8.62789
વામાં	-8.62875
▁बीच	-8.62946
▁જ્યારે	-8.62982
▁वाढ	-8.63187
▁દ	-8.63607
▁बैंक	-8.63628
▁अन्य	-8.63682
▁लाभ	-8.63871
વું	-8.63897
▁यो	-8.64025
▁म्हणाले	-8.64063
▁કામ	-8.64258
u	-8.64291
▁अलावा	-8.64375
▁सांगितले	-8.64448
ખ	-8.64577
▁પરંતુ	-8.64593
▁ओड़ो	-8.64683
્સ	-8.64884
▁पूरा	-8.649
▁तह	-8.65043
ઝ	-8.65223
▁नदी	-8.65282
ऊ	-8.65473
▁होबा	-8.65509
▁मंडी	-8.65629
00	-8.65693
▁वापर	-8.65914
▁आधार	-8.65924
▁તેઓ	-8.66011
▁राम	-8.66083
▁કર્યો	-8.66088
y	-8.66092
ટી	-8.66464
▁संग	-8.6649
▁ના	-8.66493
June	-8.66558
ોમાં	-8.66566
▁यी	-8.66569
▁तु	-8.66618
हु	-8.6663
▁आता	-8.66641
डु	-8.6667
▁સરકાર	-8.6686
▁किए	-8.67055
ळा	-8.67077
ुं	-8.67128
▁बंद	-8.67129
▁છો	-8.67174
▁बोल	-8.67221
▁अद	-8.67222
▁उपर	-8.67243
ंक	-8.67319
ંગ	-8.6747
▁कोरे	-8.67534
▁एम	-8.67556
▁છું	-8.67707
▁चु	-8.67739
बर	-8.67916
पि	-8.68078
▁आर	-8.68124
िस	-8.68128
correct	-8.68462
आर	-8.68509
धा	-8.68576
કા	-8.68661
सर	-8.68664
ବା	-8.68689
▁आंद	-8.68727
▁इं	-8.68775
▁लिया	-8.68849
▁देने	-8.68896
▁नेअः	-8.6899
ृ	-8.69049
कल	-8.69062
ક્ષ	-8.6909
▁20	-8.69129
▁ध्यान	-8.69268
ञ	-8.69335
▁मर	-8.69502
▁इसु	-8.69513
इन	-8.69559
▁ચ	-8.69584
▁गीत	-8.69602
ण्यासाठी	-8.69637
ांनी	-8.69695
▁किंवा	-8.70149
▁आवश्यक	-8.70265
छ	-8.70283
▁थ	-8.70347
▁रू	-8.70511
ांची	-8.70615
▁डो	-8.70648
▁दुनिया	-8.70655
ନେ	-8.70959
▁उनकी	-8.71082
▁तंग	-8.71154
▁टो	-8.71246
▁एस	-8.71251
▁अप	-8.71391
▁ट	-8.71421
▁કર્યું	-8.71469
सु	-8.71848
▁તરીકે	-8.71862
टो	-8.72204
િંગ	-8.72206
▁स्थान	-8.72295
▁नई	-8.72307
▁म्हणून	-8.72312
▁फ	-8.72392
म्	-8.72511
▁મને	-8.72577
▁जदा	-8.72695
▁उन	-8.72768
▁प्रयास	-8.72784
ान	-8.72806
કાર	-8.72853
▁आयता	-8.72877
▁पूर्व	-8.73034
ष्	-8.73227
▁री	-8.73264
▁संगीत	-8.73361
▁नवीन	-8.73367
▁उसे	-8.73424
▁चर्चा	-8.73448
▁4	-8.73487
▁ऐसा	-8.73497
▁मिल	-8.73553
एँ	-8.73604
▁माध्यम	-8.73636
▁यात्रा	-8.73639
ेल	-8.73675
्यू	-8.73819
મી	-8.73915
▁15	-8.7396
▁तनअः	-8.7402
रण	-8.74049
▁इसलिए	-8.74119
▁जरूरी	-8.74205
ंगा	-8.74403
▁प्राप्त	-8.74422
▁मध्ये	-8.74427
▁आपुना	-8.74601
8	-8.74649
▁कन	-8.74669
ीन	-8.74681
था	-8.74713
▁ભારતીય	-8.74777
▁“	-8.74871
ડા	-8.74887
ण्ड	-8.75019
▁नवी	-8.75099
▁કો	-8.75197
▁अनें	-8.75369
द्ध	-8.75442
हार	-8.75665
▁तुम्ही	-8.75957
▁आपको	-8.75963
▁સા	-8.76022
▁विश्व	-8.76073
▁ફ	-8.76106
▁फेर	-8.76212
▁इनकु	-8.76227
l	-8.76303
▁अधिकार	-8.76389
▁हुं	-8.76411
वु	-8.7645
▁मंदिर	-8.76599
घ	-8.76664
▁चाल	-8.76698
▁होन	-8.76741
▁आगे	-8.7675
▁होही	-8.76895
6	-8.76977
ज़	-8.76997
▁महत्वपूर्ण	-8.77067
▁सुधार	-8.77095
▁वाळा	-8.77136
▁प्रत्येक	-8.77262
▁गांव	-8.77296
▁खु	-8.77343
▁जोवे	-8.77382
हो	-8.77432
ाना	-8.77499
▁टा	-8.77584
ळी	-8.77636
बल	-8.77685
થ	-8.77794
▁सांस्कृतिक	-8.77811
हर	-8.77911
_3	-8.78024
▁सदस्य	-8.78273
तुर	-8.78393
▁उद्योग	-8.78533
▁दूर	-8.78834
▁ર	-8.78916
▁‘‘	-8.78959
▁मानेय	-8.79223
ब्	-8.79232
▁विभाग	-8.79239
▁भाई	-8.79274
ભ	-8.79378
▁आल	-8.79523
▁समुदाय	-8.79596
્યો	-8.79652
▁अनु	-8.79803
▁આપણા	-8.79987
ोः	-8.80131
▁छे	-8.80194
▁આજે	-8.8033
ନି	-8.80383
▁ભાગ	-8.80493
▁मानव	-8.80624
▁डा	-8.80712
▁दन	-8.80784
▁एर्र	-8.80787
▁हमारा	-8.80802
ल्	-8.80925
एः	-8.80957
ରା	-8.81042
▁केदू	-8.81103
बो	-8.8115
▁રહી	-8.81175
▁विषय	-8.81323
▁भू	-8.81337
▁कृषि	-8.81418
▁अगर	-8.81473
▁सरकारी	-8.81564
▁जिन	-8.8159
▁વર્ષ	-8.81627
▁!	-8.81658
पु	-8.81784
▁करून	-8.81967
▁बल	-8.8204
▁ઉપયોગ	-8.82201
▁स्वास्थ्य	-8.82335
▁डि	-8.82336
▁सामाजिक	-8.82432
▁सुरू	-8.82458
પી	-8.82524
▁પછી	-8.82547
लेल्या	-8.82699
भा	-8.82734
▁कै	-8.82741
▁विश्वास	-8.82852
्‍या	-8.82982
▁नां	-8.83121
▁12	-8.83128
▁आने	-8.8313
पो	-8.83142
▁जिला	-8.83177
▁आयोजित	-8.83397
▁उसके	-8.8342
▁मदत	-8.83501
▁वाट	-8.83698
ધ	-8.8382
▁संरक्षण	-8.83825
▁कला	-8.83841
▁तब	-8.83884
▁केदु	-8.83943
र्स	-8.83957
▁प्रदान	-8.84132
ष्ट	-8.84152
▁ମା	-8.84232
▁भूमिका	-8.84251
સ્ટ	-8.84296
▁गांधी	-8.84314
▁देखा	-8.84335
केदा	-8.84357
▁18	-8.84391
आय	-8.84548
▁हिजुः	-8.84592
an	-8.84875
ेंगे	-8.8499
▁जोर	-8.85088
ଏ	-8.85119
▁प्रसिद्ध	-8.85357
▁करके	-8.85417
▁होगी	-8.85516
ाइ	-8.85564
त्त	-8.85573
▁દિવસ	-8.85595
▁लड़	-8.85628
ग्	-8.85642
▁बस	-8.85722
▁पूर्ण	-8.85808
▁संबंध	-8.85908
हि	-8.85918
▁बड़ी	-8.86025
▁गुजरात	-8.86027
▁डिजिटल	-8.86173
थी	-8.86214
▁बता	-8.86374
▁તેમને	-8.86582
રો	-8.8664
इङ	-8.86785
टर	-8.86886
્ર	-8.86936
▁अपे	-8.86978
▁मह	-8.87002
▁कभी	-8.8706
▁जारी	-8.87085
▁કરીને	-8.8722
र्ग	-8.87396
लू	-8.8754
▁विज्ञान	-8.87593
यतोर	-8.87652
▁बड़ा	-8.87708
કો	-8.8805
▁मजबूत	-8.88106
▁अव	-8.88113
▁टे	-8.88152
ନ	-8.88256
▁અથવા	-8.88269
▁પા	-8.88398
ल्ला	-8.88554
▁अनुभव	-8.88825
स्थ	-8.88878
▁મા	-8.88899
▁उठा	-8.88917
▁मिळ	-8.88961
ન્	-8.88972
▁ગ	-8.88976
यर	-8.88983
▁बने	-8.89233
▁संस्कृति	-8.89302
वन	-8.89565
▁पूरी	-8.89594
म्ब	-8.8967
▁जाना	-8.89681
▁डॉ	-8.89772
ंना	-8.8993
▁તેને	-8.89945
କି	-8.90105
▁मंद	-8.90118
▁अइङ	-8.90121
▁घणा	-8.90284
▁व्यवस्था	-8.90333
▁लाग	-8.90416
▁लेकाते	-8.90504
▁ठीक	-8.90595
▁सचिव	-8.90745
▁लग	-8.90791
▁दिशा	-8.90839
त्या	-8.90911
▁करत	-8.90934
▁आया	-8.91041
तोर	-8.9136
▁मध्य	-8.91369
▁राष्ट्र	-8.9137
▁देता	-8.91457
▁धन	-8.91562
▁सिदा	-8.91564
▁फिल्म	-8.91647
▁रख	-8.91748
▁निर्णय	-8.91795
▁योग	-8.91816
ઇ	-8.91846
तील	-8.9189
d	-8.91926
વો	-8.92039
▁माझ्या	-8.92154
▁तैयार	-8.92162
▁दक्षिण	-8.92175
ନ୍	-8.92381
▁बनाने	-8.92518
▁आम्ही	-8.926
▁अर	-8.92665
▁आदमी	-8.92677
▁सिरमा	-8.92698
▁बड़े	-8.92763
▁जय	-8.92764
▁देव	-8.92776
ंचा	-8.92796
हन	-8.92803
▁उदुब	-8.92888
▁आं	-8.92889
▁विभिन्न	-8.93026
▁जोड	-8.93079
▁ऐसे	-8.93155
ण्याची	-8.93172
▁સ્	-8.9322
▁व्यापार	-8.93242
▁दल	-8.93334
▁ड	-8.93527
▁अध्यक्ष	-8.9359
▁तेर	-8.93634
▁जात	-8.93674
▁पुरा	-8.93882
▁संबंधित	-8.93934
▁बै	-8.93936
▁नृत्य	-8.94071
▁बदा	-8.94096
▁करती	-8.9411
ોની	-8.94138
▁करो	-8.94234
▁ब्र	-8.94253
▁टीम	-8.94298
▁क्षेत्रों	-8.94422
सो	-8.94605
▁मोटा	-8.94607
એસ	-8.94675
▁શ	-8.94706
▁हमने	-8.94733
▁सू	-8.94779
▁यु	-8.94782
▁जर	-8.9488
राज	-8.94916
▁रह	-8.95061
▁पुर	-8.95092
▁पक्ष	-8.95096
▁सेना	-8.95233
ଡ଼ି	-8.95234
er	-8.95409
ସା	-8.95451
▁डी	-8.95543
▁बारा	-8.95598
्यु	-8.95831
▁डे	-8.95938
▁लेकर	-8.95994
ષ	-8.95999
ांचा	-8.96059
▁पंजाब	-8.96218
▁योगदान	-8.96424
▁जीव	-8.96432
▁ग्रामीण	-8.96506
al	-8.96552
बि	-8.96807
▁केवल	-8.96818
▁केआते	-8.96835
▁पै	-8.96858
▁તમામ	-8.9686
▁खूप	-8.96891
▁गरीब	-8.96898
वत	-8.96995
1	-8.96998
सन	-8.9708
▁અન્ય	-8.97082
ंगे	-8.97088
▁उच्च	-8.9712
ା	-8.97122
▁त्यांना	-8.9714
▁आञ	-8.97144
▁सेनोः	-8.97386
हू	-8.97581
▁हाथ	-8.97597
ଙ୍ଗା	-8.97603
▁रुपये	-8.97609
▁करेंगे	-8.97732
गर	-8.97777
▁मै	-8.97912
▁बुगिन	-8.97925
▁चे	-8.98019
▁तयार	-8.98034
▁मिशन	-8.98052
▁इसे	-8.98068
▁हवा	-8.98114
▁लोः	-8.9815
▁मुल	-8.98188
રે	-8.98327
▁સુ	-8.98511
र्क	-8.98556
▁एका	-8.98557
▁6	-8.98625
▁जाए	-8.98648
▁आपडा	-8.98676
▁पंड	-8.98795
▁अच्छा	-8.98902
तम	-8.99113
ेर	-8.99184
▁ऊर्जा	-8.99333
▁કા	-8.99378
▁कदा	-8.99666
एन	-8.99708
▁खर्च	-8.9979
▁परंपरा	-8.99927
▁किस	-8.99948
▁ବେ	-9.00001
▁होंगे	-9.0001
▁पड़	-9.00052
▁कार	-9.0007
शन	-9.00096
્યું	-9.00098
▁આવ્યું	-9.0011
▁आते	-9.00284
▁सहयोग	-9.00348
▁નિ	-9.00406
ियां	-9.00452
▁કરો	-9.00599
▁नू	-9.00606
ar	-9.00667
सं	-9.00752
▁यहाँ	-9.00778
ठा	-9.00793
▁टी	-9.0086
नों	-9.00941
▁મો	-9.00949
▁लिख	-9.01043
▁तहत	-9.01055
▁शि	-9.01072
વિ	-9.01115
पासून	-9.01134
▁ખા	-9.01148
▁ओको	-9.01156
▁धर्म	-9.01256
▁इतर	-9.01277
શે	-9.01301
▁खेत	-9.0136
▁स्तर	-9.01404
▁माहिती	-9.01451
Sheet	-9.01472
ીઓ	-9.01537
▁पू	-9.01588
▁લા	-9.01597
▁કેન્દ્રીય	-9.01619
▁मौसम	-9.01781
एफ	-9.01817
▁नेअ	-9.01895
▁અમે	-9.019
▁आदि	-9.01905
▁अनुसार	-9.01965
1_	-9.01979
व्य	-9.02187
ન્ડ	-9.02328
▁ઉપરાંત	-9.02501
યા	-9.02567
▁जगह	-9.0257
ांचे	-9.02651
▁રાજ્ય	-9.02689
▁जानकारी	-9.0275
▁नों	-9.02873
▁–	-9.02886
▁पार	-9.03003
દી	-9.03158
િયા	-9.03189
▁પોતાના	-9.03207
▁बंगाल	-9.03213
िय	-9.03319
▁युवा	-9.03345
पन	-9.03572
एल	-9.0374
▁घेर	-9.03751
▁ଗା	-9.03769
▁हता	-9.03819
▁ત	-9.03941
▁ખ	-9.03975
▁वर्ग	-9.04154
▁सक	-9.04173
▁अधिकारी	-9.04194
જા	-9.04224
h	-9.04229
▁आलवा	-9.04285
▁बर	-9.0439
ନୁ	-9.04409
▁सौ	-9.0443
▁दिले	-9.04524
▁तइना	-9.04559
▁પરંપરાગત	-9.04663
▁हतो	-9.04678
▁नियम	-9.04716
▁उसने	-9.04733
ત્ર	-9.04783
▁मार	-9.04884
ઠ	-9.0495
शि	-9.04989
▁ऑ	-9.05031
▁बाहर	-9.05055
▁आव	-9.05072
▁तिसिङ	-9.05095
▁જણાવ્યું	-9.05389
▁આપવા	-9.05433
▁जनजातीय	-9.05511
માંથી	-9.05685
▁Conver	-9.05705
▁खुद	-9.05842
▁परि	-9.05847
▁ताकत	-9.05872
▁8	-9.05954
▁बाटा	-9.05965
▁चिलका	-9.05972
▁कुबैय	-9.05991
▁जंगल	-9.06022
▁गि	-9.06079
पर	-9.06095
▁નવી	-9.06118
▁છીએ	-9.06165
▁राह	-9.06231
ંડ	-9.06402
▁बाजार	-9.06459
र्ड	-9.0654
▁अबुअः	-9.06615
आः	-9.06762
देश	-9.06828
▁मत	-9.06839
”	-9.06857
▁चौ	-9.07064
ાઇ	-9.07198
સા	-9.07258
▁આપી	-9.07342
ઈ	-9.07359
▁पारंपारिक	-9.07363
ેટ	-9.07378
▁कानून	-9.07462
▁पाकिस्तान	-9.07486
▁पूजा	-9.07573
▁भे	-9.07599
धी	-9.07721
कों	-9.0781
▁वी	-9.0794
▁संख्या	-9.07987
ंदा	-9.07996
▁वताड	-9.08015
▁વા	-9.08202
▁खरीद	-9.08319
▁इदि	-9.08365
▁लागू	-9.08375
ल्‍	-9.08569
▁लगभग	-9.08604
दर	-9.08713
▁वन	-9.08729
વાર	-9.08771
ियाँ	-9.08776
▁हारूं	-9.08921
ास	-9.0897
▁स्व	-9.08983
णार	-9.09016
ର୍	-9.09027
▁स्कूल	-9.09135
न्‍द	-9.09286
▁सें	-9.09287
କୁ	-9.09313
▁યોજના	-9.09335
▁उदाहरण	-9.09381
जु	-9.09449
▁મારા	-9.09457
ૈ	-9.0966
▁कप	-9.0972
▁ज्यादा	-9.09737
ह्	-9.09746
ଲା	-9.09752
दू	-9.09847
▁पड	-9.09883
▁पढ़	-9.09887
▁शाह	-9.09905
▁आपड़ा	-9.09929
▁खेतर	-9.09934
ંચ	-9.1008
▁आस	-9.10382
▁सुन	-9.10429
20	-9.10441
मां	-9.1046
ियन	-9.10474
▁खिलाफ	-9.10485
▁बाल	-9.10599
ंनी	-9.10654
ાઈ	-9.10691
▁पाहिजे	-9.10775
▁नेता	-9.10816
▁रु	-9.11014
▁नन्ना	-9.11212
▁બા	-9.11238
▁लेना	-9.11283
ीकरण	-9.1133
r	-9.1134
▁सोच	-9.11427
▁મે	-9.11473
▁बणावा	-9.11537
▁जरूरत	-9.1154
वानु	-9.11591
▁रक्षा	-9.11629
व्ह	-9.11654
▁वस	-9.1166
▁કાર્ય	-9.11662
पाल	-9.11668
ेश	-9.11702
▁उपस्थित	-9.11826
▁क्षमता	-9.11827
I	-9.11834
લે	-9.11899
▁इतिहास	-9.1193
▁उत्सव	-9.11982
▁संघ	-9.12052
ગા	-9.12063
▁अंतर्गत	-9.12076
▁मुण्डा	-9.12173
▁कांग्रेस	-9.12214
ોના	-9.12297
किङ	-9.12316
વે	-9.12328
▁केन्द्रीय	-9.12336
▁नागरिक	-9.12374
ଗା	-9.12401
▁प्रयत्न	-9.12473
▁भाव	-9.12591
ଜା	-9.1276
v	-9.12911
▁आनंद	-9.12945
▁उनका	-9.12958
रेन	-9.13216
▁पद	-9.13393
▁करणे	-9.13407
स्क	-9.13435
▁उन्द	-9.13459
▁खो	-9.13541
▁पर्यावरण	-9.13648
ાવ	-9.13656
मधील	-9.13729
▁नए	-9.13765
w	-9.13777
▁कुल	-9.13802
,000	-9.1386
▁कुमार	-9.13879
▁कौन	-9.13891
▁देते	-9.14041
▁આવ્યા	-9.1407
▁हाल	-9.14112
▁દરેક	-9.14122
वू	-9.14176
▁मुख्यमंत्री	-9.14189
▁विविध	-9.14206
▁दूसरे	-9.14259
4	-9.14396
▁ତା	-9.14437
▁विकसित	-9.14439
▁वै	-9.14475
▁हिस्सा	-9.14492
्यो	-9.14507
▁सीमा	-9.14508
्म	-9.14513
▁बढ़ावा	-9.14532
▁झाले	-9.14576
▁कंपनी	-9.14625
▁जाति	-9.14672
▁રહે	-9.14829
▁भावना	-9.14888
▁काल	-9.14945
फा	-9.14952
▁સિ	-9.14958
▁टेम	-9.15112
▁ବା	-9.15167
तात	-9.15287
▁पता	-9.15368
▁आपके	-9.15412
or	-9.15541
वीं	-9.15668
▁माट	-9.15828
▁हतु	-9.15847
▁नरेंद्र	-9.1599
▁ત્યારે	-9.16121
3	-9.16156
▁શરૂ	-9.1618
▁त्यो	-9.16181
▁समझ	-9.16273
୍	-9.16318
गत	-9.16421
ंगी	-9.16596
ଟା	-9.1664
वाद	-9.16827
▁વાત	-9.16856
▁याद	-9.16868
યો	-9.16872
▁पार्टी	-9.16906
▁દરમિયાન	-9.16986
▁s	-9.17005
▁परिणाम	-9.17014
ରୁ	-9.17054
▁આપવામાં	-9.17201
धार	-9.17213
▁परंतु	-9.17236
▁દેશ	-9.17277
▁फा	-9.17291
▁S	-9.17376
▁પહેલા	-9.17379
▁मोटी	-9.17504
▁सह	-9.17539
▁તેના	-9.1757
र्ज	-9.17571
▁एटअः	-9.17614
▁अर्थ	-9.17657
▁अइञ	-9.17747
▁ऊ	-9.17867
▁ऐक	-9.17877
▁नीति	-9.17932
in	-9.17986
ंच्या	-9.18073
▁मुंडा	-9.18158
▁સમય	-9.1832
▁धो	-9.18544
▁નહીં	-9.18601
ंब	-9.18624
▁हात	-9.18642
पणे	-9.18689
राम	-9.18774
▁बनाए	-9.1878
ીય	-9.18807
▁संस्था	-9.18843
▁रोक	-9.18861
આઈ	-9.18887
▁चुनाव	-9.18994
▁સૌથી	-9.19034
▁आपडी	-9.19034
▁तरफ	-9.19077
▁सही	-9.1912
▁વચ્ચે	-9.19183
▁लाव	-9.19287
▁ढ	-9.19293
▁आवा	-9.19381
पति	-9.19415
▁ઇ	-9.19512
ड़ो	-9.19569
▁ताकि	-9.19621
▁अभि	-9.19647
▁ସା	-9.19652
टु	-9.19749
▁11	-9.19755
ણી	-9.19783
▁नौ	-9.19885
પુર	-9.19969
▁मेनाः	-9.19977
▁पसंद	-9.20029
▁प्रदर्शन	-9.20059
ूं	-9.20151
▁पूरे	-9.20316
▁मना	-9.20375
▁A	-9.20395
▁તેની	-9.20398
▁ठेव	-9.20478
ંદ	-9.20511
वान	-9.2052
कृत	-9.20533
▁वर्	-9.20561
कडे	-9.20602
▁राइज	-9.2061
▁केम	-9.20635
▁पहल	-9.20645
નાં	-9.20655
▁स्थिति	-9.20667
▁ऊपर	-9.2068
स्व	-9.20683
▁आए	-9.20704
-20	-9.2075
▁जिसमें	-9.20782
▁पहन	-9.20792
▁कैसे	-9.20903
ଲୁ	-9.20908
▁मूल	-9.20941
▁असा	-9.20948
▁મુખ્ય	-9.21002
▁प्रतिशत	-9.21117
▁मिला	-9.2116
▁लेवा	-9.21203
▁થ	-9.21239
▁7	-9.21328
▁भगवान	-9.21348
▁बच्चों	-9.21372
▁100	-9.21381
▁केन्द्र	-9.21451
▁लगे	-9.21457
यां	-9.21476
▁बढ़ा	-9.21548
▁गाँव	-9.21555
▁પોતાની	-9.21714
▁बदलाव	-9.21868
।’’	-9.21893
ઓને	-9.21942
સ્ત	-9.21951
▁गोटा	-9.22007
र्ट	-9.22048
▁कं	-9.2207
ूर	-9.22112
ંત	-9.22147
नुंग	-9.2215
’’	-9.22202
▁मेरी	-9.22202
▁આવ્યો	-9.22313
▁50	-9.22382
ुम	-9.22397
ଡା	-9.22402
▁कॉ	-9.22436
▁तुम्हाला	-9.22542
▁पुलिस	-9.22543
काल	-9.22548
▁व्यक्ति	-9.2255
▁किसानों	-9.2259
▁રૂપિયા	-9.22628
માન	-9.22701
▁पत्र	-9.22871
ୀ	-9.23008
▁30	-9.23052
▁ओड़अः	-9.23118
▁बताया	-9.23249
▁काय	-9.23372
▁घटना	-9.2348
वानी	-9.2351
▁संकल्प	-9.23668
▁टयद्	-9.23731
▁લે	-9.23844
\'	-9.23847
▁दावा	-9.23914
हरा	-9.24097
▁संयुक्त	-9.24152
▁કરોડ	-9.24155
▁स्थित	-9.24199
▁खाली	-9.24286
▁सूची	-9.24359
ମା	-9.24405
रों	-9.24413
▁ટ	-9.24467
▁25	-9.24489
▁17	-9.24511
▁महाराष्ट्र	-9.24524
▁मार्ग	-9.24565
▁રાખ	-9.24572
▁जोड़	-9.24659
बद्दल	-9.24703
▁क्षेत्रात	-9.24708
▁जन्म	-9.24708
▁हल	-9.24772
▁फि	-9.2486
▁१	-9.2499
िए	-9.25016
▁संविधान	-9.25189
▁जाण	-9.25199
▁लाल	-9.25348
▁कुड़ि	-9.25459
▁યુ	-9.25494
गार	-9.25546
▁प्रशिक्षण	-9.25662
▁रअ	-9.25662
▁पूछ	-9.25684
्क	-9.25796
इञ	-9.25814
ન્ટ	-9.2583
▁अभी	-9.25872
निक	-9.25947
तरा	-9.26
त्री	-9.26038
▁रोजगार	-9.26077
▁રાષ્ટ્રીય	-9.2629
▁વિવિધ	-9.26365
▁दोन	-9.26423
▁તમારા	-9.26514
▁महत्व	-9.26601
▁मल	-9.26698
▁પે	-9.26771
▁शक्ति	-9.26865
▁केल्या	-9.26902
▁9	-9.26951
બી	-9.27052
▁મંત્રી	-9.27096
अर	-9.27099
▁रूपया	-9.27125
ભા	-9.2718
जू	-9.27248
▁मंता	-9.27285
▁फोन	-9.27384
▁टका	-9.27404
b	-9.27411
▁पश्चिम	-9.27413
▁राख	-9.27523
▁सुकु	-9.27572
हना	-9.27631
▁लक्ष	-9.27655
▁जिस	-9.27783
नाथ	-9.27795
▁वखत	-9.27847
ાં	-9.27869
▁કરતા	-9.27921
▁रेआ	-9.27976
▁રહ્યો	-9.27999
िट	-9.28093
▁मरङ	-9.28131
▁निवेश	-9.28151
▁चो	-9.28209
▁पाठ	-9.28288
▁रोज	-9.28288
योग	-9.28322
▁दड़ि	-9.28374
▁करतो	-9.28602
▁जिससे	-9.28655
▁झाला	-9.28667
▁ପା	-9.28674
▁करसाण	-9.28769
▁मेरा	-9.28779
▁मांग	-9.28944
▁थावा	-9.28944
▁झाली	-9.2901
▁રાજ	-9.29163
▁प्रभाव	-9.29232
▁पहुंच	-9.29239
▁ଲ	-9.29308
▁गाय	-9.29326
ୁ	-9.29416
▁ગુ	-9.29442
▁हू	-9.29443
▁वार	-9.29513
▁छोड़	-9.29695
्व	-9.29706
▁साफ	-9.29792
▁साहित्य	-9.29804
▁મળે	-9.29836
▁ऑफ	-9.29842
ण्या	-9.29844
▁मिट्टी	-9.30006
▁प्रक्रिया	-9.30051
▁p	-9.30147
f	-9.30179
▁16	-9.30212
▁प्रणाली	-9.30299
▁जावा	-9.30363
▁आधुनिक	-9.30454
▁प्रेरणा	-9.30609
▁सुनिश्चित	-9.30609
▁देशों	-9.30612
▁ठ	-9.30633
▁समावेश	-9.30734
▁व्यक्त	-9.30899
સ્	-9.30912
▁होबाओ	-9.30913
▁स्वच्छता	-9.3094
चित	-9.30956
▁रात	-9.31034
▁पाल	-9.31081
▁गये	-9.31287
▁चीन	-9.31326
▁આપ	-9.31411
▁बेसे	-9.31542
▁छत्तीसगढ़	-9.31549
▁मौ	-9.31747
▁ज्ञान	-9.31757
▁અનેક	-9.3179
▁तिनी	-9.31855
▁बिहार	-9.31875
▁मेन	-9.31935
म्प	-9.31951
▁પી	-9.32082
▁हुड़िङ	-9.32088
ल्ल	-9.32114
▁हमेशा	-9.32147
ंची	-9.32174
▁मू	-9.32286
ટે	-9.3234
▁तला	-9.32351
▁सकती	-9.32654
▁आधारित	-9.32659
▁લ	-9.3269
धु	-9.32751
▁ઓ	-9.328
▁इसी	-9.32829
ing	-9.32837
ીને	-9.32935
m	-9.32946
▁ओमा	-9.32948
▁खेळ	-9.32977
ंडा	-9.32992
झा	-9.33003
▁योग्य	-9.33091
▁दिली	-9.33096
▁दिला	-9.33122
▁होईल	-9.33172
थे	-9.33201
્યુ	-9.3322
ેલ	-9.33223
▁सांग	-9.33243
▁लेकन	-9.33326
▁M	-9.33376
▁हारु	-9.33381
▁14	-9.33447
▁क्योंकि	-9.33597
सह	-9.33613
र्म	-9.33628
पर्यंत	-9.3363
▁आरोग्य	-9.33642
द्य	-9.337
फी	-9.33716
▁आवश्यकता	-9.33869
▁संसाधन	-9.34093
ંક	-9.34111
ସି	-9.34117
it	-9.34122
▁વિશેષ	-9.34234
ण्यात	-9.34354
▁જેમ	-9.34376
▁पस	-9.34412
▁त्योहार	-9.34435
▁जग	-9.34459
▁जाएगा	-9.34469
▁C	-9.3447
▁कदम	-9.34477
▁सहायता	-9.3459
▁ସି	-9.34629
चो	-9.34633
▁मनखु	-9.34798
▁कियना	-9.34803
▁संदेश	-9.34826
▁शासन	-9.34978
▁દર	-9.35013
ic	-9.35174
▁सै	-9.3527
▁वर	-9.35349
ପା	-9.35362
▁माँ	-9.35416
▁कोटी	-9.35595
▁13	-9.35621
▁વિશે	-9.35634
▁ધ	-9.35769
▁अपन	-9.35886
▁स्वतंत्रता	-9.35909
હે	-9.35956
▁खोज	-9.35996
द्र	-9.36005
▁यदि	-9.36011
▁न्याय	-9.36015
▁राज्यों	-9.36033
▁लोकप्रिय	-9.36045
▁मियद	-9.36053
▁जाई	-9.36084
ांसाठी	-9.36272
લો	-9.36275
▁समान	-9.36338
કી	-9.36357
ସେ	-9.36358
▁ઘ	-9.36413
▁बोंगा	-9.36433
्ट	-9.36559
▁सम्मान	-9.36587
्रि	-9.36724
▁પાણી	-9.36754
▁राज्‍य	-9.3677
▁आयोग	-9.36788
▁जनजाति	-9.36837
ଲ	-9.36843
ટર	-9.36866
▁तअः	-9.36867
धर	-9.36911
▁કારણ	-9.36917
▁शे	-9.36992
▁होत	-9.37001
▁जीत	-9.37021
ન્સ	-9.37023
ટા	-9.37192
▁જીવન	-9.37196
▁असेल	-9.37203
▁ક્ષેત્ર	-9.37252
▁जम्मू	-9.37401
▁विजय	-9.37464
▁हती	-9.37521
▁सड़क	-9.37534
▁आरोप	-9.37721
▁પાક	-9.37777
ଡ଼ା	-9.37815
णाऱ्या	-9.37826
es	-9.37933
▁बह	-9.37972
▁प्रयोग	-9.37998
▁खाना	-9.3804
▁पालन	-9.38162
en	-9.38322
▁ट्र	-9.38324
िर	-9.38346
वास	-9.38361
▁राजस्थान	-9.38384
▁जमीन	-9.38442
▁आत	-9.38454
▁मूल्य	-9.38497
ताना	-9.38519
▁बिर	-9.38539
०	-9.38592
▁व्या	-9.38616
िता	-9.38636
▁આદિવાસી	-9.38641
▁खबर	-9.38709
▁कोशिश	-9.38711
▁बीज	-9.3876
▁भविष्य	-9.3881
▁सात	-9.3881
करी	-9.38881
▁रेल	-9.38883
▁વિશ્વ	-9.3891
▁पैदा	-9.38913
▁रआ	-9.38948
▁तोर	-9.39114
▁समर्थन	-9.39148
ंच	-9.39187
▁कृषी	-9.3925
▁समूह	-9.39266
▁आयो	-9.39369
▁મદદ	-9.39386
▁उतर	-9.39418
ବ	-9.39437
▁માત્ર	-9.3944
▁બંને	-9.3959
धि	-9.39592
कुल	-9.39592
▁75	-9.39707
नंग	-9.39822
▁देखील	-9.39987
▁मिले	-9.4
▁P	-9.40037
त्व	-9.4006
▁ଅ	-9.40072
le	-9.40129
किन	-9.40133
▁તમને	-9.40136
▁जोम	-9.40149
▁स्वच्छ	-9.40195
ट्	-9.40317
फ़	-9.40346
▁कुन	-9.40357
▁क्र	-9.40411
स्‍त	-9.40522
▁शिक्षण	-9.40593
▁खान	-9.40609
ांत	-9.40671
▁तेव्हा	-9.40829
▁આવશે	-9.40857
તિ	-9.40884
▁दिखा	-9.40888
▁पर्यटन	-9.40892
▁જેમાં	-9.40901
▁विविधता	-9.40942
▁लक्ष्य	-9.40967
શો	-9.41069
▁चिनअः	-9.41209
▁होरा	-9.41283
at	-9.41344
▁जांच	-9.41413
ણા	-9.41429
▁य	-9.41434
▁वैज्ञानिक	-9.41445
व्या	-9.41457
▁होय	-9.41462
▁રહ્યું	-9.41514
▁કેન્દ્ર	-9.4156
િન	-9.41667
▁जनता	-9.41726
▁नरेन्द्र	-9.41726
▁પ્રોત્સાહન	-9.41792
▁ફિલ્મ	-9.41897
▁ભારતના	-9.41904
क्रम	-9.4195
▁थो	-9.41975
▁स्थानीय	-9.41994
तरी	-9.42021
▁बूतो	-9.42028
▁मळे	-9.4203
क्त	-9.42031
▁बीजा	-9.42061
▁સી	-9.4207
▁तीनी	-9.42076
▁मिसा	-9.42114
वाई	-9.42169
▁धा	-9.42186
बंध	-9.42207
▁आला	-9.42215
▁कश्मीर	-9.4223
କ୍	-9.42266
िङ	-9.42327
▁इसका	-9.42332
▁तइन	-9.42334
टिंग	-9.42368
ल्ड	-9.4241
▁बेस	-9.42452
▁आजादी	-9.42477
ुआ	-9.42493
તો	-9.42551
▁चले	-9.42577
▁भाजपा	-9.42606
▁हातु	-9.42649
युं	-9.42661
▁भारताच्या	-9.42677
रोम	-9.42695
च्छ	-9.4274
पूर्ण	-9.42741
▁G	-9.42742
S	-9.4283
न्न	-9.42873
र्थ	-9.42889
▁निकाल	-9.42914
▁परियोजना	-9.43109
▁राष्ट्रपति	-9.43212
▁मने	-9.43271
ସ୍	-9.43322
▁वहाँ	-9.43337
कू	-9.43393
▁ग्राम	-9.43413
ेला	-9.43418
▁शोध	-9.43438
▁माता	-9.43541
▁दस	-9.43671
▁इससे	-9.43701
▁संगठन	-9.43762
बू	-9.43771
▁पिछले	-9.43789
▁प्रा	-9.43789
2000	-9.43826
लों	-9.43836
▁l	-9.43873
डवा	-9.43959
▁मामला	-9.43982
▁मोटो	-9.44101
▁ગો	-9.44227
▁कियाना	-9.44243
▁जिना	-9.44312
▁निकल	-9.44373
ण्	-9.44383
▁इतु	-9.44422
▁तरेह	-9.44473
▁माय	-9.44522
ध्य	-9.4463
▁କ	-9.44698
▁મહત્વપૂર્ણ	-9.44724
नू	-9.44764
▁डाल	-9.4482
▁गति	-9.44854
ेशन	-9.44892
▁समृद्ध	-9.44911
▁જરૂરી	-9.44956
ઓમાં	-9.44998
मंत्री	-9.44999
न्ना	-9.45014
▁इनि	-9.45039
▁सार्वजनिक	-9.45046
▁पहचान	-9.45047
▁देंगा	-9.45068
▁नंबर	-9.45085
▁ସ	-9.45104
▁सामान्य	-9.45166
▁रीत	-9.45174
▁सफलता	-9.45206
▁वेह	-9.45236
▁लोर	-9.45287
▁लेने	-9.45317
▁रोग	-9.45336
▁बिना	-9.45379
▁मारा	-9.45388
्त	-9.45411
▁महान	-9.45418
▁भेज	-9.45426
▁चित्रपट	-9.45448
चर	-9.45493
यार	-9.45505
▁કૃષિ	-9.45515
वले	-9.45596
दन	-9.45675
▁किय	-9.45681
▁कल्याण	-9.45733
▁अं	-9.45741
▁આગળ	-9.45768
▁सभा	-9.45776
▁गेले	-9.4579
▁लड़ाई	-9.45796
▁जीवा	-9.45894
▁ગામ	-9.45937
▁मळ	-9.46002
चार	-9.46039
▁उसकी	-9.46056
▁चाहता	-9.46063
િલ	-9.461
▁કરશે	-9.46103
ation	-9.46216
▁રે	-9.46359
मिन	-9.46378
▁अउ	-9.46397
▁કેટલાક	-9.46435
मार	-9.46521
इड	-9.46541
▁प्रकाश	-9.4656
▁હવે	-9.46562
▁करयो	-9.46567
क्षण	-9.46641
णु	-9.46703
▁देना	-9.4671
▁तुमच्या	-9.46772
બા	-9.4683
લિ	-9.46846
▁गरज	-9.46896
▁गाव	-9.46897
▁मेना	-9.46913
▁घोषणा	-9.47007
▁बिजली	-9.47008
▁डॉलर	-9.47085
▁चाह	-9.47126
▁लु	-9.47222
ीत	-9.47349
▁वर्षा	-9.4737
▁तीना	-9.47504
આર	-9.47518
ଞ୍ଜା	-9.47598
ૌ	-9.47714
▁फे	-9.47745
▁થયો	-9.47757
▁निर्	-9.47818
▁शेतात	-9.47874
हित	-9.47898
▁परिवर्तन	-9.4793
▁आयु	-9.47947
ମ୍	-9.48007
▁માંગ	-9.48037
▁ધ્યાન	-9.48039
अलग	-9.48086
▁तरीका	-9.48117
▁कृपया	-9.48187
▁कर्नाटक	-9.48224
▁अमेरिका	-9.48299
▁जहाँ	-9.48299
सू	-9.48326
▁करार	-9.48337
▁विरोध	-9.48342
▁वदारे	-9.4838
▁घो	-9.48403
▁भागीदारी	-9.4842
ଲି	-9.48454
▁2019	-9.48537
▁टु	-9.48552
▁सूचना	-9.48597
%	-9.48708
દા	-9.488
▁जेव्हा	-9.4882
ହା	-9.48861
▁गिर	-9.48862
▁वैश्विक	-9.48932
त्र्प्र	-9.48958
ेस	-9.48969
ाल	-9.49034
▁गृह	-9.49036
મે	-9.49129
▁दर्ज	-9.49169
▁अशा	-9.49183
▁જેથી	-9.49264
▁बणा	-9.49282
▁नया	-9.49391
धन	-9.49468
▁पर्र	-9.49471
▁जागतिक	-9.49494
ાન	-9.49502
▁c	-9.49561
▁સો	-9.49629
▁कू	-9.49688
▁देखने	-9.49723
▁सिर्फ	-9.4973
▁जेर	-9.49764
लोः	-9.49808
▁नुकसान	-9.49908
▁କା	-9.49971
st	-9.49978
क्क	-9.49984
▁ठा	-9.50049
सार	-9.50073
▁કારણે	-9.50091
यन	-9.50131
▁ନା	-9.50168
▁फल	-9.5017
▁થશે	-9.50227
ेट	-9.50233
▁घेत	-9.50242
▁रहने	-9.50296
▁आयर	-9.50301
▁મળી	-9.50381
▁संस्थान	-9.50385
▁स्प	-9.50399
▁પ્રથમ	-9.504
▁हरू	-9.50408
ળી	-9.50422
પ્ર	-9.50439
▁बणावी	-9.50459
▁हीं	-9.5047
एअ	-9.50484
▁21	-9.50496
▁मनातिङ	-9.50521
▁आदेश	-9.50546
वाल	-9.5056
▁नगर	-9.50574
▁લેવા	-9.50585
25	-9.50613
▁ઈ	-9.50654
जर	-9.50666
▁कोआ	-9.50695
▁मं	-9.50699
▁ખેતી	-9.50704
▁शकतो	-9.50726
▁ઉપ	-9.50733
▁लेहका	-9.50783
એમ	-9.50803
▁जास्त	-9.50827
କ	-9.50905
▁मोबाइल	-9.50933
ौर	-9.50944
40	-9.50974
▁आपने	-9.51002
▁माने	-9.51004
▁आवी	-9.51121
▁आबु	-9.51308
▁अंतर	-9.51332
वल	-9.51423
50	-9.51424
▁अमृत	-9.5152
पूर	-9.51534
▁સે	-9.51656
▁तंत्रज्ञान	-9.51738
▁सर्वात	-9.51764
▁मति	-9.51793
▁बेहतर	-9.51809
▁बैठ	-9.51857
▁सुना	-9.51879
▁ઉત્પાદન	-9.51956
▁किलोमीटर	-9.51968
ंङ	-9.5203
▁लिये	-9.52071
न्स	-9.52081
▁નવા	-9.52093
त्ता	-9.52095
▁धार्मिक	-9.52122
▁तिन	-9.52203
▁रोजी	-9.52205
▁वित्त	-9.52232
भाव	-9.52264
कडून	-9.52289
પા	-9.52324
▁ओळख	-9.52358
नंतर	-9.52373
▁खुशी	-9.5238
▁जाये	-9.52432
શા	-9.52503
प्प	-9.52582
▁मोठ्या	-9.52586
ेक	-9.5259
ଟି	-9.52591
▁નામ	-9.52621
▁હા	-9.52646
ियु	-9.52664
▁अल	-9.527
ୋ	-9.52702
▁साम	-9.52709
प्	-9.52793
▁शांति	-9.52808
▁મંત્રાલય	-9.52842
▁करण्याची	-9.52842
▁समस्या	-9.52861
षण	-9.5288
▁रीति	-9.52957
▁उत्साह	-9.52975
▁अतिरिक्त	-9.53013
▁नीं	-9.5312
▁बांध	-9.53123
▁જ્યાં	-9.5313
▁तिने	-9.5316
इस	-9.5325
▁जाऊ	-9.53255
ेगा	-9.53275
▁ओजना	-9.53281
▁ओल	-9.53292
▁हिजु	-9.53331
ch	-9.53423
कना	-9.5347
▁પૂર્વ	-9.535
कारी	-9.53544
વ્ય	-9.53546
▁हरियाणा	-9.5356
▁महोत्सव	-9.53562
▁दुरङ	-9.536
कुन	-9.53689
निः	-9.53693
▁रया	-9.53725
▁ટકા	-9.53736
िड	-9.53769
िम	-9.53822
▁बच्चे	-9.53835
▁रेअ	-9.53852
▁चित्र	-9.53886
देव	-9.54017
▁तेल	-9.54066
▁इमतङ	-9.54267
िये	-9.54312
▁पुन	-9.54317
▁मई	-9.54396
ાર	-9.54417
▁दनिया	-9.54421
▁2018	-9.54481
▁युद्ध	-9.54494
▁पेहल	-9.54511
द्वारे	-9.54554
▁ग्र	-9.54568
▁नावा	-9.54656
વવા	-9.54714
▁इम	-9.54717
▁गेल	-9.54806
▁असम	-9.54825
▁मीडिया	-9.54895
▁अच्छी	-9.54901
▁शब्द	-9.5494
लिंग	-9.54959
▁ऐतिहासिक	-9.55059
▁बनाया	-9.55061
▁परीक्षा	-9.55062
ेन	-9.55071
▁आवे	-9.55084
▁જેના	-9.55137
▁भुगतान	-9.55178
लिया	-9.55191
▁सअः	-9.55219
क्टर	-9.55271
▁કરવાની	-9.55287
▁भूमि	-9.55295
ग्र	-9.55348
ालय	-9.55371
▁तौर	-9.55389
▁दशक	-9.55397
▁तिहु	-9.55398
क्र	-9.5542
▁દેશો	-9.55424
▁બનાવવા	-9.5546
▁वरह	-9.55521
▁હો	-9.55579
▁नना	-9.55612
▁करीब	-9.55636
▁सुरक्षित	-9.55701
▁ક્ષેત્રમાં	-9.55774
▁ओडिशा	-9.55777
re	-9.55797
R	-9.55837
वारी	-9.55838
▁शुरुआत	-9.55897
▁दुकान	-9.55906
▁કર્યા	-9.55914
दारी	-9.55914
▁मावा	-9.55965
-‘‘	-9.56002
▁एटेः	-9.56059
रां	-9.56114
▁ઇન્	-9.56245
ି	-9.56273
▁घणो	-9.56282
િસ	-9.5632
▁एल	-9.5636
થા	-9.56365
ओअ	-9.56409
▁તમારી	-9.56532
▁विरासत	-9.56621
▁विस्तार	-9.56621
▁बधाई	-9.56621
▁लेख	-9.56684
▁इसमें	-9.56777
▁અધ્યક્ષ	-9.56782
▁રા	-9.56805
▁वसमा	-9.56916
▁મારી	-9.5694
▁करतात	-9.56993
▁जबकि	-9.57006
न्य	-9.57018
▁સુરક્ષા	-9.57106
ପି	-9.57171
▁स्थापना	-9.57271
▁प्रकल्प	-9.57309
ेज	-9.57354
▁येत	-9.5745
▁जित	-9.57519
▁महिलाओं	-9.57562
▁સામાન્ય	-9.57594
▁प्रस्ताव	-9.57594
▁बद	-9.57665
▁जहां	-9.57686
▁प्रधान	-9.57714
▁जिले	-9.57769
▁उपाय	-9.57782
सोबत	-9.57787
▁जुड़	-9.5785
ेड	-9.5789
▁दअः	-9.57908
▁इन्	-9.57931
▁જરૂર	-9.57942
▁करीन	-9.57984
▁तय	-9.57997
▁कार्ड	-9.58041
▁आपड़ी	-9.58097
▁मिलता	-9.58206
▁मस	-9.58289
शील	-9.58406
ol	-9.58589
▁भेट	-9.5865
▁कट	-9.58655
▁कोके	-9.58679
▁બેંક	-9.58727
ખા	-9.5879
19	-9.58792
▁अपि	-9.588
▁सोरा	-9.58809
▁होना	-9.58823
▁प्रबंधन	-9.58855
‍	-9.58861
ंमध्ये	-9.58861
▁केवळ	-9.58928
▁200	-9.58983
▁अनुसंधान	-9.59031
▁केरल	-9.59042
▁स्वीकार	-9.59072
▁गंगा	-9.5908
▁छोटे	-9.59208
▁दवा	-9.59306
O	-9.59445
ियर	-9.59452
▁છ	-9.59494
▁मुटन	-9.59518
▁याशिवाय	-9.59534
▁कुटुंब	-9.5957
▁गुरु	-9.59679
▁ओकोन	-9.59789
▁भागात	-9.59818
સ્થ	-9.59833
▁માહિતી	-9.59861
▁दिए	-9.59873
्रो	-9.60009
घा	-9.60048
▁તૈયાર	-9.60153
▁दोन्ही	-9.60196
यें	-9.6021
थि	-9.60408
▁स्पष्ट	-9.60463
▁पुट	-9.60479
ધાર	-9.605
▁जून	-9.60509
खे	-9.60576
▁लगता	-9.60592
▁पीला	-9.60691
▁वड़	-9.60748
▁दिनों	-9.60843
▁खि	-9.60869
▁स्थापित	-9.60951
▁चाहे	-9.60952
एपे	-9.60985
ातून	-9.60995
▁देशवासियों	-9.61093
▁પરિવાર	-9.6112
દાર	-9.61159
▁चिमिन	-9.61163
▁નરેન્દ્ર	-9.61331
निया	-9.61365
ण्याचे	-9.61441
पेक्षा	-9.61492
▁मुख	-9.61524
▁जिनिस	-9.61676
ंध	-9.61733
▁येथे	-9.61787
▁पहली	-9.61799
A	-9.61823
▁नेतृत्व	-9.6184
बरोबर	-9.6189
▁उसका	-9.61898
▁सहकार्य	-9.61926
▁2014	-9.61983
▁બદલ	-9.61988
यतंग	-9.62002
त्य	-9.62013
ुक	-9.62064
18	-9.62091
▁पोल्लो	-9.62096
▁શિક્ષણ	-9.62138
▁प्रश्न	-9.62186
▁स्‍	-9.62193
▁स्क	-9.62195
▁तिनान	-9.62237
▁થયા	-9.62243
▁ऐसी	-9.62349
न्ड	-9.624
▁2020	-9.62467
▁જાણ	-9.62506
ମ୍ବା	-9.6261
फो	-9.62636
▁પ્રયાસ	-9.62641
दुर	-9.6267
▁चीज	-9.62674
▁धान	-9.62712
▁શિ	-9.6272
ાઉ	-9.62725
▁ओते	-9.62726
ગત	-9.62736
▁तयोम	-9.62786
ांवर	-9.6286
▁આપે	-9.62967
▁T	-9.63045
▁प्रेम	-9.63052
▁अयर	-9.63076
▁क्रिकेट	-9.63124
▁पेड़	-9.63126
▁रखने	-9.63151
▁यांना	-9.63182
नुसार	-9.63279
श्‍	-9.6331
▁पैसे	-9.63345
▁પ્રદેશ	-9.63426
ण्याचा	-9.63533
નિ	-9.63537
▁आवाज	-9.63558
▁स्वाद	-9.63735
▁रिया	-9.63738
▁बाता	-9.6385
भर	-9.63887
▁निभा	-9.63944
र्न	-9.63978
हम	-9.63982
▁व्यंजन	-9.63989
▁સમાજ	-9.6399
▁गाम	-9.64002
▁બધા	-9.6401
▁વ્યક્તિ	-9.6411
▁अमित	-9.64126
▁देण्यात	-9.6413
▁झालेल्या	-9.64171
▁બનાવ	-9.64214
▁संपर्क	-9.6422
▁જોવા	-9.64275
▁हित	-9.6431
▁ખાસ	-9.64324
ତି	-9.64354
▁शो	-9.6439
▁आग	-9.64402
▁पुरस्कार	-9.64425
▁दू	-9.64469
▁निम्मा	-9.64495
क्ट	-9.64504
▁करण्याचे	-9.64505
▁असलेल्या	-9.64507
▁बिल	-9.64549
टू	-9.64695
▁યોજનાઓ	-9.64723
ટ્ર	-9.64725
▁प्रोत्साहन	-9.64731
▁પો	-9.64833
▁બોલ	-9.64835
ेंद्र	-9.64892
▁ટેકનોલોજી	-9.64906
▁मुंबई	-9.6495
▁मित्र	-9.64984
अन	-9.64993
▁सुबह	-9.64995
▁વિચાર	-9.65058
ପ୍	-9.65083
▁આપણી	-9.6514
▁પડશે	-9.6517
▁मौजूद	-9.6517
▁प्रगति	-9.6517
▁નિર્માણ	-9.65184
ସ	-9.65201
साथ	-9.65208
▁सामने	-9.65409
▁પાસે	-9.65429
▁बिजा	-9.6544
હિ	-9.6546
▁हाव	-9.65536
▁वेळ	-9.6554
जदा	-9.65552
▁रहते	-9.65586
▁બાદ	-9.65628
▁मंत्र	-9.65664
(	-9.65684
▁ત્યાં	-9.65698
▁प्यारे	-9.65771
▁લોકોને	-9.65786
કલ	-9.65791
ज्ज	-9.65809
તર	-9.65953
▁नुतुम	-9.65974
▁निर्देश	-9.66002
▁वदार	-9.66042
▁आवाहन	-9.66048
▁क्ल	-9.66063
▁विवाह	-9.66093
▁टि	-9.66189
▁अंत	-9.66218
▁ઘર	-9.66234
▁माल	-9.66281
▁હેઠળ	-9.66319
▁सिर	-9.66328
▁સામેલ	-9.66367
▁न्यायालय	-9.66382
▁जुड़े	-9.66456
▁40	-9.6648
▁वाळी	-9.66514
तः	-9.66573
मर	-9.66611
▁उसी	-9.66636
▁देण्यासाठी	-9.66688
▁करि	-9.66691
▁લાભ	-9.66759
▁सनङ	-9.66783
▁राय	-9.66785
ेह	-9.66817
▁તેથી	-9.6685
▁culture	-9.669
▁मळी	-9.6692
▁पट	-9.66935
▁बेरा	-9.6697
ro	-9.67012
▁वाह	-9.67077
▁महीने	-9.67129
▁नमोः	-9.67165
ઘ	-9.67196
▁जां	-9.67237
▁प्रो	-9.67297
▁आण	-9.67305
▁च्या	-9.67313
30	-9.67327
▁फायदा	-9.67348
▁शकते	-9.67349
କେ	-9.67359
16	-9.67413
▁उपक्रम	-9.6742
▁सीख	-9.67455
ગી	-9.67606
▁सकें	-9.67637
▁મજબૂત	-9.67662
▁सपोय	-9.67753
▁नव	-9.67797
▁जलवायु	-9.67798
ତେ	-9.67841
▁અધિકારીઓ	-9.67852
▁શકો	-9.67874
▁શા	-9.67889
▁यहां	-9.6791
વાની	-9.68219
▁सन	-9.68224
▁पहुँच	-9.68341
▁ત્રણ	-9.68342
▁उद्देश्य	-9.68343
स्ट्र	-9.68382
▁थाहे	-9.6844
▁2017	-9.68447
▁बताओ	-9.68453
▁गलत	-9.68456
यना	-9.68531
डू	-9.68536
ମେ	-9.68555
▁त्यांचे	-9.68645
▁યોગ્ય	-9.68668
ଡ଼	-9.6868
र्ण	-9.68701
કે	-9.6874
▁बिचार	-9.68742
ତାରି	-9.68825
▁संप	-9.6884
▁आन्द	-9.68941
▁2016	-9.6895
▁उंद	-9.68953
▁पं	-9.68993
▁वदु	-9.6907
▁शायद	-9.6907
▁ପୁ	-9.69078
▁उद	-9.69101
हून	-9.69171
कम	-9.69221
▁छा	-9.69305
▁રોજ	-9.69308
▁तोबे	-9.69309
▁पंचायत	-9.69391
ड्ड	-9.69409
▁एनते	-9.69416
▁अयुम	-9.69474
▁श्र	-9.69482
▁સિંહ	-9.69539
▁ताना	-9.69558
▁अर्थव्यवस्था	-9.69574
▁चाहते	-9.69585
▁रखा	-9.69701
▁धन्यवाद	-9.69712
▁मंड	-9.69844
▁सुर	-9.69852
▁मन्ता	-9.69882
षा	-9.69883
▁મોટી	-9.69884
્રા	-9.69948
▁बढ़ाने	-9.69956
▁मारी	-9.6999
▁जातात	-9.70105
▁मतलब	-9.70223
33	-9.70228
▁26	-9.70247
ऐ	-9.70251
▁राजनीतिक	-9.70282
▁रेलवे	-9.70318
▁सोमय	-9.70329
च्च	-9.70339
▁रसिका	-9.70466
▁सपय	-9.70508
▁मिलती	-9.70522
▁अन्न	-9.70604
▁पेहला	-9.70618
▁पांच	-9.70655
▁लागत	-9.70679
▁कहते	-9.70682
▁प्रभावित	-9.70717
▁सुख	-9.70721
14	-9.70733
sv	-9.70737
ियम	-9.70782
▁उद्घाटन	-9.70822
▁हवाई	-9.70836
july	-9.70868
▁कुबेय	-9.70869
▁एनका	-9.70899
▁हरा	-9.70977
જુ	-9.70989
▁m	-9.71024
▁ખેતરમાં	-9.71094
▁पड़हे	-9.711
21	-9.71126
▁जैव	-9.7113
▁कदी	-9.71198
लोर	-9.71284
େ	-9.71349
▁आपले	-9.71373
▁अपनअः	-9.71389
▁संधी	-9.7146
▁शहरी	-9.71508
ूँगा	-9.7152
▁म्हटले	-9.71569
▁जागा	-9.71605
▁24	-9.71645
्रे	-9.71686
▁2015	-9.7172
▁સામે	-9.71725
et	-9.71766
वाह	-9.71816
▁જળ	-9.71855
▁प्रौद्योगिकी	-9.71889
ामध्ये	-9.71904
▁દૂર	-9.71913
C	-9.71936
ूल	-9.71963
▁करियो	-9.71974
ଜ	-9.71975
ताओं	-9.71977
ंचे	-9.72002
न्त	-9.72089
M	-9.72101
▁तमिलनाडु	-9.7218
▁प्राकृतिक	-9.7218
▁गी	-9.72257
▁जातो	-9.72353
▁इने	-9.72392
▁आंदोलन	-9.72461
▁મુજબ	-9.72464
▁देवा	-9.72521
▁सुरुवात	-9.72557
▁બેઠકમાં	-9.72557
▁प्रेरित	-9.72558
▁वहां	-9.72588
▁सामना	-9.72591
▁नियंत्रण	-9.72653
▁लगातार	-9.72706
र्च	-9.72726
▁करेगा	-9.72753
फे	-9.72764
त्ती	-9.72787
▁व्यापक	-9.72796
▁पड़े	-9.72824
▁ज़	-9.72875
▁નિર્ણય	-9.7289
ીએ	-9.72951
▁खुश	-9.73073
चु	-9.73079
▁खरेदी	-9.73128
▁देवी	-9.73189
▁અહીં	-9.73223
▁बाहेर	-9.73246
▁बणी	-9.73258
▁बराबर	-9.73272
▁वाद	-9.73306
अकन	-9.73348
▁मैदान	-9.73386
▁वरिष्ठ	-9.73414
▁नेका	-9.73436
▁अरे	-9.73461
એફ	-9.73464
▁पर्व	-9.73472
यान	-9.73563
▁कीसोर	-9.73599
वली	-9.7362
▁हों	-9.73632
▁करणार	-9.73676
▁सैनिक	-9.73719
▁समिति	-9.73725
▁માર	-9.73768
ેલા	-9.73781
▁पुस्तक	-9.73797
યુ	-9.73802
ुल	-9.73808
▁નીતિ	-9.73849
04.	-9.73884
▁यही	-9.73952
बाबत	-9.73973
▁ବ	-9.74031
▁प्रशासन	-9.74037
▁हुदी	-9.74094
▁दोस्त	-9.741
▁कर्ज	-9.74122
11	-9.74126
P	-9.74176
▁વધારવા	-9.74229
▁पुढे	-9.74229
▁संघर्ष	-9.74239
▁મોટા	-9.74247
?"	-9.74298
▁સારી	-9.74305
▁वीर	-9.74321
▁धरती	-9.74425
्वा	-9.74442
▁आशा	-9.74464
कोअः	-9.74578
▁लअः	-9.74616
▁ग्या	-9.74652
ज़ा	-9.74656
▁रेगे	-9.7474
▁बल्कि	-9.7476
▁इलाका	-9.74813
▁शेती	-9.74831
▁उनको	-9.74849
્મ	-9.7487
▁हक	-9.74876
▁D	-9.74894
▁घट	-9.74928
ંધ	-9.74986
▁बहु	-9.75011
▁गुणवत्ता	-9.75099
▁पोहोच	-9.75148
▁મેં	-9.75195
▁झारखंड	-9.75196
▁ખેડૂતો	-9.75212
▁बदले	-9.75234
राष्ट्र	-9.75292
▁घेतला	-9.75376
▁d	-9.75377
ଞ୍ଜୁ	-9.75382
लिक	-9.75384
▁तसेच	-9.75392
वें	-9.75396
▁ભારતમાં	-9.75571
ଦୁ	-9.75594
▁ઇન્ડિયા	-9.75635
▁मेन्ते	-9.75636
▁ગયા	-9.75664
▁बचा	-9.75685
▁बोर्ड	-9.75692
▁हिसाब	-9.75742
▁वाय	-9.75779
ष्ठ	-9.75819
32	-9.7585
गढ़	-9.75877
▁મુલાકાત	-9.75879
▁बढ	-9.7588
▁मनो	-9.75935
▁रम	-9.75937
बार	-9.75953
state	-9.75982
▁होनको	-9.76004
▁સમુદાય	-9.76026
ଜୁ	-9.76089
शु	-9.7609
▁કરવી	-9.76253
▁શરૂઆત	-9.76271
▁सुसुन	-9.76327
▁सामान	-9.76354
▁પોતાન	-9.76359
दान	-9.76372
▁ପ	-9.76376
डिया	-9.76393
▁ઉત્તર	-9.76419
कान	-9.76495
▁जाहे	-9.76499
▁पड़ा	-9.76544
▁પહેલ	-9.76549
▁मिअद्	-9.76563
▁स्वयं	-9.76569
अप	-9.76589
▁फो	-9.76607
ରେ	-9.7664
ાસ	-9.76686
▁N	-9.76711
कोअ	-9.76721
▁I	-9.76731
▁तुसिङ	-9.76764
ମ	-9.76764
▁लोःते	-9.76775
▁कधी	-9.76809
▁सोड	-9.76912
▁होऊ	-9.76942
ઢ	-9.76957
▁मेहनत	-9.76974
▁કરવું	-9.76979
क्‍त	-9.76996
▁જાહેર	-9.77011
▁तरी	-9.77095
▁કરવાનો	-9.77129
ार्थ	-9.77132
▁દેશના	-9.77146
▁દિલ્હી	-9.7726
▁संपूर्ण	-9.77318
ଦି	-9.77364
▁2022	-9.77374
is	-9.77383
▁मिलकर	-9.77383
देह	-9.77388
▁तइ	-9.774
न्तोर	-9.77509
▁एनतअः	-9.77555
▁एकता	-9.77564
ed	-9.77566
भारत	-9.77591
▁पिता	-9.7774
▁indian	-9.77756
▁रहता	-9.77804
▁વ્યવસ્થા	-9.77806
▁खोल	-9.77807
ज्ञ	-9.77823
▁हुड़	-9.77847
▁गण	-9.77856
▁पॉ	-9.77867
▁नेया	-9.77869
▁एफ	-9.77955
▁नये	-9.77969
▁f	-9.77988
sentences	-9.78106
▁गौरव	-9.78107
▁संशोधन	-9.78156
▁कौशल	-9.78204
▁स्थल	-9.78215
▁બની	-9.78224
ટો	-9.78225
ट्र	-9.78228
▁લાખ	-9.78244
▁आतंकवाद	-9.78256
▁आठ	-9.78279
▁तिनायी	-9.78306
▁साध	-9.78341
▁फर	-9.78383
▁નદી	-9.78394
▁वापस	-9.78433
▁દેશમાં	-9.78435
▁समाधान	-9.78513
▁Conv	-9.78594
▁स्थापन	-9.78655
ପ	-9.78665
▁नजर	-9.78695
केद्	-9.78743
▁प्रवेश	-9.78759
13	-9.78857
▁સંબંધિત	-9.78872
▁आइ	-9.78893
_06	-9.78977
▁निर	-9.78986
सम	-9.7899
▁સ્થિતિ	-9.78997
▁हासिल	-9.79064
▁શહેર	-9.79093
▁साधन	-9.79108
▁भेळा	-9.7911
▁विदेश	-9.79132
भू	-9.79192
09	-9.79203
▁अधिकारियों	-9.79248
▁स्वा	-9.79266
▁લગભગ	-9.79314
▁आर्	-9.79361
▁सामूहिक	-9.79365
▁शिक्षक	-9.79467
▁मार्च	-9.79514
▁उठ	-9.7957
ବେ	-9.7958
▁કર	-9.79609
र्त	-9.7963
▁क्यों	-9.79647
▁रेल्वे	-9.7967
▁જાય	-9.79688
▁સહયોગ	-9.79771
▁स्वतः	-9.79785
▁नेतअः	-9.79789
▁કાર્યક્રમ	-9.79801
▁ખર્ચ	-9.79873
▁थीं	-9.79882
▁तकनीक	-9.79922
▁शा	-9.79924
વર	-9.80058
39	-9.80091
एक	-9.80095
▁हमू	-9.80136
▁समारोह	-9.80179
તુ	-9.80189
▁ચર્ચા	-9.80281
▁ग्यो	-9.80332
34	-9.80352
▁जिसे	-9.80434
17	-9.80442
_01	-9.80465
▁समुद्र	-9.80471
▁ଉ	-9.80508
▁योजनाओं	-9.80565
वाय	-9.80656
▁खाता	-9.80686
▁कहानी	-9.8069
▁તપાસ	-9.80691
रिक	-9.80727
ाइट	-9.80933
લ્લ	-9.80954
ଟ	-9.80975
ନେରୁ	-9.81024
િટ	-9.81033
▁उल्लेख	-9.8105
▁शकता	-9.81056
▁જિલ્લા	-9.81086
▁હે	-9.81126
▁एकत्र	-9.81129
▁विधि	-9.81166
▁उपकरण	-9.81178
शे	-9.81205
_08	-9.81225
▁युवाओं	-9.81264
ચે	-9.81267
▁डेरा	-9.81315
▁રિ	-9.81325
▁डॉक्टर	-9.81327
્ટ	-9.81394
▁संदर्भ	-9.81412
▁જેવા	-9.81422
_02	-9.81432
वून	-9.81461
▁સંરક્ષણ	-9.81464
િયન	-9.81471
▁उद्यम	-9.81522
▁लगाड	-9.81553
खी	-9.8157
धान	-9.8158
▁ઘણા	-9.81581
▁અંતર્ગત	-9.81619
!"	-9.81699
▁बिरसा	-9.81715
▁लोकांना	-9.81767
ଡି	-9.81829
▁बैठकीत	-9.8183
▁प्रवास	-9.81909
▁व्यवसाय	-9.81931
▁आद्	-9.81945
▁ଏଙ୍ଗା	-9.81973
ामुळे	-9.82043
न्ह	-9.82061
र्द	-9.82087
▁टक्के	-9.82243
▁બનાવવામાં	-9.82309
▁પ્રતિ	-9.8233
▁જમીન	-9.82349
07.	-9.82418
▁समा	-9.82468
रेदो	-9.82482
22	-9.82502
▁झाल्या	-9.8252
▁मता	-9.82554
કર	-9.82554
▁आत्म	-9.82583
▁મોદી	-9.82662
ंडी	-9.82665
ra	-9.82773
▁खेतों	-9.82799
▁बोली	-9.82804
▁ଦେ	-9.82811
ात्मक	-9.82844
ur	-9.82871
▁रुपया	-9.82891
▁प्रकृति	-9.82905
स्त्र	-9.82932
▁निश्चित	-9.83029
▁प्रथम	-9.8303
▁जै	-9.83125
▁गुण	-9.83139
▁बॉ	-9.8319
▁वर्षों	-9.83233
▁देशवासियो	-9.83261
▁गर्व	-9.83318
▁पीएम	-9.83321
▁ईमेल	-9.83399
▁मले	-9.83409
▁रीते	-9.83524
▁E	-9.83559
▁मायना	-9.83564
▁जवाब	-9.83567
वालोर	-9.83576
ce	-9.83652
कड़ा	-9.83662
▁ઘણી	-9.83678
▁संवाद	-9.83706
▁जवान	-9.83709
▁सम्	-9.83733
▁)	-9.83853
▁बोलते	-9.83869
▁मुन्ने	-9.83874
▁उड़ु	-9.83884
▁व्यवहार	-9.83926
28	-9.83946
र्ष	-9.83954
▁कुलि	-9.84044
खो	-9.84046
▁રો	-9.84126
▁मिद्	-9.84163
▁कलाकार	-9.8419
।”	-9.84221
▁सफल	-9.8423
वादी	-9.84231
▁तू	-9.84251
▁वाळां	-9.84265
▁इतना	-9.84292
▁:	-9.844
▁हिसि	-9.84414
▁भो	-9.84432
ેશ	-9.84499
फ्र	-9.84572
ହ	-9.84576
िह	-9.84589
▁सवाल	-9.84657
▁रेओ	-9.84691
▁एंगा	-9.84736
ळे	-9.84745
▁સમ	-9.84771
ଡ଼େ	-9.84785
▁जिनमा	-9.84806
▁राजधानी	-9.84832
ूँ	-9.84842
▁सागर	-9.8485
▁देती	-9.84944
▁मेल	-9.8495
याँ	-9.85045
ओःअ	-9.85047
▁बातचीत	-9.85048
ભર	-9.85072
દ્ર	-9.85098
▁જનજાતિ	-9.851
▁आंध्र	-9.851
▁स्‍व	-9.85146
ଙ୍ଗି	-9.85148
▁થયું	-9.85154
ચાર	-9.85218
ट्टी	-9.85229
▁वर्तमान	-9.85261
क्षित	-9.85478
ષ્	-9.85553
▁मामले	-9.85569
-19	-9.85598
10	-9.85606
बेन	-9.8562
▁रद्द	-9.85694
▁मुक्त	-9.85736
▁गयी	-9.85756
बद्ध	-9.85775
▁કિ	-9.85775
मेंट	-9.85789
▁पशुपालन	-9.858
▁વેપાર	-9.858
▁सेसेन	-9.85876
▁कोअ	-9.8588
▁नियमित	-9.85882
વન	-9.85889
▁मेला	-9.85891
▁સ્વ	-9.85898
▁घु	-9.85951
▁पहाड़	-9.85993
ાઓ	-9.86005
▁रुप	-9.8605
▁दूध	-9.86054
▁आत्मनिर्भर	-9.86145
▁गेल्या	-9.86155
ોનો	-9.86187
▁फूल	-9.86208
▁अंग्रेज	-9.86225
▁संसद	-9.8628
છ	-9.86321
ઓની	-9.8635
▁करोड	-9.86379
▁पेलखा	-9.86397
तू	-9.86433
▁बेच	-9.86453
▁असर	-9.86453
ଙ୍ଗେ	-9.86455
▁आसान	-9.8648
▁ચો	-9.8649
ૂર	-9.86498
▁ससंकिर	-9.86505
▁महात्मा	-9.86505
▁શોધ	-9.8652
गड	-9.86531
▁झाड	-9.86556
▁काजि	-9.86591
▁બનાવી	-9.86613
▁ओह	-9.86624
▁नन्‍ना	-9.86672
ભાવ	-9.86711
▁चेतन	-9.86728
▁ભાર	-9.86755
▁સેવા	-9.86807
▁पोषण	-9.86827
▁स्वातंत्र्य	-9.86853
▁वृद्धि	-9.86901
▁रुपयां	-9.86944
▁कस	-9.86963
▁कोसिस	-9.86996
▁સંપૂર્ણ	-9.87003
▁બાળકો	-9.87063
तअः	-9.87084
E	-9.87156
पोर्ट	-9.87198
▁सिद्ध	-9.87203
▁वरेह	-9.87239
▁चिंता	-9.87302
ઠા	-9.87321
▁शतक	-9.87327
▁धु	-9.87458
अकना	-9.87459
▁तेको	-9.87466
ଶ	-9.87477
▁ઝ	-9.87549
શુ	-9.87578
ેશન	-9.8758
▁બહાર	-9.8767
▁તક	-9.87694
▁मॉ	-9.87702
▁अधिनियम	-9.87709
▁તેમાં	-9.87718
▁धोरण	-9.87754
▁आहोत	-9.87766
ତ	-9.87772
▁युग	-9.87811
▁संभव	-9.8796
ક્ટ	-9.88066
સર	-9.8807
ेंट	-9.88081
▁अभ्यास	-9.88151
▁सत	-9.88154
▁સૌ	-9.88159
▁કલા	-9.88252
▁ग्वालियर	-9.88317
▁अड	-9.88337
▁મુ	-9.88357
▁बिनगा	-9.8837
▁उत्पन्न	-9.88373
▁बाइ	-9.88464
▁मोकल	-9.88534
▁આરોગ્ય	-9.88539
▁ઉદ્યોગ	-9.88539
▁દુ	-9.88572
र्श	-9.8858
▁वाच	-9.8874
▁રાજ્યો	-9.88772
દિ	-9.88799
न्दा	-9.88808
ଣ	-9.88813
▁गैर	-9.88886
કાળ	-9.88904
▁ओहे	-9.88923
▁ऑनलाइन	-9.88929
▁समर्पित	-9.88984
▁तट	-9.89005
ळां	-9.89014
▁ଅଟେ	-9.89044
▁असते	-9.89082
▁नर	-9.89135
ଦ	-9.89163
ंडे	-9.8917
▁जानते	-9.89208
▁बजे	-9.8921
▁गर्म	-9.89231
▁પ્રાપ્ત	-9.89264
▁70	-9.8929
▁રમત	-9.89313
▁इच्छा	-9.89322
▁मान्यता	-9.89325
ଡେ	-9.89374
▁लोकतंत्र	-9.89403
▁काळात	-9.89411
रिंग	-9.89443
ाशी	-9.89459
सिंह	-9.89469
ट्स	-9.8947
▁सारे	-9.89499
▁वित्तीय	-9.89502
▁बेह	-9.89531
▁जरूर	-9.89654
ण्यास	-9.8966
ri	-9.89698
▁परिषद	-9.89701
▁સહાય	-9.89784
▁बँक	-9.89808
▁साझा	-9.89849
▁चंद्र	-9.89883
▁લખ	-9.89921
▁किये	-9.89925
▁मोह	-9.8997
▁उन्	-9.89971
स्‍ट	-9.89984
▁करेल	-9.90025
▁एशिया	-9.90099
क्का	-9.90133
▁अगल	-9.90152
▁खाते	-9.90163
▁વિસ્તાર	-9.90201
▁લગાવ	-9.90221
▁मंच	-9.90226
▁भारी	-9.90228
▁रिपोर्ट	-9.90252
▁प्रमाण	-9.90257
ल्स	-9.90266
स्ता	-9.90323
▁एव	-9.90383
ड़िया	-9.90414
હા	-9.90429
▁સાંસ્કૃતિક	-9.90446
▁तेज	-9.90493
મો	-9.90529
▁भु	-9.90537
▁અલગ	-9.90559
▁बजा	-9.90595
▁कोरोना	-9.90637
▁सेवाओं	-9.90803
भाग	-9.90879
▁60	-9.90888
▁काजे	-9.90918
▁कॅ	-9.90969
▁कइ	-9.90971
ટલી	-9.9119
▁सत्र	-9.91191
▁F	-9.91215
▁गुरू	-9.91261
બુ	-9.91285
▁जाईल	-9.91315
જન	-9.91328
▁यांचा	-9.91328
▁રોકાણ	-9.91355
▁बीमा	-9.9138
▁राव	-9.91445
▁सहभागी	-9.9147
▁कथा	-9.91527
▁टीकाकरण	-9.9153
ર્ક	-9.91543
▁ग्राहक	-9.91584
▁જા	-9.91658
▁त्याच्या	-9.91658
सुर	-9.91677
▁आउ	-9.91718
▁आंतरराष्ट्रीय	-9.91756
▁पैसा	-9.91819
▁पेर	-9.91824
▁त्यामुळे	-9.91866
काळ	-9.91974
▁जॉ	-9.92086
गेअ	-9.92105
ଦେ	-9.92115
चल	-9.92148
▁વૈશ્વિક	-9.92158
▁भोजन	-9.92171
ऱ्या	-9.92184
▁रचना	-9.922
▁આર્થિક	-9.92216
am	-9.92223
एआ	-9.9233
▁सहित	-9.92397
▁ઓળખ	-9.92447
डर	-9.92476
▁ફે	-9.92486
▁सहा	-9.92524
▁संकट	-9.92525
▁મન	-9.92602
ध्	-9.9261
ल्ट	-9.92717
એલ	-9.92786
▁कागेत	-9.92889
▁आदर्श	-9.92922
▁એન	-9.92932
▁नगेन	-9.92959
▁कामि	-9.92979
पट	-9.92982
70	-9.9306
▁म्हणजे	-9.93101
▁मोका	-9.93148
▁અભિયાન	-9.93259
▁આંતરરાષ્ટ્રીય	-9.93259
▁पुन्हा	-9.93259
ધા	-9.93299
▁अटक	-9.93319
▁शकतात	-9.93323
▁हड़म	-9.93336
on	-9.93359
▁22	-9.93518
અ	-9.93562
પુ	-9.93581
▁उत्	-9.93664
▁जू	-9.9368
▁व्यक्ती	-9.93728
▁વિભાગ	-9.93784
▁ड्र	-9.93826
▁શકાય	-9.9396
સે	-9.94
ક્સ	-9.94023
▁किताब	-9.94034
▁अञ	-9.94049
▁साथियो	-9.94121
▁ઉપલબ્ધ	-9.94136
▁शरीर	-9.94142
करण	-9.94142
क्या	-9.94151
▁b	-9.94177
▁તરફ	-9.94225
▁काँग्रेस	-9.94253
▁समाप्त	-9.94318
▁नअः	-9.94413
कर्ता	-9.94421
▁लागे	-9.94489
▁इनिअः	-9.94538
▁પરિવર્તન	-9.94548
▁રાષ્ટ્રપતિ	-9.9455
▁साम्राज्य	-9.94607
▁सप्ताह	-9.94607
▁बनाई	-9.9461
▁ମ	-9.94611
▁प्रतिनिधि	-9.94657
▁धूमधाम	-9.94666
▁चू	-9.94701
पू	-9.94745
▁सैन्य	-9.94749
तंग	-9.94813
ल्ली	-9.94831
▁अली	-9.94861
એન	-9.94883
▁प्राचीन	-9.94905
ायला	-9.94965
▁हवामान	-9.95027
▁दुरगा	-9.95083
▁માર્ગ	-9.9509
▁वालों	-9.95117
▁इसकी	-9.95126
त्रा	-9.95136
तूर	-9.95192
▁સમાવેશ	-9.95199
▁मंज	-9.95234
▁झा	-9.9524
▁सक्रिय	-9.95258
▁યાદ	-9.95309
▁લોક	-9.95311
્ત	-9.95348
▁माना	-9.95403
▁करहे	-9.95441
मुख	-9.95475
▁સચિવ	-9.95496
▁होतो	-9.95515
▁प्रचार	-9.95532
▁कॉलेज	-9.95557
▁ચાલ	-9.95564
▁हगा	-9.95702
▁डर	-9.9571
▁ओकोए	-9.9573
▁गोट	-9.95865
▁ટીમ	-9.95953
9	-9.96023
्‍यो	-9.96024
▁त्याला	-9.96056
▁કોંગ્રેસ	-9.96093
▁डु	-9.96144
▁बुनियादी	-9.96153
▁उद्यान	-9.96166
▁अगु	-9.9619
ल्प	-9.96243
▁बारि	-9.96253
▁घणु	-9.96256
एच	-9.96267
▁करताना	-9.96274
ment	-9.96275
વાદ	-9.96359
▁कोड़ा	-9.96406
इअ	-9.96407
ડો	-9.96507
▁जयंती	-9.96515
ફા	-9.96523
टिक	-9.96549
ତାରା	-9.96587
▁ର	-9.96623
▁મંજૂરી	-9.96627
▁आपल्याला	-9.96683
हीं	-9.9672
▁अरब	-9.96726
▁राः	-9.96769
▁बाबा	-9.96798
शासित	-9.9684
▁बिसेस	-9.96879
प्त	-9.96886
▁उद्	-9.96892
▁લઈને	-9.96968
म्‍ब	-9.96994
▁બેઠક	-9.96998
लैंड	-9.97004
▁ସେ	-9.97028
▁जेतन	-9.97049
▁ख़	-9.97077
▁तेजी	-9.97215
▁पकड़	-9.97218
▁સ્થાનિક	-9.97257
▁इनुङ	-9.97299
▁પહોંચ	-9.97312
▁हिंदू	-9.97442
▁अले	-9.97508
ોએ	-9.97521
▁खावा	-9.97555
रूम	-9.97617
un	-9.97661
आप	-9.97669
िश	-9.97676
▁बग	-9.97686
▁देखी	-9.97708
▁भण	-9.9773
રુ	-9.97736
▁सब्	-9.97736
ट्टा	-9.97758
तिङ	-9.97775
ତାଙ୍ଗି	-9.97797
▁રાખવા	-9.97868
D	-9.98042
▁बोर	-9.9805
▁नही	-9.98065
▁जुनी	-9.98082
▁हातें	-9.98094
▁मंदर	-9.98099
કારી	-9.98149
▁जिंल्गी	-9.98151
▁ગરીબ	-9.98153
as	-9.98184
▁तां	-9.98194
▁वगर	-9.98211
▁अक्सर	-9.98215
▁સમગ્ર	-9.98334
દાન	-9.98362
▁आग्रह	-9.98371
▁पिर्र	-9.98388
▁पेरे	-9.98492
▁बरस	-9.98546
્ધ	-9.98563
▁ડિજિટલ	-9.9858
स्प	-9.9859
▁જી	-9.98618
▁કુ	-9.98656
्टर	-9.9866
▁मेले	-9.98672
▁गोवा	-9.9872
ac	-9.98744
▁संबोधित	-9.98764
▁वातावरण	-9.98764
▁ભાષા	-9.98825
न्द्र	-9.9886
ર્મ	-9.9886
फर	-9.98861
▁पूर्वी	-9.98874
ॉल	-9.9888
ंद्र	-9.98981
▁सम्मेलन	-9.9901
▁फैसला	-9.99011
▁इनकुअः	-9.9905
ेन्द्र	-9.99057
▁गैस	-9.99075
▁श्रम	-9.9924
▁किदु	-9.99272
▁મહિલાઓ	-9.99297
▁हमुं	-9.99317
▁संत	-9.99333
▁हर्र	-9.99367
▁આયોજન	-9.99381
▁હશે	-9.99439
▁मिली	-9.99467
न्ता	-9.99485
▁महसूस	-9.99505
▁लेन	-9.99627
▁कोविड	-9.99629
▁हाँ	-9.99638
▁ट्रेन	-9.9965
▁राखवा	-9.99703
▁घेण्या	-9.99712
▁કહેવા	-9.99765
क्षा	-9.99855
त्‍त	-9.9987
▁મંદિર	-9.99877
ल्यानंतर	-9.9989
त्र्प्रः	-9.99898
▁सफाई	-9.99941
▁आवास	-10.0002
il	-10.0005
ધિ	-10.0008
▁गृहमंत्री	-10.002
मूल	-10.0024
ण्‍ड	-10.0026
▁कब	-10.0035
▁राजनीति	-10.0035
पूर्वी	-10.0039
U	-10.0044
▁संगि	-10.0049
▁देशातील	-10.005
▁दुकुरा	-10.0052
|	-10.0055
▁मली	-10.0058
▁शिव	-10.006
▁परिवहन	-10.0069
▁ભૂમિકા	-10.0069
x	-10.0069
▁सक्षम	-10.0076
▁पाया	-10.0076
ોનું	-10.0077
▁प्रभावी	-10.0077
▁तालाब	-10.0077
▁पाच	-10.0079
केट	-10.008
▁पेश	-10.0081
▁सार	-10.0092
▁कोणत्याही	-10.0097
▁विक	-10.0097
▁अगस्त	-10.0101
▁मेनकेदा	-10.0103
▁મહા	-10.0117
ટક	-10.0122
નિક	-10.0122
▁पहर	-10.0125
▁બ્ર	-10.0129
▁अंतिम	-10.0133
રણ	-10.0134
िको	-10.0134
▁हां	-10.014
▁आपे	-10.014
▁कठिन	-10.0145
मैं	-10.0147
▁प्रस्तुत	-10.0151
▁એમ	-10.0155
▁जिसके	-10.0156
▁शांत	-10.0167
▁रेको	-10.0171
ent	-10.0174
45	-10.0174
▁ଜ	-10.018
▁પાર્ટી	-10.0182
ମୁ	-10.0183
▁मजा	-10.0185
▁मारे	-10.0187
▁मात्रा	-10.0187
▁દક્ષિણ	-10.0189
▁अतिशय	-10.0189
▁साइ	-10.0191
▁પોલીસ	-10.0195
▁स्टेशन	-10.0195
▁पटेल	-10.02
▁रस	-10.0206
▁राहत	-10.021
▁ગ્રામીણ	-10.0214
नगर	-10.0217
▁जनवरी	-10.0218
el	-10.0221
▁आद	-10.0226
▁સમજૂતી	-10.0233
▁चांगले	-10.0233
▁સહિત	-10.0244
us	-10.0246
▁બી	-10.025
ion	-10.025
युक्त	-10.0255
▁जापान	-10.0257
▁आभार	-10.0257
▁रानी	-10.0257
में	-10.0259
▁વિશ્વાસ	-10.026
▁विदेशी	-10.028
बहनों	-10.0281
▁મોદીએ	-10.0281
N	-10.0285
▁प्रयासों	-10.0285
▁गोमके	-10.0291
▁आपली	-10.0295
▁फी	-10.0296
तोन	-10.0301
િય	-10.0307
▁निवड	-10.0315
▁गट	-10.0315
▁ଗି	-10.0316
▁લઈ	-10.0322
37	-10.0323
▁उन्‍होंने	-10.0323
▁प्रसाद	-10.0323
त्मक	-10.0323
ઓના	-10.0328
ंवर	-10.033
▁गंभीर	-10.0336
▁સંગીત	-10.0336
▁केंद्रित	-10.0343
▁निवास	-10.0344
▁शु	-10.0346
▁रेदो	-10.0346
▁भरपूर	-10.0354
▁वेळी	-10.0354
▁खाने	-10.0363
▁आमच्या	-10.0363
▁સમજ	-10.0366
▁दाड़ि	-10.0368
▁सला	-10.0373
▁नियुक्त	-10.0375
રૂપ	-10.0377
▁કેવી	-10.0378
▁वहीं	-10.038
▁उससे	-10.0382
▁भारतात	-10.0383
▁વર્ષે	-10.0387
▁स्थिर	-10.0388
▁कीमत	-10.0393
▁पुनर्	-10.0397
ફર	-10.0409
▁વધી	-10.0409
▁ગા	-10.041
સં	-10.041
▁शकत	-10.0411
▁बू	-10.0413
▁पुरुष	-10.0413
▁शिखर	-10.0414
▁ભૂ	-10.0414
▁भाजप	-10.0418
▁नेटवर्क	-10.042
▁लोकसभा	-10.042
▁દા	-10.0425
रिवाज	-10.0426
ଣ୍ଡା	-10.0427
▁आपकी	-10.0427
▁सुधारणा	-10.0428
▁માનવ	-10.0431
▁ડે	-10.044
▁વિસ્તારોમાં	-10.0442
▁करण्याचा	-10.0445
▁शेर	-10.0447
29	-10.0448
ूंगा	-10.0451
▁ભાજપ	-10.0453
व्ही	-10.0453
▁जुड़ा	-10.046
हान	-10.0464
આ	-10.0464
र्ति	-10.0467
▁देखवा	-10.0474
▁लिखा	-10.0475
▁संस्कृत	-10.0495
▁जपा	-10.0495
▁अगाडी	-10.0505
▁खाद्य	-10.0511
क्ति	-10.0511
▁जला	-10.0514
▁उपज	-10.0515
▁माध्यमातून	-10.052
▁यामुळे	-10.0524
ତ୍	-10.0525
▁राष्‍ट्रीय	-10.053
▁જીત	-10.0531
▁दें	-10.0533
ଡୁ	-10.0535
▁मग	-10.0542
▁नुंग	-10.0544
▁जोगव	-10.0549
▁घेऊन	-10.0556
▁शिकार	-10.0559
ाधिकार	-10.0561
▁बयर	-10.0562
▁मंजूरी	-10.0563
▁बातें	-10.0565
▁धरोहर	-10.057
▁अस्	-10.0572
▁पैदावार	-10.0574
▁असल्याचे	-10.0577
▁जद्	-10.0581
▁तिहुने	-10.0582
▁तकनीकी	-10.0582
▁संभावना	-10.0585
▁२	-10.0596
खंड	-10.0597
▁बरन	-10.0597
▁ମେ	-10.06
▁इनमा	-10.0602
▁मन्द	-10.0609
▁પૂર્ણ	-10.0611
▁पल	-10.0611
▁एत	-10.0612
र्व	-10.0613
ଡ଼ାଇ	-10.0615
▁वताड़	-10.0627
▁विश्वविद्यालय	-10.063
▁समज	-10.0632
▁રાષ્ટ્ર	-10.0635
▁ગઈ	-10.0647
T	-10.0649
▁यांचे	-10.0652
▁રમ	-10.0653
▁વે	-10.0654
कडा	-10.0656
▁अंग	-10.0656
▁सुमार	-10.0663
▁व्यावसायिक	-10.0663
▁उत्तराखंड	-10.0663
ंडर	-10.067
▁योजने	-10.067
""	-10.067
▁કાર્યક્રમો	-10.0674
▁प्रोत्साहित	-10.0677
▁लगातिङा	-10.0677
▁तुलना	-10.0677
▁ચૂંટણી	-10.0683
▁कईना	-10.0688
▁देखते	-10.0694
विरोधात	-10.0695
भार	-10.0701
▁फूड	-10.0704
▁बेहे	-10.0704
म्बा	-10.071
▁અનુભવ	-10.0717
▁शेतकऱ्यांना	-10.0719
▁गोष्टी	-10.0721
▁नज	-10.0724
▁વધારો	-10.073
▁सको	-10.0735
ढा	-10.0739
બલ	-10.074
▁प्रतीक	-10.074
▁ફરી	-10.0741
▁हमणे	-10.0742
▁ઓફ	-10.0746
▁स्ट्रीट	-10.075
▁विमान	-10.0752
▁दूसरी	-10.0757
મર	-10.0758
▁पुरी	-10.0761
▁India	-10.0764
▁सुंदर	-10.0769
▁छात्रों	-10.0769
▁आसपास	-10.077
▁नथी	-10.0771
▁दिस	-10.0775
▁देशाच्या	-10.0779
▁2013	-10.0779
▁पूना	-10.078
▁मध्यप्रदेश	-10.0784
▁चालू	-10.0785
બર	-10.0787
▁सबथी	-10.079
▁31	-10.0796
ମାନେ	-10.08
▁तरीके	-10.0803
▁शताब्दी	-10.0804
શું	-10.0806
िग	-10.0815
▁सौर	-10.0819
वृत्त	-10.0821
▁सुझाव	-10.0824
पत्र	-10.0827
▁लेदो	-10.0831
ଦା	-10.0833
▁અંગે	-10.0838
▁सरदार	-10.084
▁हदार	-10.0847
ठी	-10.0851
▁पेड़ेः	-10.0854
▁ચાર	-10.0858
▁बजट	-10.0859
▁उड़	-10.0867
धे	-10.087
▁બો	-10.087
▁ક્ષમતા	-10.0872
▁पर्वत	-10.0872
ર્સ	-10.0882
▁दौड़	-10.0886
▁દુનિયા	-10.0892
▁हमलोग	-10.0895
▁राष्ट्रपती	-10.0899
▁अग्र	-10.0902
▁अस्पताल	-10.0913
▁મુખ્યમંત્રી	-10.0913
▁શાહ	-10.0918
▁द्वीप	-10.0919
▁इस्तेमाल	-10.0926
▁ବି	-10.0927
▁रॉ	-10.0937
▁અંત	-10.0939
▁रहती	-10.0941
ियू	-10.0942
્વ	-10.0945
▁रखते	-10.0952
▁पकवान	-10.0954
ir	-10.0954
ेश्वर	-10.0956
न्‍न	-10.0956
▁घड	-10.0957
▁सेनो	-10.0957
छा	-10.0959
▁अच्छे	-10.0961
▁दिल	-10.0967
ण्याच्या	-10.0971
▁अध्यक्षता	-10.0972
ઝા	-10.0973
देन	-10.0974
▁हालांकि	-10.0974
▁अइञअः	-10.0979
▁ରା	-10.098
▁आलू	-10.098
भाष	-10.0989
▁बनी	-10.0991
▁दुर्	-10.0996
ତାନି	-10.1011
15	-10.1015
ଗି	-10.1018
▁પૂર	-10.102
▁आपका	-10.1025
ज्ञा	-10.1029
ଲ୍	-10.1029
▁पहला	-10.1042
▁अपुना	-10.1046
▁નોંધ	-10.105
▁खाद	-10.1053
▁खिला	-10.1056
▁આવેલા	-10.106
▁हं	-10.1062
▁સેવાઓ	-10.1063
क्‍क	-10.1064
▁पवित्र	-10.1064
▁पीछे	-10.1064
पक्ष	-10.1065
▁पूर	-10.1073
▁2011	-10.108
▁कितना	-10.1081
▁असो	-10.1083
▁લીધો	-10.1085
▁વર્	-10.1091
▁आकर्षक	-10.1092
▁निर्यात	-10.1092
▁पशु	-10.1094
▁लगी	-10.1096
▁લડ	-10.1099
▁कहीं	-10.1099
मंडल	-10.1103
▁भि	-10.1105
▁स्वागत	-10.1107
▁सिंगि	-10.1114
▁વ્યક્ત	-10.1114
रूप	-10.1116
▁दर्श	-10.1116
ସୁ	-10.112
▁लाइ	-10.1121
▁सोप	-10.1127
▁યુવાનો	-10.1127
▁બજાર	-10.1133
▁बेटी	-10.1133
▁स्थानिक	-10.1135
▁राजनाथ	-10.1135
રાજ	-10.1139
▁बदां	-10.114
▁તેણે	-10.114
▁બંધ	-10.1144
▁धारा	-10.1144
▁औषध	-10.1147
▁बातों	-10.1149
▁भारतातील	-10.1151
▁देशभर	-10.1152
ચા	-10.1157
स्‍ता	-10.116
▁धरम	-10.1162
▁थई	-10.1167
વાય	-10.1167
▁सशक्त	-10.1171
▁हिय	-10.1174
▁सकारात्मक	-10.1175
▁कितने	-10.1175
▁प्रतिभा	-10.1178
▁મૂ	-10.118
▁અનુ	-10.1189
▁સંશોધન	-10.1189
▁शर्मा	-10.1189
▁હાજર	-10.119
ડે	-10.119
▁ગાંધી	-10.1196
▁बट	-10.1197
કરણ	-10.1202
▁શક્તિ	-10.1203
▁કરવો	-10.1205
▁सलाह	-10.1206
▁असून	-10.1215
▁लख	-10.1216
▁अध्ययन	-10.1217
▁मीटर	-10.1219
બે	-10.1222
▁वारसा	-10.1223
▁बाघ	-10.1224
▁उग	-10.1225
▁दुख	-10.1233
▁जागरूकता	-10.1238
▁in	-10.1238
▁ଗିବା	-10.1243
▁23	-10.1244
▁સદી	-10.1248
▁प्रकरण	-10.1254
▁घाट	-10.1255
▁करण्याच्या	-10.1255
▁बणावे	-10.1257
કૃત	-10.126
▁बुढ़िया	-10.126
▁मामलों	-10.126
▁नेकन	-10.1264
▁મધ્ય	-10.1267
▁देणे	-10.1271
▁उनसे	-10.1273
▁जैसी	-10.1278
▁लोह	-10.1281
▁उड़ुङ	-10.1288
▁આપ્યું	-10.1291
▁बचत	-10.1291
▁પસંદ	-10.1294
▁पदार्थ	-10.1297
▁कद	-10.1302
▁सरकारच्या	-10.1306
किंग	-10.1313
▁टेक	-10.1315
▁નૃત્ય	-10.1316
▁चर	-10.1319
▁જૂન	-10.1319
▁हिया	-10.1319
▁नमो	-10.132
च्‍च	-10.1321
▁योजनाएं	-10.1323
▁बौद्ध	-10.1324
ष्‍	-10.1327
▁सरकारने	-10.1332
▁तेगे	-10.1341
लिङ	-10.1345
ांशी	-10.1348
▁कार्यालय	-10.1352
▁खराब	-10.1353
▁पंतप्रधानांन	-10.1361
▁होबाओः	-10.1362
▁कुला	-10.1369
मधून	-10.1374
▁କୁ	-10.1375
▁उत्पाद	-10.1376
▁पार्क	-10.1379
▁ઊર્જા	-10.1381
▁रोकोम	-10.1381
▁વખતે	-10.1387
▁ओकोनअः	-10.1391
▁तिहुयी	-10.1394
ଗୁ	-10.1395
તું	-10.1407
▁તાલીમ	-10.1409
▁બીજ	-10.1413
▁27	-10.1415
▁त्रिपुरा	-10.1416
ર્જ	-10.1419
▁राशि	-10.1423
▁સુધારો	-10.1424
ंदर	-10.1428
▁त्‍या	-10.143
▁ନି	-10.1433
▁कार्यक्रमों	-10.1437
ધી	-10.1438
▁बिचर	-10.1442
▁गोनोङ	-10.1445
▁परेशान	-10.1445
▁पत्नी	-10.146
▁फायदो	-10.146
▁ମୁ	-10.1461
up	-10.1464
२	-10.1468
▁शिल्प	-10.1468
▁आकार	-10.1475
ाबाद	-10.1479
▁छोटा	-10.1481
▁हिमाचल	-10.1488
▁નજીક	-10.1488
▁जद	-10.1494
▁मेघालय	-10.1503
▁हॅू	-10.1503
ેલી	-10.1504
ଜେ	-10.1507
▁नरेन्‍द्र	-10.151
ख्	-10.151
ଜି	-10.1519
▁उड़ुः	-10.152
▁सरल	-10.152
▁रयो	-10.1521
▁गोल	-10.1522
▁मंत्रालयाने	-10.1529
ક્રમ	-10.1531
▁शेतकऱ्यां	-10.1537
▁नेताओं	-10.1541
▁सिंचाई	-10.1546
▁भीतर	-10.1547
▁સ્થિત	-10.1548
कोरे	-10.1549
રાવ	-10.1556
▁जैन	-10.1557
▁सूर्य	-10.1558
▁विधानसभा	-10.1561
▁ताइकेना	-10.1568
▁દેશવાસીઓ	-10.1568
▁मनख	-10.157
▁भोपाल	-10.157
▁मणिपुर	-10.1576
▁त्‍यो	-10.1576
▁हुलङ	-10.158
▁सजा	-10.1588
▁अंतर्राष्ट्रीय	-10.159
▁छोटी	-10.159
▁नाटक	-10.1592
▁हार	-10.1594
यीं	-10.1599
▁अर्ज	-10.16
▁प्राथमिकता	-10.1601
ण्डा	-10.1603
▁इर्र	-10.1605
▁दीप	-10.1611
▁પરિણામ	-10.1612
▁देऊ	-10.1615
▁સરકારે	-10.1617
▁पृथ्वी	-10.1618
क्की	-10.1625
▁ତି	-10.1629
▁जहाज	-10.1633
ૉ	-10.1634
पद	-10.1636
▁फोटो	-10.1637
▁પશ્ચિમ	-10.1639
▁रखना	-10.1639
▁बुला	-10.164
▁कायम	-10.164
▁फ़	-10.1643
▁परिषदे	-10.1643
▁चुका	-10.1653
▁સરકારી	-10.1657
▁મંડિમાં	-10.1663
▁मशीन	-10.1666
▁સેના	-10.1667
th	-10.1668
▁नाहीत	-10.1669
हाना	-10.1672
▁कटा	-10.1675
▁प्रतियोगिता	-10.1678
▁उद्देश	-10.1679
▁समीक्षा	-10.1685
▁स्रोत	-10.1686
▁देशात	-10.169
▁करियु	-10.169
▁जैसा	-10.1691
▁अन्त	-10.1694
▁बिन	-10.1696
▁निजी	-10.1696
यासारख्या	-10.1703
35	-10.1706
38	-10.1708
▁કહે	-10.1714
▁त्यौहार	-10.1715
▁लेते	-10.1719
▁छि	-10.1722
▁મહત્વ	-10.1722
▁देखभाल	-10.1722
▁वस्तू	-10.1723
▁करण्यास	-10.1729
▁कायदा	-10.1733
▁ब्रिटिश	-10.1737
▁पात्र	-10.1742
▁बच	-10.1743
▁લો	-10.1745
▁अपेक्षा	-10.1746
▁भाषण	-10.1749
99	-10.1753
▁ठर	-10.1761
▁चिमिनङ	-10.1762
▁प्रसार	-10.1767
▁ખેડૂત	-10.1767
▁मइन	-10.177
▁शिकायत	-10.1774
▁कहके	-10.1779
▁जनते	-10.1782
▁हूड़	-10.1784
सिंग	-10.1784
સિંહ	-10.1788
▁પ્રદર્શન	-10.1797
▁इनां	-10.1802
▁बारिश	-10.1803
▁त्रि	-10.1804
▁मानक	-10.1807
▁नोट	-10.1817
▁महत्त्व	-10.1819
▁ચા	-10.182
▁परियोजनाओं	-10.183
સ્ક	-10.1837
▁જવા	-10.1838
▁सेंड़ा	-10.1838
शास्त्र	-10.1848
▁नागरिकों	-10.1856
▁शेतकरी	-10.1856
▁इनो	-10.1857
▁अगले	-10.1864
▁आयुर्वेद	-10.1864
ect	-10.1871
▁लेले	-10.1876
मेअ	-10.1878
▁માળખા	-10.1879
▁गुंतवणूक	-10.1879
▁ଗ	-10.1879
त्यांची	-10.188
▁सीट	-10.1886
▁दिखाई	-10.1888
क्‍ट	-10.1889
▁બને	-10.1889
▁रै	-10.1891
▁कहानि	-10.1893
▁2012	-10.1896
▁लड़की	-10.1896
▁दिख	-10.1896
▁उच	-10.1898
डियो	-10.1898
▁જન	-10.19
▁लोकु	-10.1903
ग्रह	-10.1904
▁अमर	-10.1908
▁डगरां	-10.1909
ांतर	-10.1923
▁अधिकांश	-10.1924
▁हॉ	-10.193
क़	-10.1933
60	-10.1933
▁जनव	-10.1938
▁સંસ્થાઓ	-10.194
▁છોડ	-10.1941
65	-10.1942
▁ମି	-10.1945
▁जैविक	-10.1948
▁त्र्प्र	-10.1954
કાશ્મીર	-10.1954
▁पोरोब	-10.1955
▁अनोख	-10.1961
▁याव्यतिरिक्त	-10.1961
▁મળશે	-10.1962
▁जाएगी	-10.1969
▁विधायक	-10.197
▁જરૂરિયાત	-10.197
▁सर्	-10.1971
▁तरा	-10.1976
▁उम्मीद	-10.1977
▁दान	-10.1978
▁असतात	-10.1983
▁उसको	-10.1983
▁तरुण	-10.1985
▁लौट	-10.1986
▁જણાવ	-10.199
▁तयोमते	-10.1995
▁આવક	-10.1996
सारख्या	-10.1997
12	-10.1999
▁થવા	-10.2001
▁લાગે	-10.2001
▁चिकित्सा	-10.2008
▁अत्यंत	-10.2008
▁उसमें	-10.2011
▁हट	-10.2013
▁थोड़ा	-10.2014
▁थायो	-10.202
▁क्रीडा	-10.2031
तून	-10.2033
▁बदलि	-10.2037
▁ऋण	-10.2038
▁રામ	-10.2042
▁સંસ્કૃતિ	-10.2046
▁પક્ષ	-10.205
मंत्र	-10.2052
▁बणे	-10.2055
▁સતત	-10.2061
▁चेक	-10.2068
▁દેવ	-10.2069
▁प्रिय	-10.207
▁युवक	-10.207
▁शिक	-10.2071
▁વરસાદ	-10.2076
▁જીવ	-10.2078
जीत	-10.2078
▁जांन	-10.2078
▁500	-10.2088
▁कविता	-10.2094
▁દેશની	-10.2098
▁वालो	-10.2101
▁राहुल	-10.2102
▁In	-10.2102
▁સમયે	-10.2102
▁वायु	-10.2109
▁ढंग	-10.2111
▁ગયો	-10.2111
वुं	-10.2113
▁बढावा	-10.2116
▁जरुर	-10.2121
▁कर्तव्य	-10.2122
▁પ્રયાસો	-10.2132
જો	-10.2135
સ્પ	-10.2139
▁जाणकारी	-10.2148
काफी	-10.2149
▁પડે	-10.2156
▁करया	-10.2159
▁सहायक	-10.2161
▁पर्यंत	-10.2164
લ્ડ	-10.2164
▁मुस्लिम	-10.2169
▁80	-10.217
▁महत्त्वपूर्ण	-10.217
▁રેલવે	-10.2177
▁सोमोय	-10.2177
▁यांची	-10.2178
▁आत्मा	-10.2181
▁मत्ता	-10.2181
▁સર	-10.2183
ર્ડ	-10.2185
▁भाजी	-10.2189
▁भेला	-10.2194
▁સભ્યો	-10.2199
▁दिशेने	-10.22
काश्मीर	-10.22
્તિ	-10.2201
▁लाने	-10.2209
स्य	-10.2209
▁પાંચ	-10.2212
▁आख	-10.2214
▁સામાજિક	-10.2215
ाइल	-10.2218
▁સરળ	-10.2219
▁એસ	-10.2228
▁खेलों	-10.223
▁कर्म	-10.2233
▁वीडियो	-10.2233
▁यश	-10.2233
▁पीढ़ी	-10.2239
▁आयी	-10.2247
▁मुनु	-10.2251
▁जरुड़ु	-10.2255
ત્રી	-10.2256
હુ	-10.2259
▁ब्ल	-10.2259
▁सिबिल	-10.2262
कृ	-10.2263
▁કાયદા	-10.227
રિયા	-10.2275
▁28	-10.2276
▁बहन	-10.2278
▁મહિલા	-10.228
▁असली	-10.2282
▁जेता	-10.2283
▁वस्तु	-10.2288
▁चरण	-10.2291
પાલ	-10.2291
▁विशिष्ट	-10.2293
▁गरीबी	-10.2298
▁ખેડૂતોને	-10.2298
36	-10.23
्‍यु	-10.2301
દર	-10.2303
્ચ	-10.2305
સ્થાપિત	-10.2309
▁संस्कृती	-10.2318
▁संबंधी	-10.2323
▁सिक्किम	-10.2325
▁લક્ષ્ય	-10.2333
▁पहुंचा	-10.2343
િશ	-10.2344
▁પ્રક્રિયા	-10.2356
पूर्वक	-10.2363
▁સમૃદ્ધ	-10.2364
▁निर्मिती	-10.2365
▁re	-10.2369
▁दुब	-10.2369
▁इदेक	-10.2371
▁खेळाडू	-10.2372
▁कहने	-10.2372
પોર્ટ	-10.2373
▁नुं	-10.2382
▁जकेद्	-10.2383
▁કરીએ	-10.2384
▁खिलाड़ी	-10.2392
ल्क	-10.2394
▁वायर	-10.2395
▁निर्धारित	-10.2396
▁तमारी	-10.2396
તે	-10.2396
भी	-10.2399
▁35	-10.2403
રૂ	-10.2403
▁परिस्थिती	-10.2404
▁चै	-10.2407
▁चिअः	-10.2408
▁અધિકાર	-10.241
▁किंमत	-10.2413
▁कमजोर	-10.2413
▁बदी	-10.2415
पैकी	-10.2425
▁स्वामी	-10.2426
▁ટી	-10.243
▁होबाओआ	-10.2434
▁बाग	-10.2436
▁દાવો	-10.2437
▁રસ	-10.2437
▁करवानी	-10.2438
▁कल्पना	-10.2443
▁श्रीमती	-10.2452
સો	-10.2456
▁फैला	-10.2458
▁વાનગીઓ	-10.2459
▁म्हण	-10.2469
▁महिन्या	-10.247
▁अदालत	-10.2475
▁जुवान	-10.2477
यतोना	-10.2478
▁तइनोः	-10.248
शंकर	-10.2481
▁વધારે	-10.2483
▁મિશન	-10.2483
ad	-10.2487
▁હોવા	-10.2488
▁रआः	-10.2488
ଙ୍ଗ	-10.2489
▁मोठी	-10.2489
▁પ્રદાન	-10.2494
▁मौका	-10.2495
કુ	-10.2497
▁इनमें	-10.2506
▁राज्यपाल	-10.2512
▁काइङ	-10.2514
▁પાકિસ્તાન	-10.2515
▁समाचार	-10.2517
▁मैच	-10.2517
▁पड़ता	-10.252
▁हस्त	-10.2522
▁આઇ	-10.2525
▁हिंदी	-10.2527
▁चावल	-10.2529
▁માલ	-10.2529
▁સારું	-10.2531
▁एनाते	-10.2533
▁बढा	-10.2535
▁शासक	-10.2536
▁स्पर्धा	-10.254
▁कृष्ण	-10.2541
▁ज्यात	-10.2543
▁कहना	-10.2546
▁उपुन	-10.2547
80	-10.2547
ter	-10.2551
ity	-10.2551
▁छात्र	-10.2555
▁शैली	-10.2558
▁गेला	-10.2558
▁रेआः	-10.256
▁યાત્રા	-10.2563
▁पोलिस	-10.2564
▁एयर	-10.2564
▁अएअः	-10.2564
ବି	-10.2566
▁करयु	-10.2566
▁दाखव	-10.2577
om	-10.2583
▁ତାନି	-10.2588
▁સંસ્થા	-10.2595
करून	-10.2603
▁આનંદ	-10.2604
▁તહેવારો	-10.2606
▁लागेल	-10.2609
▁मंदा	-10.2615
▁अकोअः	-10.2615
▁बनाना	-10.2619
▁करनी	-10.262
▁જય	-10.2629
▁तोड़	-10.2633
शिया	-10.2636
▁વર્ગ	-10.2636
▁तमिल	-10.2637
▁भवन	-10.2638
▁वजह	-10.2645
ରୀ	-10.2659
▁समुद्री	-10.2671
धू	-10.2677
▁देखकर	-10.2677
▁सत्य	-10.268
म्‍म	-10.2687
▁मिद	-10.2695
▁गिड़ि	-10.2697
▁બાળ	-10.2705
▁रिवाज	-10.2709
▁पहिल्या	-10.2709
▁गोक	-10.2716
▁ओना	-10.2717
▁विश्‍व	-10.2725
▁विधेयक	-10.2726
▁ભાગીદારી	-10.2731
▁આગામી	-10.2734
▁હજાર	-10.2734
भव	-10.2736
▁लै	-10.274
▁નાણાકીય	-10.2742
▁સ્થાપના	-10.2742
▁अंतरिक्ष	-10.2742
▁अटकर	-10.2744
▁अंक	-10.2744
▁उमर	-10.2745
▁सांसद	-10.2751
▁सरू	-10.2752
▁जरूड़ु	-10.2758
▁भरोहो	-10.2758
▁દો	-10.2759
▁સહ	-10.276
49	-10.2761
▁बोरो	-10.2761
▁अमअः	-10.2762
▁અપીલ	-10.2767
दरम्यान	-10.2769
▁पत्थर	-10.2775
▁मर्र	-10.2782
▁वनस्पती	-10.2783
▁અભ્યાસ	-10.2783
▁जेणे	-10.2795
▁करवु	-10.2796
્થ	-10.2804
▁વિદ્યાર્થીઓ	-10.2805
▁पोस्ट	-10.2806
▁प्रगती	-10.2808
▁हिन्द	-10.2811
क्‍स	-10.2813
▁नेपाल	-10.2824
▁શીખ	-10.2825
दीप	-10.2835
▁150	-10.2839
▁मृत्यु	-10.2842
▁अटल	-10.2844
▁बयान	-10.2859
▁ଗୁଲେ	-10.2866
▁होकर	-10.287
▁સંયુક્ત	-10.2875
▁મંત્રાલયે	-10.2877
▁मध्यम	-10.288
▁वार्षिक	-10.2882
▁स्वतंत्र	-10.2893
▁लोगो	-10.2894
▁आल्या	-10.2896
▁મંડ	-10.2902
ત્ત	-10.2906
▁નાના	-10.2907
ृत	-10.2916
ay	-10.2917
▁रास्ते	-10.2924
▁दावो	-10.2926
ર્ગ	-10.2929
▁જોઈ	-10.2933
▁त्याने	-10.2937
▁संकेत	-10.2941
ୟ	-10.2946
▁સુવિધાઓ	-10.2948
▁मंग	-10.2949
▁मिलने	-10.2951
ନେଞ୍ଜୁ	-10.2953
वरून	-10.2958
िस्तान	-10.2963
▁इव	-10.2965
▁પ્રકાશ	-10.2966
and	-10.297
▁लोकुं	-10.2973
▁बणाव	-10.2974
સૂ	-10.2974
▁બીજા	-10.2975
▁मुलाकात	-10.2982
▁हरि	-10.2983
▁करिया	-10.2992
▁परिवारों	-10.2995
ड्या	-10.2998
▁बर्	-10.2998
▁इदेन	-10.2998
ड़ोः	-10.2998
▁यादी	-10.3003
▁ତ	-10.3005
▁मजदूर	-10.3008
याभूत	-10.3009
लङ	-10.301
ब्र	-10.3011
tion	-10.3012
▁ऐवा	-10.3013
▁द्या	-10.3022
▁સ્થાન	-10.3023
▁कौ	-10.3025
▁પદ	-10.3026
▁આઈ	-10.3027
▁झु	-10.3027
▁कइना	-10.3029
▁ଡା	-10.3033
▁इलाज	-10.3034
▁निगम	-10.3035
90	-10.3047
▁हटा	-10.3047
▁વાતચીત	-10.305
▁સંખ્યા	-10.305
▁अलार्म	-10.305
▁आती	-10.3052
ર્ટ	-10.3052
▁पढ़ा	-10.3055
▁मोठा	-10.3057
▁बुरू	-10.3065
▁ज्यो	-10.3067
▁बूम	-10.307
▁જઈ	-10.3071
▁रोह	-10.3075
ानुसार	-10.3078
१	-10.3082
▁प्रमाणात	-10.3082
औ	-10.3082
▁રોક	-10.3094
▁मुगल	-10.3096
▁उपचार	-10.3097
▁शुभकामना	-10.3098
▁ઓછા	-10.3101
▁गिर्रदा	-10.3101
▁तदा	-10.3103
वस्था	-10.3106
▁जिथे	-10.3108
▁मिळेल	-10.3108
▁तापमान	-10.3109
▁विधान	-10.3112
▁भणवा	-10.3112
कालीन	-10.3118
▁નક્કી	-10.3118
▁जिन्होंने	-10.3126
▁तंत्र	-10.313
▁कीतुर	-10.3135
▁जेटली	-10.3135
▁सोबेनको	-10.3135
▁યોગદાન	-10.3135
फ्ट	-10.3135
▁पोशाक	-10.3143
ियत	-10.3145
▁होराते	-10.315
▁गठन	-10.3152
ઉ	-10.3156
▁ગ્ર	-10.317
▁उनलोगों	-10.3186
▁शाकाहारी	-10.3186
▁कौशल्य	-10.3186
▁किरिङ	-10.3186
▁पडे	-10.3191
ત્મક	-10.3194
▁दूसरा	-10.3195
▁मेळा	-10.3198
▁मालिक	-10.3201
▁सत्ता	-10.3206
▁पुरना	-10.321
▁वास्तव	-10.3213
बॉल	-10.3215
▁मिठाई	-10.3222
▁h	-10.3224
▁માતા	-10.3225
बड़ा	-10.3226
▁जल्दी	-10.323
▁मेने	-10.323
ગર	-10.3231
शाली	-10.3232
▁મળીને	-10.3232
▁बनने	-10.3233
નારા	-10.3235
▁मिलेगा	-10.3236
di	-10.3237
▁आयना	-10.3238
▁फै	-10.3239
▁हुड	-10.3241
कृति	-10.3249
▁वाहन	-10.3251
▁गुप्त	-10.3253
▁फिटनेस	-10.3255
▁કોર્ટ	-10.3257
▁मोयोद	-10.3258
75	-10.326
▁સમયસર	-10.3265
હી	-10.3268
▁मरा	-10.327
▁प्ल	-10.3271
▁फिलम	-10.3273
▁मनाते	-10.3277
▁પ્રગતિ	-10.3281
▁समझौता	-10.3281
▁सारी	-10.3283
▁श्रेणी	-10.3289
▁सतत	-10.3289
▁નવ	-10.3292
▁कोर्ट	-10.3293
▁एरिया	-10.3295
▁फ्ल	-10.3296
▁करणाऱ्या	-10.3297
▁बैल	-10.3305
‘	-10.3306
▁निरंतर	-10.3307
▁બચાવ	-10.3307
ତିନି	-10.3308
▁संसाधनों	-10.3315
▁भ्रष्टाचार	-10.3315
▁करवानु	-10.3319
▁अधिकाऱ्यां	-10.3324
▁परिस्थिति	-10.3324
गढ	-10.3326
ाडवा	-10.3332
▁समुदायों	-10.3338
▁ગુજરાત	-10.3341
▁जोड़ा	-10.3343
▁टन	-10.3344
▁अवधि	-10.3346
बै	-10.3349
▁तेबअः	-10.3352
▁अनुमति	-10.3359
▁2010	-10.3362
▁ખરીદી	-10.3362
▁पैर	-10.3364
▁यीं	-10.3364
▁कोरअः	-10.3367
▁हाय	-10.3372
▁બિ	-10.3375
▁लवकर	-10.3376
▁भाइयों	-10.3377
▁दया	-10.3381
▁हमलोगों	-10.3382
▁સ્પર્ધા	-10.3385
▁वॉ	-10.3388
▁करवी	-10.3394
▁तून	-10.3395
▁लगाया	-10.3395
फाइ	-10.3401
▁प्राण	-10.3403
▁2023	-10.3404
▁दशा	-10.3407
▁इदम	-10.3408
्दी	-10.341
44	-10.3411
खाली	-10.3411
48	-10.3414
▁पोर्टल	-10.3415
न्‍ना	-10.3415
▁बच्चा	-10.342
ગ્રામ	-10.342
▁वाहतूक	-10.3429
▁मुझको	-10.3429
▁कोआते	-10.3434
▁मंजुरी	-10.3437
किःअ	-10.3446
▁अंदाज	-10.3447
▁आह	-10.3455
▁तारीख	-10.3464
▁दहशतवाद	-10.3473
▁महि	-10.3484
▁ક્યારેય	-10.3491
प्रधानमंत्री	-10.3493
▁गपा	-10.3497
▁स्वादिष्ट	-10.3499
▁सर्वोच्च	-10.3508
▁આધારિત	-10.351
▁अपील	-10.3513
तंत्र	-10.352
▁हिमालय	-10.3526
▁एच	-10.3529
▁लोन	-10.353
▁આપ્યો	-10.353
▁અવસર	-10.3535
▁जमिनी	-10.3535
▁विद्युत	-10.3543
▁पुराने	-10.3544
▁અપ	-10.3546
्‍यू	-10.3555
▁नवो	-10.3557
▁ताजे	-10.3558
55	-10.3562
▁जादा	-10.3565
▁दौर	-10.3568
ક્ક	-10.3573
▁સ્વચ્છતા	-10.3577
▁सदस्यों	-10.3578
▁સલાહ	-10.3579
▁કુલ	-10.3586
▁शाही	-10.3596
▁शारीरिक	-10.3597
▁दबाव	-10.3597
▁नवंबर	-10.3597
▁चुकी	-10.3604
▁निर्भर	-10.3607
▁कितनी	-10.3619
▁खातर	-10.3624
▁चुनौती	-10.3624
ଉ	-10.3629
वानू	-10.3629
▁दड़िअ	-10.3632
▁સમસ્યા	-10.3633
▁प्रतिक्रिया	-10.3633
▁इतने	-10.3634
▁थाया	-10.3637
ive	-10.364
▁औद्योगिक	-10.3642
▁कर्रस	-10.3648
▁बाकी	-10.3652
▁તેનાથી	-10.3654
▁जाओ	-10.3656
▁दाड़िआ	-10.3661
▁डाय	-10.3666
શી	-10.3668
98	-10.3673
▁घणां	-10.3677
▁लोकगीत	-10.3678
▁હાથ	-10.368
▁चुके	-10.3687
▁अशोक	-10.3695
▁પાસેથી	-10.3696
▁कक्षा	-10.3707
प्ट	-10.3712
▁સ્વતંત્રતા	-10.3714
નગર	-10.3721
▁મુશ્કેલ	-10.3723
▁आबादी	-10.3723
▁चलते	-10.3731
▁सिखा	-10.3737
ଗ	-10.374
▁સન્માન	-10.3741
▁घोषित	-10.3741
००	-10.3743
▁વેચ	-10.3747
▁सलाड	-10.3749
▁अध्‍यक्ष	-10.375
▁રંગ	-10.375
दूर	-10.3757
▁अल्	-10.3762
▁खावानु	-10.3766
▁ઝડપથી	-10.3768
▁રોજગાર	-10.3768
▁अनुसूचित	-10.3777
▁यादव	-10.3779
▁निदा	-10.3781
▁हिंद	-10.3784
▁राजगढ़	-10.3784
ગે	-10.3784
▁मेन्दो	-10.3786
▁मतुरा	-10.3786
न्‍त	-10.3791
▁सदी	-10.3791
▁તેમજ	-10.3792
▁राखी	-10.3794
▁सिंग	-10.3795
ल्ले	-10.3797
▁जवळ	-10.38
▁काठी	-10.3801
संख्य	-10.3801
▁પૂ	-10.3806
▁फार	-10.3808
▁उत्पादों	-10.3808
▁घाटी	-10.3811
ગણ	-10.3812
▁घाल	-10.3812
ત્વ	-10.3813
थु	-10.3816
▁શક્ય	-10.3817
▁वीज	-10.3817
▁उचित	-10.3819
▁ठिकाणी	-10.3821
▁સ્થળો	-10.3822
્રો	-10.3827
▁सोंगे	-10.3827
72	-10.3831
▁વરિષ્ઠ	-10.3832
▁जुलाई	-10.3832
્રી	-10.3833
▁अनुदान	-10.3835
प्पा	-10.3836
▁પંજાબ	-10.3841
िंङ	-10.3842
▁યુવા	-10.3842
▁કંપની	-10.3847
▁દિશામાં	-10.385
લુ	-10.3853
▁खरी	-10.3856
▁आफ	-10.386
ष्‍ट	-10.3864
▁ગાય	-10.3865
▁अपु	-10.3871
▁मनखा	-10.3872
▁(1	-10.3874
▁दड़िअः	-10.3877
▁विद्यालय	-10.3878
▁आकाश	-10.3878
G	-10.3885
▁बीमारी	-10.3886
▁જૂથ	-10.3887
▁दर्शन	-10.3892
▁ધર્મ	-10.3897
▁खे	-10.3897
▁मतोर	-10.3907
▁अंदर	-10.3923
▁वाळो	-10.3926
▁સ્વચ્છ	-10.3926
▁प्राथमिक	-10.3938
रोध	-10.394
▁व्हा	-10.3941
▁शक्ती	-10.3942
▁ભોજન	-10.3942
47	-10.3943
▁जिम	-10.3946
▁ઉચ્ચ	-10.3951
▁મહિના	-10.3951
▁मोड़े	-10.3957
▁उदय	-10.396
▁શ્રેષ્ઠ	-10.396
▁दिपिलि	-10.396
▁મૂલ્ય	-10.396
▁નીચે	-10.3961
ંદર	-10.3961
▁उमि	-10.3966
▁दनियां	-10.3969
ଟୁ	-10.3971
▁बोलो	-10.3978
▁हिन्दुस्तान	-10.3979
▁वेळेवर	-10.3979
▁कारोबार	-10.3979
te	-10.3979
▁उत्तम	-10.3981
▁જવાબ	-10.3983
▁वस्त्र	-10.3984
▁वरहु	-10.3986
▁રજૂ	-10.3988
▁પ્રકાર	-10.3989
▁आये	-10.3989
▁સંબંધો	-10.399
ापासून	-10.3991
▁चलता	-10.3993
▁अमेरिकी	-10.3997
▁સંદેશ	-10.3997
▁ज्ञापन	-10.3997
▁लहान	-10.3998
▁અપનાવ	-10.4
▁रमवा	-10.4002
▁अइञ्	-10.4005
મન	-10.4005
▁अति	-10.4012
▁90	-10.4014
▁कागज	-10.4023
▁जुड़ी	-10.4026
▁अइंग	-10.4027
▁પ્રત્યે	-10.4035
▁पेड़े	-10.4037
▁थोडा	-10.4038
▁લોન	-10.404
▁स्वस्थ	-10.4043
डब्ल्यू	-10.4044
▁સુનિશ્ચિત	-10.4044
_20	-10.4058
▁ट्रे	-10.4063
▁खत्म	-10.4072
▁विशाल	-10.4072
▁છેલ્લા	-10.4072
मंडळ	-10.4076
▁चक्र	-10.4078
▁बगे	-10.4079
▁शैक्षणिक	-10.4081
▁जिलंगी	-10.4081
▁जिसका	-10.4088
स्‍थ	-10.4088
▁આતંકવાદ	-10.4091
ଲେ	-10.4092
ॉट	-10.4092
▁शाम	-10.4096
▁शेयर	-10.4105
ନାରି	-10.4106
▁झील	-10.4109
▁ઉદાહરણ	-10.4109
્શન	-10.4113
▁देंगे	-10.4118
▁द्विपक्षीय	-10.4119
▁ન્યાય	-10.4119
▁सोशल	-10.412
▁भगत	-10.412
▁वदू	-10.4125
▁उत्पादक	-10.4126
▁પૈસા	-10.4128
▁સ્વાસ્થ્ય	-10.4128
▁કુમાર	-10.4128
ଣ୍ଡି	-10.4129
▁हरु	-10.4131
▁हंस	-10.4132
▁घ्या	-10.4137
▁दड़िआ	-10.414
ଗେ	-10.4145
खु	-10.415
▁મિત્ર	-10.4151
▁शादी	-10.4154
▁हवाद	-10.4157
▁इतनी	-10.4158
ଃପା	-10.4162
▁માટી	-10.4165
▁महत्त्वाच	-10.4165
न्दुर	-10.4169
▁दरम्यान	-10.4173
▁कर्र	-10.4179
▁केन्‍द्रीय	-10.4179
▁देशभरात	-10.4181
▁अशी	-10.4182
▁पक्षी	-10.4183
▁પ્રોજેક્ટ	-10.4183
▁पुथि	-10.4184
▁राजकीय	-10.4185
▁ઘરે	-10.4186
▁જેને	-10.4187
▁फैल	-10.4188
હિત	-10.4191
स्थान	-10.4203
▁ओड़ाः	-10.4204
▁चानाः	-10.4204
▁એવું	-10.4205
▁દે	-10.4207
▁मालम	-10.4213
▁करावी	-10.4213
▁तैयारी	-10.4219
▁મિ	-10.422
▁त्याची	-10.4224
▁मुद्रा	-10.4227
000	-10.4228
85	-10.4229
▁खादी	-10.4235
▁लावा	-10.4242
▁अपराध	-10.4242
पत्ति	-10.4247
▁गाँवों	-10.4257
▁लघु	-10.4261
▁मानसिक	-10.4261
▁समिती	-10.4262
▁અસર	-10.4263
ଃଇ	-10.4269
▁मेह	-10.427
95	-10.427
▁પગલાં	-10.427
▁तिरंगा	-10.4271
▁यूरोप	-10.4271
▁नौकरी	-10.4274
▁ઉદ્દેશ	-10.428
▁ખો	-10.4286
▁नाकुन	-10.4289
▁शीर्ष	-10.429
▁टीका	-10.4298
▁શેર	-10.4299
▁रणनीति	-10.4299
▁સિંચાઈ	-10.4299
▁पिछ	-10.4302
▁ଏସେ	-10.4314
▁लांब	-10.4318
शिप	-10.4322
▁सहमत	-10.4324
▁सध्या	-10.4325
▁विशेषतः	-10.4327
▁बुढ़ा	-10.4328
▁जनरल	-10.433
ers	-10.4331
▁त्याचे	-10.4331
ve	-10.4332
बहुत	-10.4332
▁નેતાઓ	-10.4332
▁हाथे	-10.4337
▁साक्षात्कार	-10.4338
▁क्रांति	-10.4338
▁मंगल	-10.4339
▁पद्धती	-10.434
▁ଦା	-10.4346
▁लद्दाख	-10.4347
▁दीर्घ	-10.4347
વાળા	-10.4348
64	-10.4353
▁ભવિષ્ય	-10.4357
▁इरा	-10.4365
ସେଞ୍ଜୁ	-10.4367
▁चबा	-10.437
સુ	-10.4374
▁સંગઠન	-10.4376
▁चीज़	-10.4382
▁લાગુ	-10.4387
▁રાજ્યમાં	-10.4391
तोरोम	-10.4391
▁ડો	-10.4394
▁त्याचा	-10.4394
्यांच्या	-10.4396
▁એવા	-10.4401
▁કરાવ	-10.4405
▁लिमिटेड	-10.4405
▁સત્તા	-10.4405
▁आधी	-10.4411
जनचि	-10.4411
स्‍क	-10.4412
▁विद्यार्थ्यां	-10.4415
▁परिसर	-10.4416
▁आपुन	-10.4417
▁લાવવા	-10.4418
▁आन्ता	-10.4423
▁हेतु	-10.4434
▁नारायण	-10.4434
▁सिंचन	-10.4434
ાઇટ	-10.4436
▁शुल्क	-10.4444
ज्ञान	-10.4445
▁गतिविधियों	-10.4447
પણે	-10.4466
ହି	-10.4474
46	-10.4478
▁मुलाखतीत	-10.4483
▁दृष्टिकोण	-10.4483
▁टेस्ट	-10.4491
▁वणा	-10.4494
▁यंत्र	-10.4502
▁खंड	-10.4508
न्दु	-10.4508
▁स्टार्टअप	-10.4512
▁पूछा	-10.4513
રામ	-10.4518
▁अंग्रेजी	-10.4523
▁इतुन	-10.4529
મ્પ	-10.4537
▁યાદી	-10.4543
▁संबंधों	-10.4545
▁બંગાળ	-10.4551
▁तिनानी	-10.4552
ચર	-10.4552
▁विवाद	-10.4558
घर	-10.456
▁पदक	-10.4561
▁ઓછી	-10.4561
▁धीरे	-10.4565
▁આઝાદી	-10.4571
▁पुग	-10.4572
▁देखो	-10.4573
▁मौत	-10.4575
▁ढा	-10.4576
▁तिन्‍हुं	-10.4581
▁वर्णन	-10.4581
▁કરાર	-10.4582
▁ଗିଆ	-10.4584
▁जरिए	-10.4586
▁ଏଆ	-10.4592
तिया	-10.46
▁बेटा	-10.4604
ry	-10.4608
▁ઉલ્લેખ	-10.461
▁त्यानंतर	-10.4618
▁प्ले	-10.4618
▁ઘટના	-10.462
▁संचार	-10.4624
▁प्यार	-10.4634
▁શાસન	-10.465
73	-10.4651
त्‍व	-10.4653
▁કરું	-10.4655
▁अधि	-10.4656
▁अदेन	-10.4657
▁एकूण	-10.4661
▁अनाज	-10.4662
▁नङ	-10.4663
77	-10.4669
▁मसालों	-10.467
▁वड़क	-10.4672
▁સફળતા	-10.4675
▁आराम	-10.4676
क्शन	-10.4678
um	-10.4684
भि	-10.4685
ate	-10.4686
▁स्थिती	-10.4687
▁चाय	-10.4689
▁विद्यापीठ	-10.469
▁સ્પષ્ટ	-10.469
▁आदमियों	-10.469
ક્લ	-10.4691
▁मोहन	-10.4693
▁दौरा	-10.4695
j	-10.47
▁સમિતિ	-10.47
▁साबित	-10.47
▁યોગ	-10.4702
_03	-10.4705
▁વર્તમાન	-10.471
▁રસ્તા	-10.471
सीसी	-10.4712
▁फुल	-10.4712
▁गड़ा	-10.4714
▁लाइन	-10.4714
▁मागणी	-10.472
▁कंपनियों	-10.4722
▁सूक्ष्म	-10.473
▁सामंजस्य	-10.473
▁પ્રોજેક્ટ્સ	-10.4731
92	-10.4738
62	-10.4742
▁उत्‍	-10.4744
ुड़ु	-10.4744
▁માનવા	-10.4749
▁सबको	-10.4751
▁वताडी	-10.4758
69	-10.4761
▁सहकारी	-10.4762
▁ચાલી	-10.4764
▁नवाचार	-10.4766
▁बलिदान	-10.477
▁शास्त्री	-10.477
▁सहज	-10.4771
▁करावा	-10.4771
▁चासा	-10.4772
▁જિલ્લામાં	-10.4773
ફે	-10.4775
ેન્દ્ર	-10.4776
▁पश्चिमी	-10.4778
▁પ્રેરણા	-10.478
▁मातृ	-10.4781
▁સમાન	-10.4781
▁रोका	-10.4783
संघ	-10.4786
▁अक्टूबर	-10.479
▁सुलभ	-10.479
▁પ્રવાસન	-10.4816
iv	-10.4818
▁अर्जुन	-10.482
▁आपलोग	-10.482
_15	-10.4821
▁भाळ	-10.4822
▁रूपये	-10.4828
▁પરિવહન	-10.483
▁कर्मचारी	-10.483
▁ડૉ	-10.483
▁सीज	-10.4838
म्मा	-10.4846
▁राजमार्ग	-10.485
▁अनुकूल	-10.485
▁दिसू	-10.4857
▁જતા	-10.486
▁વ્યવસાય	-10.486
▁उम्र	-10.4881
▁व्यवस्थापन	-10.4888
▁મહારાષ્ટ્ર	-10.4891
▁पंच	-10.4898
▁સૂત્રો	-10.4901
▁आयतंग	-10.4902
एंगे	-10.4902
थील	-10.4905
▁ખરીદ	-10.4907
▁गडकरी	-10.4911
▁સંભાળ	-10.4911
▁फरवरी	-10.4911
▁बनवण्या	-10.4911
▁केयाते	-10.4912
▁फु	-10.4914
_12	-10.4916
24	-10.492
▁सामर्थ्य	-10.4921
▁सूरज	-10.4922
रिका	-10.4922
▁हत्या	-10.4926
▁ଆଜା	-10.4927
▁रोड	-10.4932
ast	-10.4935
▁સામનો	-10.4942
▁सादर	-10.4943
▁जिम्मेदारी	-10.4952
▁ખાતર	-10.4959
▁ओकोअः	-10.4959
▁आठवड्या	-10.4962
▁જાહેરાત	-10.4962
▁वंश	-10.4962
▁निदेशक	-10.4962
ગઢ	-10.4963
▁डेटा	-10.4964
▁अगळ	-10.4965
▁फळ	-10.4972
▁आणखी	-10.4974
▁घेतली	-10.4975
ତେକା	-10.4977
▁होणार	-10.4979
▁न्यू	-10.498
▁करयू	-10.4983
▁વર્ષમાં	-10.4986
ाबद्दल	-10.4988
▁वाणिज्य	-10.4993
▁आकर	-10.4997
▁निकु	-10.5
▁आकर्षित	-10.5003
▁આપણને	-10.5003
▁आञाः	-10.5003
▁રાજા	-10.5003
▁उपा	-10.5006
▁कपड़े	-10.5013
▁જોડાયેલા	-10.5013
▁લોકપ્રિય	-10.5013
▁किनारे	-10.5028
ाड़वा	-10.5033
▁इच्छित	-10.5034
▁આભાર	-10.5041
▁सूत्रों	-10.5041
▁मृत्यू	-10.5046
71	-10.5048
ખી	-10.505
ट्री	-10.5054
▁संस्कार	-10.5055
▁જંગલ	-10.5056
▁विकेट	-10.5058
▁पोल्‍लो	-10.5065
▁वरसा	-10.5066
▁डिश	-10.5067
ાર્થ	-10.5073
▁વહે	-10.5093
▁टाइम	-10.5097
▁નંબર	-10.5106
▁जोड़े	-10.5111
▁અર્થ	-10.5117
▁केमकि	-10.5122
મ્બ	-10.5129
52	-10.5133
▁પ્રસંગે	-10.5148
▁જગ્યા	-10.5148
▁વિષય	-10.5148
▁मुण्डारी	-10.5152
▁पाटा	-10.5165
▁દર્શાવ	-10.5169
▁अपेअः	-10.517
▁वर्षात	-10.5171
▁પર્યાવરણ	-10.5179
▁ક્યાં	-10.518
▁निधी	-10.5184
▁शुभेच्छा	-10.519
▁પ્રધાન	-10.519
▁आव्हान	-10.5191
ist	-10.5191
હાર	-10.5195
▁મત	-10.5195
▁पौ	-10.5197
▁मनाया	-10.52
▁आपूर्ति	-10.52
▁राष्‍ट्रपति	-10.5201
િયમ	-10.5204
▁लक्षात	-10.5205
▁કિંમત	-10.5211
▁बहादुर	-10.5211
▁संग्रहालय	-10.5211
▁પર્વત	-10.5211
▁હવામાન	-10.5211
▁Co	-10.5216
▁મીડિયા	-10.5221
▁अनुमान	-10.5224
▁असतो	-10.5226
▁जावे	-10.523
sh	-10.5232
▁कागद	-10.5234
▁हवे	-10.5238
▁मुश्किल	-10.5242
▁કલ્યાણ	-10.5242
▁महामारी	-10.5242
▁વસ્તુઓ	-10.5252
▁इंदौर	-10.5253
▁बन्द	-10.5254
▁વખત	-10.5254
▁उन्नत	-10.5256
▁आखरी	-10.5258
▁मुद्दों	-10.5263
▁પડકાર	-10.5274
ટલું	-10.5274
▁शहीद	-10.5274
▁लाड	-10.5276
▁उगा	-10.5277
▁हिस्से	-10.5284
▁दारा	-10.5292
▁हरेक	-10.5296
એચ	-10.5296
▁સમયમાં	-10.5297
▁हजु	-10.5301
▁તાજેતર	-10.5306
▁यशस्वी	-10.5306
76	-10.5308
▁मूड़	-10.5309
▁तुमलोग	-10.5316
▁सिद्धांत	-10.5318
78	-10.5321
▁જનતા	-10.5326
▁नौजवान	-10.5327
▁ખુશ	-10.5327
▁दुःख	-10.5327
धारक	-10.533
▁सन्	-10.5334
▁અભિનંદન	-10.5337
ut	-10.5339
▁दिरि	-10.5343
▁संरचना	-10.5344
▁माकुन	-10.5345
ियल	-10.5346
▁अभिनंदन	-10.5359
▁आखिर	-10.5361
▁कयो	-10.5374
▁बीमार	-10.5379
▁प्रदर्शित	-10.538
▁आदर	-10.538
▁स्वप्न	-10.538
▁टिकट	-10.5382
51	-10.539
▁राखे	-10.5394
ષ્ટ	-10.54
84	-10.5401
▁પ્રખ્યાત	-10.5401
▁રચના	-10.5401
भ्र	-10.5403
▁मद्य	-10.5404
और	-10.5409
▁ભાવ	-10.5412
▁हिंसा	-10.5413
▁क्षेत्रीय	-10.5415
96	-10.5421
▁दायर	-10.5432
▁कार्यकारी	-10.5434
▁नेशनल	-10.5437
▁निकट	-10.5437
▁शुभकामनाएं	-10.5437
▁वेबसाइट	-10.5444
▁लकड़ी	-10.5444
▁રાજ્યના	-10.5446
▁बइआ	-10.5447
▁दृढ	-10.5452
▁અનુસાર	-10.5455
▁घटक	-10.5459
▁રહેવા	-10.5459
ટ્ટ	-10.5468
▁लेकागे	-10.547
▁जगातील	-10.5475
▁जिलों	-10.5476
▁આધુનિક	-10.5476
▁मोठे	-10.5477
पुरवठा	-10.5477
निर्माण	-10.5485
▁सहमति	-10.5486
▁लडाई	-10.5487
ऊँगा	-10.5491
दोनों	-10.5492
▁फर्	-10.5495
▁समाविष्ट	-10.5498
▁वितरण	-10.5498
▁આરોપ	-10.55
▁अवलंब	-10.5509
▁वोट	-10.5515
▁समृद्धि	-10.5517
ଣ୍ଡ	-10.5517
B	-10.5518
▁ऑस्ट्रेलिया	-10.552
▁बेटे	-10.5521
▁રહેશે	-10.5525
▁बितर	-10.5528
▁શાંતિ	-10.553
▁देदो	-10.5532
▁આપતા	-10.5543
▁जानवर	-10.5551
▁આકર્ષ	-10.5552
com	-10.5553
▁तमारा	-10.5553
स्‍प	-10.5555
▁म्हणूनच	-10.5556
▁कसे	-10.5558
▁ખાદ્ય	-10.5563
▁सराहना	-10.5563
▁ऐवी	-10.5565
▁मिळाले	-10.5572
▁યુનિવર્સિટી	-10.5574
▁तुम्हें	-10.5574
▁मनाए	-10.558
▁महासागर	-10.5585
▁जीएसटी	-10.5591
▁उत्कृष्ट	-10.5596
▁પત્ર	-10.5596
▁जिनमें	-10.5598
▁उंच	-10.5602
▁इनके	-10.5605
▁दिल्‍ली	-10.5606
▁ફોન	-10.5608
▁सपना	-10.5609
▁ભાવના	-10.561
▁जोनोम	-10.5611
04	-10.5614
▁પ્રશંસા	-10.5617
▁યુદ્ધ	-10.5617
01	-10.5625
▁वजन	-10.5626
▁સૂચન	-10.5628
em	-10.5631
▁रखवाळी	-10.5639
▁ઇન	-10.5641
कभी	-10.5642
▁मानले	-10.5645
▁दारू	-10.565
▁बढ़े	-10.565
▁कायद्या	-10.5653
▁रासिका	-10.5661
▁પ્રિય	-10.5663
▁गाड़ी	-10.5666
▁देदी	-10.5668
▁ठंड	-10.567
▁નાગરિક	-10.5671
▁પરિષદ	-10.5672
▁જવાબદારી	-10.5672
▁ग्यु	-10.5677
▁વિજ્ઞાન	-10.5685
पीएस	-10.5686
▁નુકસાન	-10.5694
▁भंडार	-10.5717
87	-10.5721
▁बावजूद	-10.5727
જે	-10.5731
ण्यापूर्वी	-10.5732
प्रमाणे	-10.5733
▁मिळते	-10.5738
▁कर्रिय	-10.5739
▁चमक	-10.5745
▁गावात	-10.5746
▁कपूर	-10.5749
▁लोकांच्या	-10.5757
▁अधीन	-10.5761
56	-10.5763
▁दंगड़ा	-10.5772
ट्रो	-10.578
▁लिखे	-10.5781
▁जिल्ह्यात	-10.5782
▁આશા	-10.5798
પૂર્વક	-10.5801
▁ठे	-10.5806
▁वकील	-10.5807
▁સ્તર	-10.5811
મેન્ટ	-10.582
▁पौधों	-10.5827
▁प्रावधान	-10.5827
▁दुलाड़	-10.5829
▁मेनअ	-10.5833
▁କାତା	-10.5837
▁वाराणसी	-10.5838
▁પશુપાલન	-10.5838
▁इंटरनेट	-10.5838
▁करवो	-10.5838
▁रकम	-10.5839
▁ચાલુ	-10.5843
▁ક્ષેત્રોમાં	-10.5844
▁टयद	-10.5848
▁गणित	-10.5849
▁हिन्दी	-10.585
▁इलाकों	-10.5861
ଞ୍ଜି	-10.5861
74	-10.5861
▁येईल	-10.5862
▁वदारवा	-10.5874
▁ગતિ	-10.5878
▁शौचालय	-10.5883
▁પ્રતિનિધિ	-10.5883
▁हड़ु	-10.5883
▁મહ	-10.5891
▁विकासासाठी	-10.5893
▁ପ୍ର	-10.5896
▁2009	-10.5899
▁दुसऱ्या	-10.5906
▁वेगाने	-10.5906
▁विकल्प	-10.5906
▁अप्रैल	-10.5917
▁સાથીઓ	-10.5917
▁मॉडल	-10.5917
▁જન્મ	-10.5918
▁आहार	-10.5926
▁આસપાસ	-10.5928
▁जपअः	-10.5929
68	-10.5937
▁क्रेडिट	-10.5939
▁श्रद्धा	-10.5939
▁मुद्दा	-10.5939
▁પુત્ર	-10.5941
▁बेगर	-10.5945
▁1000	-10.5957
▁समझा	-10.5961
▁आह्वान	-10.5973
▁पर्यटक	-10.5973
▁घरेलू	-10.5973
▁ગુણવત્તા	-10.5985
▁आवेदन	-10.5987
▁પાછ	-10.5995
▁પૂછવામાં	-10.5996
▁चांगली	-10.5996
▁गतिविधि	-10.6004
port	-10.6007
▁एआई	-10.6016
▁ડોલર	-10.6019
પ્લ	-10.602
▁तमू	-10.602
▁मिनट	-10.6023
ହେ	-10.6031
▁टै	-10.6036
▁शाळा	-10.6037
▁तईकेना	-10.6041
▁साहस	-10.6047
▁दुकु	-10.6054
▁सन्मान	-10.6055
▁सूख	-10.6064
▁स्वरूप	-10.6066
▁उतार	-10.6071
क्षेप	-10.6079
▁जिनथी	-10.6084
▁વિરુદ્ધ	-10.6087
ानुर	-10.6087
▁પ્રમાણ	-10.6087
▁प्राधिकरण	-10.6098
▁कारखाना	-10.6099
▁करावे	-10.6102
ल्हा	-10.6109
▁गठबंधन	-10.611
▁चिमतङ	-10.611
▁વીજળી	-10.611
▁नेहरू	-10.6112
▁गेंद	-10.6113
ांपासून	-10.6115
▁दादा	-10.6117
▁अइड	-10.612
▁बुमकाल	-10.6122
▁चनअः	-10.6123
जवळ	-10.6125
▁बजार	-10.6125
03	-10.6132
▁रिकॉर्ड	-10.6133
▁સાંભળ	-10.6133
▁વિરોધ	-10.6133
▁मिळाली	-10.6133
▁कैसा	-10.6141
જ્ઞાન	-10.6142
▁मछली	-10.6145
▁રાહ	-10.6153
▁साहब	-10.6157
एनएस	-10.6161
▁रेडियो	-10.6163
▁प्रबंध	-10.6165
▁વારસા	-10.6168
▁દિલ્હીમાં	-10.6179
▁રાજકીય	-10.6179
▁म्हणतात	-10.6181
न्ध	-10.6187
▁कोरट	-10.6189
▁विद्रोह	-10.6191
▁हैदराबाद	-10.6191
61	-10.6199
▁पद्धतीने	-10.6199
▁खाद्यपदार्थ	-10.6202
▁करेगी	-10.6204
▁बचाव	-10.6206
त्र्प्रो	-10.6215
▁चोल	-10.6216
▁तेलंगाना	-10.6225
▁ડિ	-10.6227
▁इलि	-10.6227
▁तैर	-10.6235
स्टे	-10.6238
▁उघड	-10.6238
91	-10.6243
▁કૃપા	-10.6249
▁साजरा	-10.6249
▁ત્યારબાદ	-10.626
▁संतोष	-10.626
▁સુવિધા	-10.6261
▁मोटर	-10.6261
▁मृत	-10.6262
▁ઉત્પાદનો	-10.6264
▁वेपार	-10.6266
▁આપવું	-10.6267
विध	-10.6267
अःइअ	-10.6268
▁મૃત્યુ	-10.6272
▁घंटे	-10.6272
आरए	-10.6273
▁સંબંધ	-10.6279
▁સંકલ્પ	-10.6284
▁संरक्षित	-10.6284
▁किययतोर	-10.6287
▁सिटी	-10.6291
▁મૂળ	-10.6301
▁ऑफिस	-10.6302
▁न्यायाधीश	-10.6307
▁समानता	-10.6307
▁નેતા	-10.6307
▁गणतंत्र	-10.6308
▁મોટો	-10.631
▁उद्दिष्ट	-10.6319
भूमि	-10.6323
▁मिलेगी	-10.6333
▁पढ़ाई	-10.6341
▁સુરક્ષિત	-10.6342
▁ગયું	-10.6342
▁विक्री	-10.6342
▁बढ़ती	-10.6347
▁જોકે	-10.6349
▁अंमलबजावणी	-10.6354
▁मुताबिक	-10.6354
▁કૌશલ્ય	-10.6354
▁શાકભાજી	-10.6354
▁जिंक	-10.6355
▁छाप	-10.6355
▁आहात	-10.6358
▁ध्‍यान	-10.6366
▁लुतुम	-10.6366
▁मूर्ति	-10.6368
58	-10.6371
समोर	-10.6372
▁પરંપરા	-10.6377
▁साड़ी	-10.6392
▁लीग	-10.6392
ନାରା	-10.6398
66	-10.64
▁साझेदार	-10.6401
23	-10.6409
07	-10.641
ab	-10.641
▁ભગવાન	-10.6413
ઇલ	-10.6415
▁મેળવી	-10.6415
ot	-10.6418
▁छोट्या	-10.6425
▁मुसलमान	-10.6425
▁ରଣ୍ଡେ	-10.6425
चित्र	-10.6425
▁ભાઈઓ	-10.6428
▁પ્રવાસ	-10.6432
▁વસ્તી	-10.6437
▁पावसा	-10.6438
▁आवडत	-10.6438
▁સંબોધ	-10.6448
▁નાગરિકો	-10.645
▁जकेद	-10.6453
ଟ୍	-10.6458
▁होबाओःअ	-10.6461
▁रुपए	-10.6464
▁पृष्ठ	-10.6472
▁श्रृंखला	-10.6472
▁संतुलन	-10.6472
▁गोएः	-10.6474
89	-10.6478
▁जानवरों	-10.6479
▁इस्लाम	-10.6484
▁मोहिमे	-10.6484
▁फुट	-10.6498
▁કંપનીઓ	-10.6499
▁અમાર	-10.6504
▁नमस्कार	-10.6508
▁ଗ୍ରା	-10.6508
▁विवरण	-10.6508
▁सर्वाधिक	-10.6509
ग्राम	-10.6511
86	-10.6513
08	-10.6515
▁વ્યાપક	-10.652
▁मिआद	-10.6523
▁संग्रह	-10.6538
▁of	-10.6544
▁ज़रूर	-10.6544
▁शुरूआत	-10.6558
भु	-10.6561
▁ફળ	-10.6567
▁पुढील	-10.6568
▁लाइट	-10.6568
▁निपटा	-10.657
▁दाखल	-10.6573
▁?’’	-10.6573
▁खिलाड़ियों	-10.658
લેન્ડ	-10.6582
▁વૃક્ષ	-10.6592
▁ઘટાડો	-10.6594
▁तिनथी	-10.6597
▁સભ્ય	-10.6605
▁जाएंगे	-10.6612
▁तिनमा	-10.6626
▁સ્તરે	-10.6626
88	-10.6626
▁જમ્મુ	-10.6628
▁कुशल	-10.6641
रियल	-10.6647
▁तिहुनी	-10.6648
▁दिव्यांग	-10.6652
▁मेडिकल	-10.6652
▁ग्रंथ	-10.6653
▁प्रशंसा	-10.6661
▁જાગૃત	-10.6664
▁व्यक्तिगत	-10.6669
▁एटे	-10.667
▁ઇતિહાસ	-10.6676
▁સંભાવના	-10.6676
▁સ્વાદ	-10.6679
▁दिशुम	-10.6689
▁વિદેશ	-10.6695
▁માંગુ	-10.67
▁बँके	-10.6704
▁विशेषज्ञ	-10.6705
▁तिन्	-10.6707
▁गाँधी	-10.6713
▁बहुतेक	-10.6714
▁बर्फ	-10.6721
▁डिग्री	-10.6725
▁एंड	-10.6733
▁सडक	-10.6733
▁दादी	-10.6734
▁खरस	-10.6734
શીલ	-10.6745
▁बाबू	-10.6747
▁ઘટાડ	-10.6747
▁ex	-10.675
બ્લ	-10.6751
▁जोमेआ	-10.6762
▁गाटो	-10.6765
वर्धन	-10.6769
▁पत्रकार	-10.677
▁प्रतिनिधी	-10.6774
▁जर्मन	-10.678
▁फक्त	-10.678
im	-10.678
per	-10.6783
▁વગેરે	-10.6786
▁હંમેશા	-10.6786
▁जनसंख्या	-10.6786
▁લીધી	-10.6786
▁ઇચ્છ	-10.6787
▁संवर्धन	-10.6791
▁हिस्सों	-10.6793
▁कमाई	-10.6795
ill	-10.6797
▁विपणन	-10.6799
च्‍छ	-10.6799
▁सीमित	-10.6799
▁बढ़ाव	-10.681
▁जोमेआः	-10.6811
▁सुपर	-10.6812
▁बाढ़	-10.6813
41	-10.6818
▁ढांचा	-10.6819
▁કપ	-10.6822
▁राजवंश	-10.6823
▁समर्पण	-10.6823
▁कोलकाता	-10.6823
▁गोयल	-10.6828
form	-10.6829
▁खू	-10.6832
▁મળ્યો	-10.6836
▁મહાન	-10.6836
▁देशवासी	-10.6837
▁पीठ	-10.6843
▁વિવિધતા	-10.6852
▁दंड	-10.6855
▁अद्भुत	-10.686
▁कार्रवाई	-10.686
▁केटेः	-10.6862
▁स्वर्ण	-10.6863
शक्ति	-10.6864
▁આધાર	-10.6871
▁स्मार्ट	-10.6873
▁काळजी	-10.6874
▁जिन्हें	-10.6885
▁બોર્ડ	-10.6886
▁घास	-10.6887
रोजगार	-10.6889
▁टीवी	-10.6893
79	-10.6895
▁જુઓ	-10.6898
ानंतर	-10.6901
▁महाराज	-10.6903
▁वसाड	-10.6904
▁रास्ता	-10.6907
▁मनुष्य	-10.691
▁અમેરિકા	-10.691
▁પરીક્ષા	-10.691
▁शानदार	-10.691
▁इतुअना	-10.691
▁बुद्ध	-10.6911
▁सहभाग	-10.6912
▁લાંબા	-10.6922
▁खूब	-10.6933
▁तुम्हारे	-10.6935
▁सामग्री	-10.6935
▁हुतो	-10.6938
▁उभर	-10.6943
▁पिट	-10.6945
િયર	-10.6947
તિહાસિક	-10.6947
▁મોબાઇલ	-10.6947
▁सहाय्य	-10.6947
▁अहम	-10.695
▁निधि	-10.6956
▁છતાં	-10.696
▁वाढवण्यासाठी	-10.6962
▁अजू	-10.6964
▁आदत	-10.697
▁हथियार	-10.6985
▁આધારે	-10.6994
▁इंडियन	-10.6997
▁मंत्रिमंडल	-10.701
▁विवेकानंद	-10.701
▁शक्यता	-10.701
▁પ્રમુખ	-10.7011
▁सेकेड़ा	-10.7012
▁मिअद	-10.7012
▁तत्व	-10.7019
▁जिदन	-10.7021
▁दिसंबर	-10.7022
हमदोनों	-10.7026
▁સારા	-10.7027
43	-10.7029
ୟା	-10.7029
▁संचालन	-10.7035
▁પડી	-10.7036
ow	-10.7036
▁મુંબઈ	-10.7048
▁चेनअः	-10.7048
ंनें	-10.7051
▁वैद्यकीय	-10.706
▁संवेदनशील	-10.706
▁प्रतिबद्धता	-10.706
▁वृक्ष	-10.706
▁रक्त	-10.7063
▁कोयला	-10.7066
ચૂક	-10.7067
▁તમાર	-10.7071
▁અનાજ	-10.7073
▁कुठे	-10.7086
▁अयअः	-10.7087
F	-10.7091
कश्मीर	-10.7091
଼	-10.7098
▁यावेळी	-10.7098
प्रदेश	-10.7103
▁केन्‍द्र	-10.7119
▁ବେଃଏ	-10.7123
▁सोमोए	-10.7124
▁रोख	-10.7127
▁સહકાર	-10.7134
▁કિલોમીટર	-10.7136
▁क्रिया	-10.7138
▁પૂરી	-10.7146
06	-10.7152
एँगे	-10.7156
▁નિર્દેશ	-10.7162
▁આદેશ	-10.7162
दर्शन	-10.7162
▁હોઈ	-10.7165
▁તરફથી	-10.7168
▁મધ્યપ્રદેશ	-10.7174
▁जिंदगी	-10.7174
▁कुटुम	-10.7183
▁મેળા	-10.7185
एसपी	-10.7186
▁पुरानी	-10.7187
▁कब्ज	-10.7187
ଡେଃଙ୍ଗି	-10.7187
▁विद्यार्थी	-10.7187
▁to	-10.719
▁स्टेट	-10.7191
▁तिहुना	-10.7197
▁ओकोआ	-10.7197
▁ડ્ર	-10.7198
▁बल्लेबाज	-10.72
▁प्रार्थना	-10.72
▁प्राप्‍त	-10.7201
▁ક્ર	-10.7202
શ્વ	-10.7206
▁कठोर	-10.7213
▁खरीदारी	-10.7214
93	-10.7219
▁खनिज	-10.7226
ગુ	-10.723
▁मेट्रो	-10.7232
▁बजाय	-10.7236
▁तस्वीर	-10.7238
ઠીક	-10.7239
▁संग्राम	-10.7243
▁राट्र	-10.7243
ગ્રહ	-10.7243
वासियों	-10.725
▁दिवशी	-10.7251
ବ୍	-10.7251
▁सुनकर	-10.7254
▁શહેરી	-10.7256
▁અંદર	-10.7258
▁भागीदार	-10.7261
▁क्‍या	-10.7265
▁पुत्र	-10.7267
▁બિલ	-10.7269
▁फॉर	-10.7275
▁पाहिले	-10.7277
▁મુક્ત	-10.7277
▁ચીન	-10.728
▁बंधू	-10.7291
▁પ્રકારના	-10.7292
ંજ	-10.7301
▁माहौल	-10.7303
▁નેતૃત્વ	-10.7303
▁प्रदूषण	-10.7316
▁ट्वीट	-10.7316
▁प्रेस	-10.7321
age	-10.7322
▁गाणे	-10.7328
▁छत्तीसगड	-10.7329
▁ગૃહમંત્રી	-10.7329
સીએ	-10.7335
▁प्रवाह	-10.7338
▁तियार	-10.7354
▁સમીક્ષા	-10.7355
▁फुटबॉल	-10.7355
ଦ୍	-10.7356
▁घूम	-10.7357
▁नेत्यां	-10.7361
▁ढांचे	-10.7361
▁घेण्यासाठी	-10.7362
▁સમર્થન	-10.7368
▁2024	-10.737
▁બળ	-10.7375
▁स्थायी	-10.7381
▁साधारण	-10.7381
▁કહી	-10.7386
▁अंतरराष्ट्रीय	-10.7394
▁બંધારણ	-10.7394
▁उमिअकना	-10.7394
▁મોટાભાગના	-10.7395
▁દૂધ	-10.7407
पीसी	-10.741
▁ट्रा	-10.7416
▁રકમ	-10.742
▁રાખીને	-10.7424
▁अंध	-10.7424
▁કરતી	-10.7425
▁ବେସ୍	-10.7432
▁ઓડિશા	-10.7433
▁मिजोरम	-10.7433
83	-10.7437
▁निवडणुकी	-10.7446
▁बेरहा	-10.7447
▁चयन	-10.7448
पूर्व	-10.745
▁जल्द	-10.7462
▁मंजूर	-10.7464
▁संस्थां	-10.7464
▁आदान	-10.7471
▁श्रीलंका	-10.7472
▁अजय	-10.7475
all	-10.7476
▁उपयुक्त	-10.7477
ଗାଲି	-10.7479
▁બિન	-10.7483
▁अनुरोध	-10.7488
▁જણાવ્યા	-10.7489
रक्षक	-10.749
▁पद्म	-10.7496
▁વૈજ્ઞાનિક	-10.7499
▁બન્યા	-10.7499
▁સ્વીકાર	-10.7499
▁પહોંચાડ	-10.7499
▁मतदान	-10.7503
▁स्‍वास्‍थ्‍य	-10.7512
▁છત્તીસગઢ	-10.7512
▁હસ્તાક્ષર	-10.7512
▁फ्रांस	-10.7512
▁ભાઈ	-10.7518
▁નવીનતા	-10.7525
▁झारखण्ड	-10.7538
▁प्रत्यक्ष	-10.7538
▁ચુકવણી	-10.7538
▁ઝડપી	-10.7538
▁નોંધપાત્ર	-10.7538
ାରତ	-10.7542
▁टाटा	-10.7545
▁अद्वितीय	-10.7552
▁इंजीनियर	-10.7552
▁जबाबदारी	-10.7552
न्यास	-10.7556
ांसह	-10.7557
▁તમારે	-10.7561
67	-10.7562
▁पेहर	-10.7563
▁સંપર્ક	-10.7578
▁લગ્ન	-10.7579
▁भलाई	-10.7579
मिसिको	-10.7584
▁બીજી	-10.7588
▁મૂક્યો	-10.7591
▁बठक	-10.7592
▁सिनेमा	-10.7592
▁પાલન	-10.7594
▁ग्रे	-10.76
▁ଦିନା	-10.7605
▁कारवाई	-10.7611
પૂર્ણ	-10.7615
▁જાળવી	-10.7618
▁પુસ્તક	-10.7618
▁यांच्याशी	-10.762
▁जायेगा	-10.7626
▁अहमद	-10.7627
▁बुड़िअ	-10.7632
▁ट्विट	-10.7645
▁કેરળ	-10.7645
▁ईसाई	-10.7645
97	-10.7646
▁रेयाः	-10.7647
▁ખેલાડીઓ	-10.7649
▁बघ	-10.7651
ल्फ	-10.7652
▁केरळ	-10.7656
mo	-10.7657
▁परीक्षण	-10.7659
▁ठेवण्या	-10.7659
▁जागरूक	-10.7659
પતિ	-10.7664
एसटी	-10.7668
▁કેન્દ્રિત	-10.767
▁चंडीगढ़	-10.7672
▁महामहिम	-10.7672
▁आज़ादी	-10.7672
▁गरम	-10.7676
▁मिळू	-10.7684
▁जोमेअः	-10.7685
र्ध	-10.7686
મેર	-10.769
▁यूपी	-10.7695
▁थोड़ी	-10.7698
▁चेन्नई	-10.7698
▁एकत्रितपणे	-10.7712
▁વારસો	-10.7712
▁लोओते	-10.7726
▁कोणता	-10.7735
▁બાબતો	-10.7739
▁रखवाली	-10.7739
▁ग्‍यो	-10.7739
▁आशिया	-10.7745
ide	-10.7752
▁विक्रम	-10.7753
स्तरीय	-10.7757
▁जरिये	-10.7757
▁दोहरा	-10.7765
▁नैसर्गिक	-10.7766
▁સમાચાર	-10.7766
▁जवळपास	-10.7766
▁परम्परा	-10.7766
▁મુદ્દાઓ	-10.7766
▁जिल्ह्यातील	-10.7767
▁वेसवा	-10.7781
▁गुलाम	-10.7783
94	-10.7784
▁वैसे	-10.779
▁ખાનગી	-10.7793
▁પ્રવેશ	-10.7793
▁स्पर्धे	-10.7793
▁दृष्टि	-10.7806
02	-10.7807
▁જેમણે	-10.7807
▁परवानगी	-10.7807
▁नदियों	-10.7808
▁नितिन	-10.7815
▁सच्च	-10.7815
J	-10.782
▁શકીએ	-10.782
▁सर्वेक्षण	-10.782
▁साहेब	-10.782
▁पशुओं	-10.783
▁પાસ	-10.7832
▁समस्याओं	-10.7838
म्‍प	-10.7843
▁દેવા	-10.7844
▁आशीर्वाद	-10.7847
▁રાજસ્થાન	-10.7847
▁उडुः	-10.7848
▁ઉઠાવ	-10.7848
▁पीटि	-10.7849
▁रकब	-10.7851
▁बुगि	-10.7854
▁शेहर	-10.786
▁तिहुंयी	-10.7862
▁संपत्ति	-10.7869
▁सोंगेको	-10.7873
▁मित्रांनो	-10.7875
▁વિનંતી	-10.7875
▁ईमानदार	-10.7875
▁लिहिले	-10.7876
▁आंगन	-10.7877
▁स्तरावर	-10.7883
▁मिठाईयो	-10.7886
▁फंड	-10.7891
▁ଇଡୁ	-10.7894
▁નિયંત્રણ	-10.7916
▁लोकशाही	-10.7916
▁पोर्रो	-10.7916
▁ब्लॉक	-10.793
ଟେ	-10.7931
અમારી	-10.7943
▁मोबाईल	-10.7943
बिनगा	-10.7947
▁પ્રવૃત્તિઓ	-10.795
▁કેન્દ્રો	-10.7956
▁निशान	-10.7957
▁ગ્રાહક	-10.7957
▁बिक्री	-10.7957
▁આયોગ	-10.7958
▁प्रसारण	-10.7965
ચ્છ	-10.797
▁इलेक्ट्रॉनिक	-10.7971
▁संस्‍था	-10.7971
आमतौर	-10.7973
▁तपासणी	-10.7974
▁राज्यमंत्री	-10.7982
▁आमंत्रित	-10.7985
▁स्मारक	-10.7985
ନ୍ଦା	-10.7986
શાસ્ત્ર	-10.7987
▁प्रकाशित	-10.7989
ट्ठ	-10.7993
▁ઉજવવા	-10.7994
▁गोंडी	-10.7998
▁आम्हाला	-10.7999
▁મળ્યા	-10.7999
▁बीजेपी	-10.7999
▁अभिनेता	-10.8
▁पतंग	-10.8
▁मेहमान	-10.8003
▁સફળ	-10.8006
▁વિચારો	-10.8011
▁आश्चर्य	-10.8013
▁लोकतांत्रिक	-10.8013
▁સવારે	-10.8013
▁उत्‍पाद	-10.8027
▁દાયકા	-10.8028
▁तनिः	-10.8029
ମି	-10.8033
▁તમિલનાડુ	-10.804
▁अमेरिके	-10.804
▁स्मरण	-10.8041
▁300	-10.8041
▁महीना	-10.8043
▁अर्ध	-10.8047
▁शाखा	-10.8053
▁पाठिंबा	-10.8054
▁मूलभूत	-10.8054
▁અંતિમ	-10.8054
▁सकाळी	-10.8055
▁ଆଇନେ	-10.8058
▁कॉफी	-10.8059
▁जिल्हा	-10.8059
જેવી	-10.8062
▁बुद्धि	-10.8075
▁दस्तावेज	-10.8082
▁लगाड़	-10.8084
▁સર્વ	-10.8085
▁छूट	-10.8089
▁हृदय	-10.8096
▁વ્યવસ્થાપન	-10.8096
▁सदन	-10.8098
▁दुर्गा	-10.81
▁निर्मल	-10.8107
▁मार्गदर्शन	-10.8111
▁આવેલી	-10.8116
▁प्रांत	-10.8117
▁નિયમિત	-10.8124
ଡ୍	-10.8125
निर्मित	-10.8134
▁नीतियों	-10.8136
▁आजाद	-10.8138
वर्ती	-10.8138
▁व्‍यवस्‍था	-10.8138
▁स्‍वच्‍छ	-10.8139
▁પ્રેમ	-10.8141
▁ईरान	-10.8141
▁द्वार	-10.8143
▁अहवाल	-10.8153
▁सेंटर	-10.8154
▁आल्यो	-10.8159
ସେରୁ	-10.8161
▁સંમેલન	-10.8167
▁प्रकट	-10.8169
▁दरबार	-10.8175
▁फेंक	-10.8177
4_1	-10.8178
▁પ્રસ્તાવ	-10.8181
▁કાર્ડ	-10.8183
▁अगाड़ी	-10.8195
▁मुनडि	-10.8195
ard	-10.8196
▁भक्ति	-10.8202
▁भग	-10.8206
▁वचनबद्ध	-10.8209
▁છોડી	-10.8211
▁गुफा	-10.8212
▁2008	-10.8216
▁पेपर	-10.8218
▁गिरफ्तार	-10.8223
▁નવેમ્બર	-10.8223
▁योजनेअंतर्गत	-10.8223
▁ખાતરી	-10.8232
ଗ୍	-10.8233
▁કિલ્લા	-10.8237
▁अखिल	-10.8237
▁ગીત	-10.8237
▁अथवा	-10.8238
▁इमारत	-10.8241
▁पट्ट	-10.8243
63	-10.8244
▁सूत्र	-10.825
▁संचालक	-10.8251
▁स्वदेशी	-10.8252
▁મેળ	-10.8254
▁कोसित	-10.8258
ell	-10.8263
प्रदान	-10.8267
▁तभी	-10.8268
▁ગુરુ	-10.8268
▁1947	-10.8273
▁हस्ताक्षर	-10.828
▁વિજય	-10.828
▁ଗିପି	-10.8281
▁લેખ	-10.829
▁सामुदायिक	-10.8294
ହାନା	-10.8299
म्भ	-10.8303
▁ગીતો	-10.8303
▁स्‍तर	-10.8308
▁અધિકારી	-10.8309
▁बागवानी	-10.831
53	-10.8318
▁उम्मीदवार	-10.8322
▁અત્યાર	-10.8323
▁रक्कम	-10.8323
▁जाँच	-10.8332
▁બનાવે	-10.8351
▁जरमे	-10.8355
▁उनमें	-10.8356
▁गोष्ट	-10.8358
▁लंबे	-10.8366
▁આપ્યા	-10.8375
୍ୟ	-10.8378
54	-10.8389
▁सीधे	-10.8389
▁अनिवार्य	-10.8395
▁નિવેદન	-10.8395
▁ବାହା	-10.8395
▁असतील	-10.8407
▁अइंञ	-10.8409
▁अफ्रीका	-10.8409
▁ભંડોળ	-10.8423
▁अन्दर	-10.8424
▁अभिनय	-10.8425
▁अस्के	-10.8429
▁दोकान	-10.8429
शिवाय	-10.8435
▁सदस्‍य	-10.8438
▁सृजन	-10.8438
▁वात्यो	-10.8441
▁घायल	-10.8443
▁वास्तविक	-10.8451
▁श्रीनगर	-10.8452
▁પસાર	-10.8452
▁आक्रमण	-10.8453
▁सिस्टम	-10.8453
▁બિહાર	-10.8453
▁વિદેશી	-10.846
▁ફોર	-10.8461
▁एजेंसी	-10.8467
▁દીધી	-10.8467
▁रखें	-10.847
▁મેચ	-10.8479
▁વધારા	-10.8481
▁पाळवा	-10.8485
▁शेअर	-10.8488
▁परिश्रम	-10.8496
▁રમતો	-10.8498
▁2006	-10.8503
▁રોગ	-10.8512
▁नोव्हेंबर	-10.8525
▁नायडू	-10.8526
▁पाँच	-10.8526
▁मनखू	-10.8527
▁જાણકારી	-10.8527
▁पुणे	-10.8527
सभे	-10.8535
▁કરનારા	-10.8537
▁दूसरों	-10.854
▁કોલેજ	-10.854
▁2021	-10.8545
वरील	-10.8551
▁मनवालोर	-10.8553
▁प्रेतात्मा	-10.8554
▁रेंगेः	-10.8555
▁अड़अः	-10.8555
▁दिये	-10.8558
▁तिंगु	-10.8561
▁પહોંચી	-10.8565
59	-10.8566
▁न्यूज	-10.8566
▁કુદરતી	-10.8569
▁હિન્દુ	-10.8569
▁मुखर्जी	-10.8569
▁उपाययोजना	-10.8584
▁औसत	-10.8584
▁નીકળ	-10.8584
▁સંસાધનો	-10.8586
▁जबाब	-10.8586
▁प्रतिबंध	-10.8596
ोःतना	-10.8598
▁ଏଆଞ୍ଜୁ	-10.8601
▁निगरानी	-10.8613
▁સાત	-10.8615
▁राजीव	-10.8616
▁दरवर्षी	-10.8628
▁बापू	-10.863
▁समेत	-10.8634
▁निधन	-10.8639
▁ચિંતા	-10.8643
▁વાતાવરણ	-10.8643
▁निर्माता	-10.8644
▁कोणती	-10.8647
▁શ્રેણી	-10.8672
▁बनोः	-10.8673
▁दड़िओअ	-10.8682
▁घटनाओं	-10.8683
▁તળાવ	-10.8687
▁बर्तन	-10.8692
▁फीसदी	-10.8702
▁पौधा	-10.8706
▁દેશભરમાં	-10.8717
▁यहोवा	-10.8719
▁लहर	-10.8722
▁वस्तुओं	-10.8727
▁अमेरिकन	-10.8732
▁પ્રાણીઓ	-10.8732
▁शुभ	-10.8744
▁छठ	-10.8746
▁दृश्य	-10.8747
▁नियंत्रित	-10.8747
▁उल्लेखनीय	-10.8747
▁दुलड़	-10.8757
કર્તા	-10.8762
▁दर्शात	-10.8773
▁जेवण	-10.8775
▁ચલાવવા	-10.8777
▁संजय	-10.8778
▁चीजें	-10.878
▁इंटर	-10.8788
▁फ्रे	-10.8788
डिजिटल	-10.8791
▁ધોરણ	-10.8792
▁इत्यादी	-10.8792
▁વધે	-10.8792
▁तिनाये	-10.8797
▁સાધન	-10.8797
▁राष्‍ट्र	-10.8801
▁न्यायालयाने	-10.8804
▁तिहार	-10.8807
▁तपास	-10.8818
▁मनोरंजन	-10.8822
▁स्टोर	-10.8823
81	-10.8835
▁झाड़	-10.8837
▁देखरेख	-10.8837
▁મૂકવા	-10.8838
▁चुनौतियों	-10.8839
प्रभा	-10.8842
▁संभाल	-10.8845
▁महाविद्यालय	-10.8852
▁ખરેખર	-10.8852
▁पेंशन	-10.8852
▁पाहत	-10.8859
▁किस्म	-10.8862
▁मुनडा	-10.8868
▁तीर्थ	-10.8878
આઇ	-10.8886
▁दायना	-10.8897
▁गुजर	-10.8908
▁એટલે	-10.8912
▁शुद्ध	-10.8916
ଡ	-10.8923
ସାନା	-10.8923
▁કાર્યવાહી	-10.8928
▁નિયમો	-10.8928
ଶା	-10.8931
▁હવા	-10.8936
▁दोपहर	-10.8943
▁ખબર	-10.8946
▁मिलियन	-10.8953
▁सशस्त्र	-10.8958
ટલો	-10.8959
▁शिविर	-10.8976
▁झाल्यानंतर	-10.8977
▁अभिमान	-10.8987
▁અર્થવ્યવસ્થા	-10.8989
▁संसदीय	-10.9002
▁શબ્દ	-10.9004
▁चौधरी	-10.9004
▁સ્ટેશન	-10.9004
▁किशोर	-10.9004
▁दुनुब	-10.9004
▁सपने	-10.9007
▁मुझसे	-10.9019
▁સુધારા	-10.9019
▁लनदा	-10.9021
▁प्लास्टिक	-10.9035
▁मेद्सोबो	-10.9035
▁वचन	-10.9036
▁नम्बर	-10.9037
▁પાછળ	-10.9039
ऋ	-10.905
▁दौऱ्या	-10.905
▁हिंदुस्तान	-10.905
▁२०१	-10.905
▁સંસદ	-10.905
▁साइकिल	-10.905
▁कारीगर	-10.9051
▁ପେ	-10.9052
प्‍त	-10.9052
द्कोअ	-10.9065
▁સરહદ	-10.9066
▁અમિત	-10.9066
▁घंटा	-10.9066
▁द्वितीय	-10.9081
▁लखनऊ	-10.9081
▁ઉકેલ	-10.9081
વંશ	-10.9082
▁त्यांचा	-10.9087
▁किययता	-10.9091
▁सुभाष	-10.9092
▁सपनों	-10.9097
▁पौधे	-10.9097
▁वाढवण्या	-10.9098
સીઆઈ	-10.9102
▁राजकुमार	-10.9112
▁समन्वय	-10.9112
▁दुसरा	-10.9113
▁माझे	-10.9113
▁અધિનિયમ	-10.9127
▁સામૂહિક	-10.9127
ાબાદ	-10.9131
▁जपागर	-10.9131
▁प्रारंभिक	-10.9132
▁પુરસ્કાર	-10.9143
▁ખેતર	-10.9144
बोध	-10.9156
▁ઓનલાઇન	-10.9158
▁ऊँचा	-10.9158
▁ठोस	-10.9159
▁કર્મચારીઓ	-10.9173
▁ब्याज	-10.9175
मणि	-10.9183
▁କାବାଡ଼ି	-10.919
▁रिड़ु	-10.919
▁वंचित	-10.919
▁परस्पर	-10.919
▁સંઘ	-10.9196
▁एखाद्या	-10.9205
▁सितंबर	-10.9205
▁જાતિ	-10.9213
▁स्वराज	-10.9214
▁संताली	-10.9222
▁ନେଗି	-10.9222
▁ଏମ୍ବା	-10.9228
▁હરિયાણા	-10.9237
▁जिनिद	-10.9239
▁मासिक	-10.9249
▁પ્રસિદ્ધ	-10.9252
▁જાત	-10.9254
▁કંઈક	-10.9258
▁शिलालेख	-10.9268
▁समझौते	-10.9268
▁દુકાન	-10.9269
▁माध्‍यम	-10.9284
▁આબોહવા	-10.9284
▁पिकांची	-10.9284
▁कबीर	-10.929
▁ऑटो	-10.9296
▁એકબીજા	-10.93
▁भरोसा	-10.93
▁बांधकाम	-10.93
▁नाअःदो	-10.93
▁देशवासियांनो	-10.9303
▁सलाहकार	-10.931
▁ઓહ	-10.9329
▁અમલીકરણ	-10.9331
▁એજન્સી	-10.9331
▁अचानक	-10.9331
▁आढावा	-10.9331
▁पोरोय	-10.9332
▁संघटना	-10.9333
▁बनवले	-10.9345
▁उर्वरक	-10.9347
▁मूल्यांकन	-10.9347
▁થોડા	-10.9347
▁अधिकृत	-10.9357
▁અગાઉ	-10.9363
▁तिहवार	-10.9363
▁आरंभ	-10.9363
▁माझी	-10.9365
▁पूंजी	-10.9365
ସ୍ପା	-10.9372
▁हॉकी	-10.9373
ତୁ	-10.9378
▁संतुलित	-10.9379
▁ઉદ્યોગસાહસિક	-10.9379
▁ક્રિકેટ	-10.9379
▁પિતા	-10.9379
▁कौतुक	-10.9379
▁प्रतिनिधित्व	-10.9381
▁रेहवा	-10.9382
▁अर्थव्यवस्थे	-10.9395
▁रविवार	-10.9395
▁બાકી	-10.94
▁शतरंज	-10.9411
▁विश्‍वास	-10.9413
ઊ	-10.9419
▁श्रद्धांजलि	-10.9427
▁હોસ્પિટલ	-10.9427
▁अड्डा	-10.9427
▁मालूम	-10.9428
अकदा	-10.9429
▁શાળાઓ	-10.9443
▁માધ્યમ	-10.9443
▁सोमवार	-10.9447
▁एक्सप्रेस	-10.9459
▁स्मृति	-10.9459
▁साबडा	-10.9459
▁स्त्री	-10.9471
▁અસરકારક	-10.9475
▁हार्दिक	-10.9475
▁चांगल्या	-10.9475
निमित्त	-10.9477
▁आसाम	-10.9479
▁सौभाग्य	-10.9491
▁बबइ	-10.9491
ealth	-10.9507
▁मुद्दे	-10.9507
▁भाज्या	-10.9513
▁सर्वोत्तम	-10.9523
▁उर्जा	-10.9523
▁रायपुर	-10.9532
▁फार्म	-10.9533
▁तुरंत	-10.9539
સભા	-10.9542
▁बंदरगाह	-10.9555
▁भौतिक	-10.9555
▁मोहम्मद	-10.9555
▁ફરિયાદ	-10.9555
▁ઊભ	-10.9563
▁धान्य	-10.957
▁धंधा	-10.9572
▁मराठी	-10.9572
▁जाणून	-10.9587
▁आत्मविश्वास	-10.9588
▁સંપત્તિ	-10.9588
▁ज़्यादा	-10.9588
▁ज्वार	-10.9589
▁प्रभु	-10.9595
▁મેળવવા	-10.9605
▁याचिका	-10.9605
▁પ્રાથમિકતા	-10.9607
▁अनुरूप	-10.9608
▁पेमेंट	-10.9617
▁ઉદ્ઘાટન	-10.962
▁विमानतळ	-10.9621
▁प्रमाणपत्र	-10.9622
▁ରଣ୍ଡା	-10.9622
▁તાકાત	-10.9637
▁આવતા	-10.9637
▁लंबी	-10.9637
▁भेल	-10.9643
▁विस्तृत	-10.9653
▁ऑगस्ट	-10.9653
▁चांगला	-10.9653
▁લીધા	-10.9669
▁गेंदबाज	-10.967
▁एकजुट	-10.967
▁बइअकन	-10.9678
▁મહોત્સવ	-10.9686
▁हटिङ	-10.9688
▁ક્યારેક	-10.969
▁मंदुर	-10.9697
ଗିବା	-10.9699
▁नवीकरणीय	-10.9702
▁टूट	-10.9707
▁કર્ણાટક	-10.9719
▁निपटने	-10.9719
▁आगामी	-10.9719
▁हंगला	-10.9721
▁હોવી	-10.9732
▁निवडणूक	-10.9735
▁પ્રાચીન	-10.9735
▁पर्याय	-10.9736
▁इंटरव्यू	-10.9752
▁वन्यजीव	-10.9752
▁कप्तान	-10.9752
▁क्रमांक	-10.9752
▁con	-10.9754
one	-10.976
▁સારો	-10.9765
▁વહીવટ	-10.9768
▁ट्रैक	-10.977
▁लागवड	-10.9772
▁कच्	-10.9778
▁पर्याप्त	-10.9785
▁लसीकरण	-10.9785
▁વીમા	-10.9785
▁मुर्गा	-10.979
▁વજન	-10.9791
‘‘	-10.9794
▁એટલા	-10.9801
▁तांत्रिक	-10.9818
▁જૈવિક	-10.9818
▁असल्याने	-10.9818
▁कुपुल	-10.9822
डि़य	-10.983
आईएस	-10.9831
▁मालदीव	-10.9835
▁જાપાન	-10.9835
દેવ	-10.9851
▁ફૂલ	-10.9852
▁પદ્ધતિઓ	-10.9856
▁देशवासियां	-10.9864
▁सोंकोटो	-10.9868
▁अरुण	-10.9869
▁कंपनि	-10.9871
▁प्राण्यां	-10.988
आधिकारिक	-10.9885
▁रइगड़ा	-10.9885
▁વ્યવહાર	-10.9885
▁बांग्लादेश	-10.9885
▁બનવા	-10.9886
▁ન્યૂ	-10.9901
▁મોટું	-10.9901
▁आकांक्षा	-10.9902
▁मरीज	-10.9903
▁ઉપજ	-10.9904
▁उपग्रह	-10.9906
લાઇન	-10.9913
ଅ	-10.9915
▁पंजीकृत	-10.9918
▁सिफारिश	-10.9918
▁रसायन	-10.9919
▁मराठा	-10.9923
कृष्ण	-10.9932
दूसरे	-10.9932
▁फेसबुक	-10.9935
▁સમારોહ	-10.9935
▁ગર્વ	-10.9935
▁महत्वाच	-10.9945
▁ખેતરોમાં	-10.9954
▁प्राधान्य	-10.9969
▁सितम्बर	-10.9969
विमर्श	-10.9971
▁सुटकारा	-10.9985
▁उडुङ	-10.9986
▁ठाकुर	-10.9986
▁झलक	-10.9986
▁ઉજવણી	-10.9986
▁સ્વરૂપ	-10.9987
▁तौल	-10.9992
▁મહેનત	-11.0002
▁स्थळां	-11.0003
▁मानसून	-11.0003
▁तत्काल	-11.0011
▁મુદ્દ	-11.0036
▁ઓક્ટોબર	-11.0036
▁जिम्मेदार	-11.0037
▁अहमदाबाद	-11.0037
▁रसीद	-11.004
▁स्वीकृत	-11.0043
▁સ્થિર	-11.0053
▁મુસ્લિમ	-11.007
મુખ	-11.0071
▁પૂજા	-11.0073
मूद	-11.0083
▁नौसेना	-11.0088
▁झूल	-11.0101
▁शकेल	-11.0105
▁टैक्स	-11.0108
▁होबव	-11.011
▁વધત	-11.0114
▁पंख	-11.0119
ical	-11.012
▁સિસ્ટમ	-11.0122
▁सुगड़ा	-11.0122
▁इकाई	-11.0123
▁पर्रेक	-11.0131
▁વાર્તા	-11.0139
▁दवाखाना	-11.0139
▁आध्यात्मिक	-11.0156
▁डाउनलोड	-11.0156
▁અરજી	-11.0156
▁શ્રીમતી	-11.0173
▁अब्दुल	-11.0175
▁विद्यार्थियों	-11.019
▁મેદાન	-11.0195
▁अयुब	-11.0208
▁આંદોલન	-11.0208
ऑ	-11.0208
आयुष्मान	-11.0208
▁आस्था	-11.0208
गृह	-11.0216
▁आश्वासन	-11.0225
▁સંઘર્ષ	-11.0225
▁कुर्ता	-11.0225
▁रमेश	-11.0229
ક્વ	-11.0248
ग्रस्त	-11.0254
▁कर्मचारियों	-11.026
ତେଞ୍ଜୁ	-11.0267
▁व्हिडिओ	-11.0277
▁दुरंङ	-11.0277
▁रस्ते	-11.0278
ान्वित	-11.0287
▁ऑक्टोबर	-11.0295
▁तत्त्व	-11.0295
▁કેટલીક	-11.0295
▁मलयालम	-11.0312
▁સમર્પિત	-11.0312
▁भेदभाव	-11.0312
▁शिवाजी	-11.0312
▁दंड़ा	-11.0313
ନ୍ଦାରା	-11.0314
▁आपूना	-11.0314
भूमी	-11.0318
▁स्वाभाविक	-11.0347
▁રેકોર્ડ	-11.0347
▁विद्वान	-11.0347
ଆଞ୍ଜୁ	-11.0348
▁बचपन	-11.035
igh	-11.0362
▁विभाजन	-11.0365
▁जिल्ह्या	-11.0382
▁वाजपेयी	-11.0382
▁હુમલા	-11.0382
▁श्रेय	-11.0384
▁बेरगा	-11.0401
▁પાઠવ	-11.0403
▁સંસાધન	-11.0415
फॉर्म	-11.0416
▁डिसेंबर	-11.0417
▁पूर्वोत्तर	-11.0417
▁रुग्णालय	-11.0418
▁मतोना	-11.0419
▁સુંદર	-11.042
▁થયેલા	-11.0435
▁“‘	-11.0438
▁उड़ान	-11.0439
वडिलां	-11.0442
योजक	-11.0444
▁केजरीवाल	-11.0453
▁ଗୁଲେଃ	-11.0453
▁શુભેચ્છાઓ	-11.0455
▁सामान्यतः	-11.0456
गांव	-11.0458
▁2005	-11.0461
▁ट्रांस	-11.0464
▁नातिन	-11.0465
▁शैल	-11.047
▁सीतारमण	-11.047
▁બજેટ	-11.047
▁आदिवासियों	-11.0472
▁प्रशासक	-11.0488
▁આત્મનિર્ભર	-11.0488
▁વિકસિત	-11.0488
▁इन्हें	-11.0488
▁શિક્ષક	-11.0488
▁हज़ार	-11.0489
ांपैकी	-11.05
▁जीवनशैली	-11.0506
▁સામ્રાજ્ય	-11.0506
▁तेलुगु	-11.0506
▁एकमेकां	-11.0507
ଡ଼ାଃଇ	-11.0508
▁बणांवा	-11.0509
▁ओकोनिः	-11.0512
▁આપશે	-11.0513
▁વાર્ષિક	-11.0524
▁પેઢી	-11.0524
▁राजपूत	-11.0524
▁માર્ચ	-11.0525
▁प्रारंभ	-11.0536
▁निकाय	-11.0541
▁ઓગસ્ટ	-11.0542
▁ટ્રેન	-11.0552
▁चैनल	-11.0561
▁मिळवण्या	-11.0576
▁अरुणाचल	-11.0577
▁ग्लोबल	-11.0577
▁ज्‍यादा	-11.0578
▁तक्रार	-11.0578
▁कोटुम	-11.0581
▁कमांड	-11.0593
▁रिजर्व	-11.0595
▁संस्थे	-11.0596
▁जाहिर	-11.06
क्षेत्र	-11.0601
▁टकरा	-11.0603
▁ଇସେକା	-11.0613
▁दांड़ा	-11.0614
▁भिन्न	-11.0616
▁कोणत्या	-11.0625
▁ओकतअ	-11.0628
▁અમૃત	-11.0631
▁સમુદ્ર	-11.0631
▁ગંભીર	-11.0649
▁ફક્ત	-11.0649
▁लगतिङ	-11.0654
ाचार्य	-11.0655
▁મંત્રીમંડળ	-11.0668
▁सशक्तिकरण	-11.0668
▁पेट्रोलियम	-11.0668
▁प्रजाति	-11.0669
▁कचरा	-11.067
▁तड़य	-11.067
▁स्टार	-11.0673
▁ગંગા	-11.0686
▁होटल	-11.069
▁OTP	-11.0704
▁ઉત્સાહ	-11.0704
▁कीजिए	-11.0706
▁શકું	-11.0722
▁झूठ	-11.0723
▁વિવાદ	-11.0729
पायजामा	-11.074
▁फैसलो	-11.0741
ଣ୍ଡୁ	-11.0742
▁AICTE	-11.0758
▁संवेदना	-11.0758
▁कालावधी	-11.0777
▁પોષણ	-11.0777
▁માન્યતા	-11.0777
▁नोंदणी	-11.0777
▁मंदानुर	-11.0779
पार्ट	-11.0791
▁संसकिर	-11.0795
▁सब्जियों	-11.0795
▁व्यस्त	-11.0795
▁बनचव	-11.0799
राष्‍ट्रीय	-11.0803
▁Start	-11.0813
▁आकर्षण	-11.0813
▁प्रादेशिक	-11.0813
▁मार्गदर्शक	-11.0813
▁वैयक्तिक	-11.0813
▁छात्रवृत्ति	-11.0814
स्‍व	-11.0815
▁ओकोतअः	-11.0818
▁अमीर	-11.0821
▁अमरीक	-11.0827
▁અનન્ય	-11.0832
▁अंडमान	-11.0832
▁ચંદ્ર	-11.085
▁तायोम	-11.0854
▁કરનાર	-11.0861
▁सुप्रीम	-11.0869
▁સપ્ટેમ્બર	-11.0869
▁लग्न	-11.0872
निर्देश	-11.0877
▁बुजव	-11.0878
▁વૃદ્ધિ	-11.0879
▁इहुन	-11.0889
▁बलिराम	-11.0906
▁જોખમ	-11.0906
▁मंतंग	-11.0909
▁લઘુ	-11.0924
▁મળ્યું	-11.0943
▁चौकशी	-11.0943
▁અવાજ	-11.0943
विरुद्ध	-11.0944
▁सोमाए	-11.0944
ભૂમિ	-11.0944
▁विवेक	-11.0961
પ્રારંભિક	-11.0961
▁औपचारिक	-11.0961
▁એશિયા	-11.0961
▁કોઈપણ	-11.0961
▁युरोप	-11.0962
▁ચિત્ર	-11.0962
▁ଏସ୍ତା	-11.0963
▁कामकाज	-11.0967
▁for	-11.0975
▁કદાચ	-11.098
▁नैतिक	-11.0999
▁लाभार्थी	-11.0999
▁विजेता	-11.1002
पश्चिम	-11.1009
▁ત્રિ	-11.1009
▁कार्यान्वयन	-11.1018
▁ચોક્કસ	-11.1018
▁शकतील	-11.1018
▁રાજધાની	-11.1036
▁स्त्रोत	-11.1036
▁નિકાસ	-11.1036
▁बियाणे	-11.1036
▁पीड़ित	-11.1051
▁मुसिङ	-11.1055
▁મોકલવા	-11.1055
▁गांम	-11.1066
▁स्नान	-11.1067
▁पुरूष	-11.1074
▁2001	-11.1082
▁क्षैत्र	-11.1093
▁संस्करण	-11.1093
▁ରେହା	-11.1112
▁सावधान	-11.1112
▁साहिब	-11.1112
▁कुंभ	-11.1116
▁वड़िय	-11.1117
–	-11.1143
▁इंतजार	-11.115
▁मंत्रिमंडळा	-11.115
▁થયેલી	-11.115
▁बिसवास	-11.115
▁ककला	-11.1158
▁गणेश	-11.1161
▁ખરાબ	-11.1169
▁तैनात	-11.1169
▁चूंकि	-11.1169
▁किल्ल्या	-11.117
▁लंबा	-11.1175
ग्राफ	-11.1182
▁જાળવવા	-11.1188
▁ईलाका	-11.1189
कर्त्या	-11.1201
▁સમાધાન	-11.1207
▁निराशा	-11.1207
▁भर्ती	-11.1207
ଜାନେ	-11.1208
▁अकेले	-11.1208
▁ફ્લ	-11.1216
▁नेतृत्वाखाली	-11.1226
▁दररोज	-11.1226
▁सम्राट	-11.1226
▁ધરાવત	-11.1227
ऐवजी	-11.1228
▁કોવિડ	-11.1245
▁गणराज्य	-11.1245
▁प्रोजेक्ट	-11.1245
▁જંતુ	-11.1245
▁पहिला	-11.1245
▁हुकुम	-11.1253
▁ગૃહ	-11.1264
▁ESIC	-11.1264
▁रिलीज	-11.1267
▁ગેસ	-11.1282
▁अनुमोदित	-11.1283
▁अफगानिस्तान	-11.1283
▁विभिन्‍न	-11.1283
▁સંચાલન	-11.1283
▁સમાપ્ત	-11.1283
▁ब्रिक्स	-11.1283
▁महासचिव	-11.1303
▁हाटुम	-11.1303
▁અમને	-11.1303
▁अक्षय	-11.1304
▁पीलंग	-11.1304
▁सप्टेंबर	-11.1322
▁फैसले	-11.1322
▁न्‍याय	-11.133
ବେଲା	-11.1338
▁मेतअइतना	-11.1341
▁ડિસેમ્બર	-11.1341
▁રસીકરણ	-11.1341
▁સૈનિકો	-11.1341
શાસિત	-11.1341
▁फ़ोन	-11.1342
▁युनिट	-11.1342
▁पृथ्वीराज	-11.1345
वर्तन	-11.135
▁वराह	-11.1351
▁સક્રિય	-11.1361
▁धेयान	-11.1361
▁परमाणु	-11.1361
▁चूड़ीदार	-11.138
▁પ્રાદેશિક	-11.138
▁સરખામણી	-11.138
▁રક્ષા	-11.138
▁तूफान	-11.14
▁ओडोः	-11.14
▁दृष्टिकोन	-11.14
▁चनाः	-11.1401
▁કલમ	-11.1406
▁દેખરેખ	-11.1419
▁ऑर्डर	-11.1419
▁स्टार्ट	-11.1421
▁असुल	-11.1432
▁एनेटेः	-11.1439
▁बाजारपेठ	-11.1439
▁वार्ता	-11.144
▁सूत्रांनी	-11.1441
બદ્ધ	-11.1458
▁જનરલ	-11.1458
▁अकबर	-11.1459
▁સંગ્રહ	-11.1461
▁પુન	-11.1465
▁વિધાનસભા	-11.1478
▁હસ્તકલા	-11.1478
▁नवम्बर	-11.1478
▁इलाके	-11.1479
▁દરરોજ	-11.1497
▁પ્રતિબદ્ધતા	-11.1497
▁એરપોર્ટ	-11.1497
ନେ୍ଦ	-11.1498
▁तीव्र	-11.1517
▁સ્વસ્થ	-11.152
▁तोड़िय	-11.1525
▁चण्डुः	-11.1557
▁व्‍यक्ति	-11.1576
ness	-11.158
ाधिक	-11.1585
▁तुलनेत	-11.1596
▁ઉત્સવ	-11.1596
▁पेलखी	-11.1596
▁अंतराळ	-11.1596
▁प्रसन्न	-11.1597
▁पुस्तकालय	-11.1599
▁मुंडि	-11.1604
▁हंगाम	-11.1604
▁the	-11.1615
▁काठो	-11.1623
ज्‍ज	-11.1626
▁નેટવર્ક	-11.1636
▁રમતગમત	-11.1636
▁છૂટ	-11.1637
▁विनोद	-11.1638
▁त्ये	-11.1649
▁technology	-11.1656
▁ગૌરવ	-11.1656
▁તબીબી	-11.1656
▁પ્રશ્ન	-11.1656
▁સાબિત	-11.1656
▁घेऊ	-11.1661
▁आठवण	-11.1679
▁हमारो	-11.1692
દાયક	-11.1694
▁बढ़ोतरी	-11.1696
▁फ्री	-11.1699
▁ઝારખંડ	-11.1716
▁મસાલા	-11.1716
▁इंदिरा	-11.1716
▁नव्हते	-11.1716
▁जगभरात	-11.1722
▁शक्तिशाली	-11.1739
▁सौंप	-11.1741
▁પુનર્	-11.175
▁उपभोक्ता	-11.1756
▁उर्वरित	-11.1756
▁દ્રષ્ટિ	-11.1756
▁उर्दू	-11.1756
▁मृदा	-11.1757
▁दुराङ	-11.1757
▁आंतरिक	-11.1763
▁रुग्ण	-11.1776
▁જાન્યુઆરી	-11.1777
▁ટૂંક	-11.1777
▁તારીખ	-11.1777
▁સારવાર	-11.1777
▁બચત	-11.1777
▁व्यायाम	-11.1777
▁बेटियों	-11.1797
▁कहानियाँ	-11.1799
▁शपथ	-11.1817
▁डगरी	-11.1817
▁असलेले	-11.1819
▁ઉત્પાદક	-11.1837
▁गारंटी	-11.1837
▁कठीण	-11.1838
▁स्‍थान	-11.1838
▁સૂર્ય	-11.1838
▁લોકસભા	-11.1838
▁આસામ	-11.1839
▁गुलाब	-11.1852
કૃષ્ણ	-11.1858
▁શૈક્ષણિક	-11.1858
▁विनंती	-11.1858
▁यातायात	-11.1858
व्यतिरिक्त	-11.1862
▁रेड्डी	-11.1899
▁ग्रुप	-11.1919
▁धूप	-11.192
▁सरोवर	-11.1921
▁પસંદગી	-11.1921
▁बहुमत	-11.1922
▁झोप	-11.1923
▁पोड़द	-11.1924
▁मजबूर	-11.194
▁बेरस	-11.1949
▁संकल्‍प	-11.196
▁हर्षवर्धन	-11.196
▁પૃથ્વી	-11.196
▁મામલા	-11.196
▁प्रोग्राम	-11.1961
▁सभ्यता	-11.1981
▁અહેવાલ	-11.1981
▁મામલે	-11.1981
ुद्दीन	-11.1981
▁होड़मो	-11.1981
▁अनुच्छेद	-11.2002
▁ओलंपिक	-11.2002
▁प्रक्रिये	-11.2002
▁व्‍यापार	-11.2002
▁દ્વિપક્ષીય	-11.2002
▁ધાર્મિક	-11.2002
▁व्यवस्थे	-11.2002
▁अभिनेत्री	-11.2002
▁ऋतु	-11.2002
▁स्‍कूल	-11.2002
▁मोफत	-11.2002
▁मदेद	-11.2004
▁मुफ्त	-11.2022
▁ग्ल	-11.2042
▁ब्रिटेन	-11.2043
विभाजित	-11.2043
▁सुल्तान	-11.2043
▁पेशेवर	-11.2043
▁कनेक्शन	-11.2043
▁वैदिक	-11.2043
▁डूब	-11.2059
▁बिरिद	-11.2063
▁कर्मचाऱ्यां	-11.2064
▁दैनिक	-11.2064
▁तलवार	-11.2065
▁स्टेडियम	-11.2085
▁मुयतह	-11.2085
▁तैवार	-11.2085
▁पहिले	-11.2085
▁मांसाहार	-11.2085
धनुष	-11.2099
▁हमाळ	-11.2101
▁संचालित	-11.2106
▁ભેજ	-11.2106
▁जटिल	-11.2106
▁हामळ	-11.2122
▁महत्‍वपूर्ण	-11.2126
▁રક્ષણ	-11.2148
▁મશીન	-11.2149
दृष्ट्या	-11.2168
▁कथित	-11.2169
▁छोड	-11.2169
▁विद्या	-11.2175
યુક્ત	-11.2184
▁निम्न	-11.2193
टॉप	-11.2202
▁टिप्पणी	-11.2211
▁प्रतिस्पर्धा	-11.2211
યોજિત	-11.2211
▁શ્રમ	-11.2211
▁एटाः	-11.2211
▁उरिः	-11.2211
▁पसाडी	-11.2211
▁बन्डुआ	-11.2232
▁શકતો	-11.2232
पंथ	-11.2247
▁भाइयो	-11.225
▁आढळ	-11.2253
▁खानपान	-11.2253
▁कापणी	-11.2255
ocal	-11.2274
▁उपाध्यक्ष	-11.2274
▁विश्लेषण	-11.2274
▁વિશાળ	-11.2274
▁बहुतांश	-11.2274
▁આવાસ	-11.2275
▁कन्नड़	-11.2276
ગ્રે	-11.2287
▁बिल्कुल	-11.2295
▁ज़िले	-11.2296
▁मेटाइ	-11.2296
ଞ୍ଜ	-11.2314
▁शुक्रवार	-11.2317
▁शेवटी	-11.2317
▁पोषक	-11.2317
▁इकाइ	-11.2318
▁पाठ्यक्रम	-11.2338
▁વેચાણ	-11.2338
▁રાજ્યમંત્રી	-11.2339
अंतर्गत	-11.2345
▁मुयतड़	-11.236
▁વિતરણ	-11.236
▁लोकसंख्या	-11.236
▁प्रसंगी	-11.236
▁पोलीस	-11.2361
▁दायित्व	-11.2381
▁કપડાં	-11.2381
▁પ્રતિબંધ	-11.2381
▁सल्लागार	-11.2381
▁निमिनङ	-11.2381
▁महामार्ग	-11.2381
▁आँख	-11.2381
▁ड्रोन	-11.2382
नृत्य	-11.2392
▁यावर्षी	-11.2402
▁बुकिला	-11.2403
▁सोंगड़ा	-11.2403
▁ऑपरेशन	-11.2424
▁शिवसेना	-11.2424
▁मैसूर	-11.2424
▁અમલ	-11.2426
▁बर्रस	-11.2436
▁योद्धा	-11.2436
▁गुवाहाटी	-11.2446
▁ખોરાક	-11.2446
▁सामायिक	-11.2446
▁व्याख्या	-11.2446
▁ટ્રેક	-11.2446
▁राजकारण	-11.2448
▁अभिषेक	-11.2467
▁दुर्घटना	-11.2467
▁दृष्टीने	-11.2467
▁भौगोलिक	-11.2467
▁कबड्डी	-11.2467
▁जोखिम	-11.2467
▁परन्तु	-11.2468
▁टउका	-11.2489
ગુપ્ત	-11.2489
▁रितें	-11.2492
प्‍प	-11.2508
▁दूरसंचार	-11.2511
▁भगिनींनो	-11.2511
▁સાંસદ	-11.2511
▁तामिळनाडू	-11.2511
▁शेवटच	-11.2511
▁एकलव्य	-11.2512
EPFO	-11.2533
▁गवर्नर	-11.2533
▁विपरीत	-11.2533
▁संक्षिप्त	-11.2533
▁સપના	-11.2533
▁नज़र	-11.2538
orld	-11.2554
▁रासायनिक	-11.2554
▁शून्य	-11.2554
▁सयोब	-11.2567
▁વાસ્તવિક	-11.2576
▁राजनैतिक	-11.2576
▁मनमोहन	-11.2576
▁જોડાણ	-11.2576
▁इस्पात	-11.2576
▁धीर	-11.2584
दिवस	-11.2584
▁कायदेशीर	-11.2598
▁माननीय	-11.26
▁हालाँकि	-11.262
▁इसीलिए	-11.262
▁पेशकश	-11.262
▁વસ્તુ	-11.2622
▁જોગવાઈ	-11.2642
▁સાહિત્ય	-11.2642
▁મુંડા	-11.2642
▁पोशाख	-11.2642
▁भिलाला	-11.2642
▁जोगाव	-11.2646
▁अर्पण	-11.2664
▁आरबीआई	-11.2686
▁अध्याय	-11.2686
▁अरविंद	-11.2686
▁वचमा	-11.2689
▁મોટાભાગ	-11.2707
▁नेहमीच	-11.2709
▁પકડ	-11.272
▁अमानत	-11.2733
▁वाढविण्या	-11.2746
▁खींच	-11.2748
▁प्रवक्ता	-11.2753
▁भूकंप	-11.2753
▁पुरातत्व	-11.2753
▁प्रतिष्ठा	-11.2753
▁जेतए	-11.2756
▁पुगाड	-11.2766
▁सदियो	-11.2771
▁दिसम्बर	-11.2775
▁रोशनी	-11.2776
▁ટોચ	-11.2777
उन्होंने	-11.2789
▁उज्ज्वल	-11.2798
▁परिणामस्वरूप	-11.2798
▁મહાત્મા	-11.2798
ood	-11.2798
▁जाहीर	-11.28
▁સંમત	-11.2806
▁આશરે	-11.282
▁जवाहर	-11.2821
▁वाजता	-11.2822
▁त्वरित	-11.2843
▁चउलि	-11.2843
▁जुन्या	-11.2843
▁અભિગમ	-11.2865
▁વિકલ્પ	-11.2865
▁તબક્કા	-11.2865
▁सुगंध	-11.2865
▁नागालैंड	-11.2865
▁कैमरा	-11.2866
▁ઓછો	-11.2888
▁ફેલાવ	-11.2896
▁हल्ल्या	-11.2898
સ્વતંત્ર	-11.291
▁घेणे	-11.291
▁उभे	-11.2911
▁चाँद	-11.2911
▁કરાયેલ	-11.2911
▁सेवानिवृत	-11.2929
▁अतिरिक्‍त	-11.2933
▁कनेक्टिविटी	-11.2933
▁शाळेत	-11.2935
▁પ્રેરિત	-11.2956
▁બનશે	-11.2956
▁निकोबार	-11.2956
▁संबोधन	-11.2956
▁भाषे	-11.2957
▁वनस्पति	-11.2979
▁માણસ	-11.2979
▁महीनो	-11.2983
▁जागृत	-11.3001
▁सिन्हा	-11.3001
▁संघटने	-11.3002
छोटे	-11.3018
अत्यधिक	-11.3024
▁वेगवेगळ्या	-11.3024
▁ઉદ્યાન	-11.3024
▁સપ્તાહ	-11.3024
▁સક્ષમ	-11.3024
▁फूट	-11.3027
▁उपलब्‍ध	-11.3047
▁પ્રકૃતિ	-11.3047
▁संहिता	-11.3048
▁तीसरी	-11.3048
▁वृद्ध	-11.3064
▁जनजाती	-11.3065
▁घाघरा	-11.307
▁દીકરી	-11.307
▁ધારાસભ્ય	-11.307
▁શર્મા	-11.307
▁वक्तव्य	-11.307
▁तेहवार	-11.3072
▁पलटन	-11.3081
▁અદાલત	-11.3093
▁મીઠાઈઓ	-11.3093
▁उत्सुक	-11.3093
▁अड़चेन	-11.3093
▁नजदीक	-11.3094
▁लाकडी	-11.3094
▁उमेदवार	-11.3116
▁ઉંમર	-11.3116
▁જુલાઈ	-11.3116
▁ईश्वर	-11.3116
▁મિશ્ર	-11.3117
▁जुलै	-11.3117
▁पातळीवर	-11.3139
▁प्रचलित	-11.3139
▁દાખલ	-11.3139
▁खाजगी	-11.314
▁ईंधन	-11.314
▁सफेद	-11.314
▁પુલ	-11.3143
कटिबंधीय	-11.3163
▁संचय	-11.3168
▁आजीविका	-11.3186
▁उल्लंघन	-11.3186
▁शुभारंभ	-11.3186
▁साक्षरता	-11.3186
▁જોયું	-11.3186
▁પદ્ધતિ	-11.3203
▁अकादंदा	-11.3209
▁अभूतपूर्व	-11.3209
▁एप्रिल	-11.3209
▁अखबार	-11.3209
▁पश्चात	-11.321
▁બધું	-11.3233
▁संभावित	-11.3233
▁निराकरण	-11.3233
▁शनिवार	-11.3233
▁Uni	-11.3234
▁ખેલાડી	-11.3249
▁IIT	-11.3256
▁अर्पित	-11.3256
▁ફેરફાર	-11.3256
▁મૂળભૂત	-11.3256
▁यात्रियों	-11.3256
▁निरीक्षण	-11.328
▁संथाली	-11.328
▁चरित्र	-11.328
▁ओहनह	-11.328
▁પત્ની	-11.3303
▁परिचय	-11.3303
▁पाऊस	-11.3303
▁दिलचस्प	-11.3327
▁फायदेशीर	-11.3327
▁ઉમેદવાર	-11.3327
▁સશક્ત	-11.3327
▁त्याचप्रमाणे	-11.3327
▁डिजाइन	-11.3327
▁સ્વાગત	-11.335
▁राँची	-11.335
▁दीजिए	-11.335
▁ढूंढ	-11.3351
મંત્રી	-11.3369
मुझे	-11.3372
▁टक्क्यां	-11.3374
▁નાણાં	-11.3374
▁कम्पनी	-11.3374
लाभार्थियों	-11.3374
▁ग़रीब	-11.3398
▁संख्‍या	-11.3398
▁पड़ोसी	-11.3398
▁પરિસ્થિતિ	-11.3421
▁पासबुक	-11.3422
▁सुरुवातीला	-11.3422
▁प्रजासत्ताक	-11.3445
▁બૌદ્ધ	-11.3445
▁असाधारण	-11.3445
▁चुनौति	-11.3465
▁ડિરેક્ટર	-11.3469
▁હૃદય	-11.3469
▁શકતા	-11.3469
▁सुन्दर	-11.347
▁गर्भ	-11.3472
▁बरिअ	-11.3493
▁વિસ્તૃત	-11.3493
▁सब्सिडी	-11.3493
▁યોજવા	-11.3493
▁आमदनी	-11.3494
▁कोट्टुम	-11.3517
▁टवकय	-11.3517
▁फाउंडेशन	-11.3517
▁महानिदेशक	-11.3517
▁शैक्षिक	-11.3517
▁કુશળ	-11.3517
▁ભ્રષ્ટાચાર	-11.3517
▁व्‍यक्‍त	-11.3517
▁હત્યા	-11.3517
▁એપ્રિલ	-11.3541
▁ઇમેઇલ	-11.3566
▁अवश्य	-11.3566
▁रसोई	-11.3566
▁चिल्का	-11.3566
▁दिमाग	-11.3566
▁चट्टान	-11.3567
विषयी	-11.3575
▁अलाउद्दीन	-11.359
▁શૈલી	-11.359
▁प्रियंका	-11.359
▁व्हि	-11.3593
शक्ती	-11.3607
▁क्रियाकलाप	-11.3614
▁वास्तुकला	-11.3614
▁નિષ્ણાત	-11.3614
▁आन्दोलन	-11.3614
ज्यांना	-11.3616
▁પાડવા	-11.3616
▁સૂચિ	-11.3638
▁વધારી	-11.3639
▁एसोसिएशन	-11.3663
▁सौंदर्य	-11.3663
▁સિદ્ધાંત	-11.3687
▁ઉત્તમ	-11.3687
▁આંકડા	-11.3687
▁મહિને	-11.3687
▁अल्पसंख्यक	-11.3712
▁गोतियालोरिट	-11.3712
▁अनायुम	-11.3712
▁संक्रमण	-11.3712
▁टुनडु	-11.3712
▁पुष्टि	-11.3712
▁સાહસ	-11.3712
▁प्रचंड	-11.3712
▁साउथ	-11.3712
▁पारदर्शक	-11.3736
▁पंजीकरण	-11.3736
▁એકત્રિત	-11.3736
▁लोचोन	-11.3736
▁વાહન	-11.3741
▁પવિત્ર	-11.3761
▁पाऊल	-11.3761
▁પ્રણાલી	-11.3786
▁ઉત્તરાખંડ	-11.3786
▁बस्तर	-11.3787
▁કેટલા	-11.3802
▁આમંત્રણ	-11.381
▁ધરપકડ	-11.381
▁टप्प्या	-11.381
▁निरोगी	-11.381
▁दिवाली	-11.3811
▁समुन्द	-11.3823
▁तमांर	-11.3834
▁सम्‍मेलन	-11.3835
▁હુમલો	-11.3835
▁ब्राह्मण	-11.386
▁उचुय	-11.386
▁तीसरे	-11.3861
▁आलोचना	-11.3865
▁निम्नलिखि	-11.3885
▁मुकाबला	-11.3885
▁सल्तनत	-11.3885
▁વસ્ત્રો	-11.3885
▁वातसीत	-11.3886
▁लंदन	-11.3886
ક્રે	-11.3904
▁पीयूष	-11.391
▁ધીમે	-11.391
▁चिमनङ	-11.391
सामान्य	-11.3925
▁अनूठ	-11.3931
▁महापुरुष	-11.3935
▁स्वाक्षरी	-11.3935
લ્પ	-11.3947
▁आश्रम	-11.396
▁टेक्नोलॉजी	-11.3985
▁रूइटोला	-11.3985
▁દસ્તાવેજ	-11.3985
▁ପାଇଟି	-11.3985
▁टैगोर	-11.3985
▁સંકટ	-11.3985
▁પ્રસાર	-11.3987
▁જાણીત	-11.3995
▁તહેવાર	-11.4029
▁एपिसोड	-11.4036
▁बुधवार	-11.4036
▁अभयारण्य	-11.4061
▁નિમણૂક	-11.4087
▁बिरासत	-11.4087
▁सम्‍मान	-11.4087
▁ટેસ્ટ	-11.4087
▁दिय्या	-11.4087
શિયલ	-11.4087
▁વધવા	-11.4113
▁मकसद	-11.4113
▁अयोध्या	-11.4138
▁ध्वनि	-11.4138
▁बदिलि	-11.4138
▁संस्थापक	-11.4139
▁भट्ट	-11.4154
▁ગરમ	-11.4159
▁तेंदुलकर	-11.4163
▁स्क्रीन	-11.4163
▁हिन्‍दुस्‍तान	-11.4163
▁અપેક્ષા	-11.4163
▁बुजुर्ग	-11.4163
▁तमारो	-11.4167
દ્યોગિક	-11.4189
▁માછલી	-11.4189
▁સ્વાદિષ્ટ	-11.4189
▁बनडुअ	-11.4189
▁विजळी	-11.4189
▁ટેકો	-11.4189
▁अर्थसंकल्प	-11.4215
▁વાગ્યે	-11.4215
▁तुसिंङ	-11.4215
▁रामायण	-11.4215
▁गितिः	-11.4241
▁જૈન	-11.4244
▁पेट्रोल	-11.4266
▁कैबिनेट	-11.4267
▁सद्भाव	-11.4267
▁पहिली	-11.4267
▁सुणाव	-11.4283
▁અઠવાડિયા	-11.4293
▁गुंतवणुकी	-11.4293
▁परामर्श	-11.4293
▁અછત	-11.4293
▁વ્યાજ	-11.4293
▁जलप्रपात	-11.4319
▁फेब्रुवारी	-11.4319
▁दरवाजे	-11.4319
▁तुलसी	-11.4319
▁प्‍यार	-11.4344
▁સુધારવા	-11.4345
▁ईस्वी	-11.4345
▁કંઈ	-11.4362
▁innovat	-11.4371
▁अकादमी	-11.4371
▁આદર્શ	-11.4371
▁નોકરી	-11.4371
▁सुषमा	-11.4371
▁धंगड़ा	-11.4371
▁साढ़े	-11.4372
▁દવાઓ	-11.4372
▁પ્લેટફોર્મ	-11.4397
▁बाबतीत	-11.4397
વર્ધન	-11.4397
▁છોકરી	-11.4398
▁प्रासंगिक	-11.4424
▁मरम्मत	-11.4424
▁ઉજવ	-11.4441
▁धैर्य	-11.445
▁ઉપસ્થિત	-11.445
▁ऊंचाई	-11.445
▁रघु	-11.445
▁सजावट	-11.4453
▁मत्तोर	-11.4468
▁बांगलादेश	-11.4476
▁ફેબ્રુઆરી	-11.4476
▁સશક્તિકરણ	-11.4476
▁विशाखा	-11.4476
▁बच्चन	-11.4477
▁लोकसंगीत	-11.4503
▁ऋषि	-11.4503
▁કોલસા	-11.4503
▁ફૂડ	-11.4503
▁अवैध	-11.4503
▁चाचणी	-11.4503
▁तपशील	-11.4503
▁लिजअः	-11.4503
વાણિજ્ય	-11.453
▁શાકાહારી	-11.453
▁સ્ટાર્ટઅપ	-11.453
▁मणिपूर	-11.453
▁डेयरी	-11.453
▁बरिआ	-11.4531
▁प्रशिक्षित	-11.4556
▁वैशिष्ट्य	-11.4556
▁स्तंभ	-11.4556
▁સોંપ	-11.4556
▁रबङ	-11.4557
▁शौक	-11.4559
▁ટાપુ	-11.4583
▁पोलिसांन	-11.4583
▁પ્રવાહ	-11.4584
▁પટેલ	-11.4584
ture	-11.4605
▁પ્લાન્ટ	-11.461
▁અંદાજ	-11.461
▁उजागर	-11.461
▁नर्मदा	-11.461
▁संबध	-11.4615
▁મણિપુર	-11.4637
▁કિનારે	-11.4637
▁भैंस	-11.4637
▁धुमधाम	-11.4664
▁સામગ્રી	-11.4664
▁હિન્દુસ્તાન	-11.4664
▁अड्डे	-11.4664
▁सर्वश्रेष्ठ	-11.4691
▁અનુકૂળ	-11.4691
▁ગાળા	-11.4691
▁इच्चो	-11.4691
▁तथ्य	-11.4692
▁पिनकोड	-11.4718
▁विज्ञापन	-11.4718
▁हफ्ते	-11.4718
▁हिस्‍सा	-11.4718
▁અવરોધ	-11.4718
▁લોકશાહી	-11.4718
▁दिनानिमित्त	-11.4718
▁जरूडु	-11.4718
▁लढाई	-11.4718
▁ચક્ર	-11.4718
▁लीजिए	-11.4718
▁गिरावट	-11.4745
▁મફત	-11.4745
▁પોશાક	-11.4745
▁नामांकन	-11.4745
▁मॉडेल	-11.4745
▁इतुसइ	-11.4745
▁વચન	-11.4749
समूह	-11.476
▁बिसुआस	-11.4772
▁मपरङ	-11.4772
▁मर्यादा	-11.4772
▁काढून	-11.4772
▁વિશિષ્ટ	-11.4799
▁વેબસાઇટ	-11.4799
▁રાહુલ	-11.48
▁चक्रवात	-11.4803
▁લાંબી	-11.4827
▁1857	-11.4827
▁निवेदन	-11.4827
▁शुक्ल	-11.4833
▁માતાપિતા	-11.4854
▁હિંસા	-11.4854
▁सिंगापुर	-11.4854
▁गरजेच	-11.4872
▁शेतकऱ्या	-11.488
▁ભરેલી	-11.4882
▁स्वायत्त	-11.4882
▁नियामक	-11.4882
▁पूज्य	-11.4882
लैंगिक	-11.4883
▁निम्मट	-11.4909
▁सदैव	-11.4909
▁सामर्थ्‍य	-11.4909
▁સરળતાથી	-11.4909
▁प्रतीक्षा	-11.491
▁बांग्ला	-11.4936
▁चैंपियन	-11.4937
▁संवैधानिक	-11.4937
▁નિષ્ફળ	-11.4937
▁સ્વયં	-11.4937
▁सिक्कीम	-11.4937
▁सिपाही	-11.4937
ઘણું	-11.4938
▁प्रसंस्करण	-11.4965
▁સિક્કિમ	-11.4965
▁सेंद्रिय	-11.4965
▁राक्षस	-11.4967
▁ठिकाण	-11.4971
▁समुंद	-11.4972
▁ફાયદા	-11.4993
▁एजेंसियों	-11.4993
▁તાત્કાલિક	-11.4993
▁મુખ્યત્વે	-11.4993
▁સુપ્રીમ	-11.4993
▁मुहम्मद	-11.4993
▁वृत्तपत्र	-11.4993
▁पहलुओं	-11.4993
▁જહાજ	-11.4993
▁आभूषण	-11.5021
▁પંચાયત	-11.5021
▁બાંગ્લાદેશ	-11.5021
▁जिल्गी	-11.5021
▁રસ્તો	-11.5021
पीढ़ियों	-11.5025
▁मंत्र्यां	-11.5028
▁प्लेटफॉर्म	-11.5049
▁स्‍थापना	-11.5049
▁કેપ્ટન	-11.5049
▁શારીરિક	-11.5049
▁तिसऱ्या	-11.5049
▁सुलतान	-11.5049
▁वितरित	-11.5049
▁कैंसर	-11.5049
▁અરૂણ	-11.505
▁નાખવા	-11.505
▁મર્યાદિત	-11.5077
▁कार्बन	-11.5077
प्रिंट	-11.5092
▁PRAN	-11.5105
▁વીડિયો	-11.5105
▁न्यूनतम	-11.5105
▁अत्याचार	-11.5105
▁શાસક	-11.5106
▁जावड़ेकर	-11.5133
▁ઓસ્ટ્રેલિયા	-11.5133
ଞ	-11.5449
“	-11.6804
\	-12.3081
ऱ	-12.6057
ઞ	-13.199
ૃ	-13.1991
ଙ	-13.1991
