<pad>	0
<s>	0
</s>	0
<unk>	0
<mask>	0
▁nan	-3.50337
,	-3.83581
।	-4.03746
.	-4.33796
▁के	-4.50284
▁	-4.5442
▁में	-4.79654
▁है	-4.83473
▁से	-4.83671
▁की	-4.94585
▁को	-4.97054
-	-5.10056
▁और	-5.13878
_	-5.16913
▁का	-5.30526
▁᱾	-5.38042
▁ᱠᱚ	-5.38048
▁ने	-5.48832
▁ᱨᱮ	-5.59555
▁हैं	-5.61056
▁पर	-5.72714
xlsx	-5.73258
▁છે	-5.77681
▁ᱟᱨ	-5.79839
ी	-5.8176
▁एक	-5.81768
▁ᱨᱮᱭᱟᱜ	-5.82108
▁ना	-5.92241
▁नी	-5.92908
ों	-5.96775
न	-5.98556
▁कि	-6.03142
ं	-6.05142
ा	-6.12623
▁लिए	-6.14535
▁मा	-6.15852
▁ते	-6.17769
mun	-6.21686
▁hi	-6.21804
▁भी	-6.23692
▁ᱫᱚ	-6.25431
▁અને	-6.25644
▁।	-6.25896
▁रे	-6.26636
▁ᱞᱮᱱᱟ	-6.26851
▁आणि	-6.29719
▁हो	-6.29967
માં	-6.3155
ની	-6.34145
▁भारत	-6.34649
क	-6.38979
म	-6.39523
▁आहे	-6.40486
े	-6.40493
ना	-6.41228
ल	-6.41326
▁"	-6.42126
र	-6.42395
▁थी	-6.44631
ના	-6.45778
▁part	-6.49452
त	-6.50827
▁किया	-6.51219
▁कर	-6.52446
)	-6.52585
ता	-6.52865
ला	-6.56305
?	-6.59108
ने	-6.59202
स	-6.60066
▁(	-6.61709
ो	-6.61756
▁ही	-6.62321
ते	-6.62371
▁इस	-6.65381
▁मां	-6.65501
translated	-6.68745
▁या	-6.70259
▁नहीं	-6.7124
_1_	-6.71988
▁ᱠᱟᱱᱟ	-6.74019
ને	-6.74754
▁अने	-6.75942
वा	-6.76049
▁तो	-6.79488
ए	-6.80563
▁था	-6.81971
▁गया	-6.83089
▁ᱞᱟᱹᱜᱤᱫ	-6.83213
व	-6.84027
▁આ	-6.84233
▁न	-6.85146
▁ता	-6.8624
▁ᱦᱩᱭ	-6.89013
sat	-6.90052
▁agriculture	-6.90135
'	-6.93131
▁करने	-6.93907
▁जो	-6.95041
▁ᱦᱚᱲ	-6.96297
य	-6.97165
▁ᱟᱹᱰᱤ	-6.97759
’	-6.98324
को	-6.99706
▁કે	-6.99833
ले	-7.02363
▁साथ	-7.03493
▁रूप	-7.04471
▁માટે	-7.05167
▁नो	-7.05273
▁अन	-7.06053
ह	-7.06224
▁काम	-7.07273
▁रअः	-7.0832
अ	-7.09463
द	-7.09837
▁देश	-7.09842
▁यह	-7.10184
:	-7.1158
▁समय	-7.12033
च्या	-7.12428
ड	-7.1296
▁जा	-7.14231
▁ओड़ोः	-7.15297
▁रहे	-7.15935
।"	-7.16311
▁मैं	-7.192
▁अपने	-7.19664
ली	-7.19716
▁रहा	-7.20085
प	-7.21222
▁बहुत	-7.21871
▁ᱞᱮᱠᱟᱛᱮ	-7.22507
या	-7.23157
ंग	-7.23573
ज	-7.24643
ई	-7.25002
ો	-7.25486
_6	-7.25741
रा	-7.26339
▁ᱮᱥᱮᱨ	-7.26688
▁हम	-7.26998
ट	-7.27017
▁सरकार	-7.27244
▁ᱚᱠᱛᱚ	-7.27546
▁हुए	-7.27803
▁लोगों	-7.28728
रे	-7.28853
નો	-7.29141
▁आप	-7.29565
का	-7.2969
▁तक	-7.29832
▁ᱱᱚᱣᱟ	-7.2987
ः	-7.3031
▁आ	-7.30337
ब	-7.30461
▁-	-7.30528
▁ये	-7.31302
▁दो	-7.31571
and	-7.31901
ग	-7.32015
▁बाद	-7.33432
▁करते	-7.33648
ओ	-7.33699
▁अ	-7.34589
▁वे	-7.34719
▁हारू	-7.35909
થી	-7.36273
ात	-7.36322
▁क्या	-7.36855
▁चि	-7.37406
sheet	-7.37525
▁आज	-7.37606
0_	-7.37698
_3315	-7.38402
disaster	-7.38408
▁final	-7.38415
weather	-7.38431
▁B	-7.38868
▁लोग	-7.39912
▁जी	-7.40177
▁होता	-7.40769
▁क्षेत्र	-7.41816
_2_	-7.41865
▁कहा	-7.42897
▁गए	-7.4354
▁प्रभावित	-7.43916
▁ᱮ	-7.4452
च	-7.45038
▁ᱛᱮ	-7.46915
▁विकास	-7.47111
ती	-7.48246
▁रेअः	-7.48356
▁એક	-7.48552
नी	-7.49138
▁ᱮᱢ	-7.49175
ી	-7.4919
ू	-7.49355
▁जीवन	-7.49733
▁પર	-7.50359
▁थे	-7.50948
▁जाता	-7.51087
▁तरह	-7.51312
आ	-7.51499
री	-7.5207
▁भारतीय	-7.53168
▁ᱨᱮᱱ	-7.53544
▁ᱠᱟᱛᱮ	-7.53678
ु	-7.53995
▁तना	-7.54264
▁हे	-7.54499
નું	-7.54683
▁ᱫᱟᱜ	-7.54752
daily	-7.55368
PCC	-7.55407
output	-7.55407
▁ᱡᱟᱦᱟᱸ	-7.56032
▁ᱠᱷᱚᱱ	-7.56048
चे	-7.56117
▁राज्य	-7.56179
अः	-7.56266
▁ᱠᱟᱹᱢᱤ	-7.56558
कर	-7.57116
એ	-7.57599
▁ᱪᱟᱹᱥᱤ	-7.57776
ि	-7.57911
▁कारण	-7.57956
मा	-7.58025
▁स	-7.58179
▁ᱪᱟᱥ	-7.58247
▁दिया	-7.58387
5	-7.59461
e	-7.59563
ે	-7.60128
▁'	-7.60144
चा	-7.60374
▁ᱠᱚᱣᱟᱜ	-7.60486
▁वह	-7.60518
▁हर	-7.60522
▁ᱦᱚᱸ	-7.6125
▁कई	-7.61277
▁ᱤᱧ	-7.61738
▁हुआ	-7.61956
▁ᱞᱮᱫᱟ	-7.61962
▁होती	-7.62471
▁श्री	-7.62744
▁ᱱᱚᱶᱟ	-7.62777
ण	-7.62885
▁पानी	-7.6295
"	-7.63187
▁करी	-7.63218
▁करवा	-7.63295
ही	-7.64665
લ	-7.64798
▁ᱟᱠᱟᱱᱟ	-7.6499
▁इसके	-7.66028
ित	-7.66484
ᱭ	-7.66542
इ	-7.66623
▁कम	-7.67742
1	-7.67794
▁પણ	-7.67891
▁प्रधानमंत्री	-7.69183
▁गई	-7.69262
्	-7.69575
▁चाहिए	-7.69858
ड़	-7.71311
▁त	-7.71357
▁उन्होंने	-7.71538
▁व	-7.72463
▁?	-7.72566
▁होते	-7.73071
▁कुछ	-7.73165
ર	-7.73869
सा	-7.74275
▁करना	-7.74327
▁किसान	-7.74722
▁19	-7.74823
▁जब	-7.75212
▁ᱠᱷᱟᱹᱛᱤᱨ	-7.75518
k	-7.75819
▁रही	-7.76001
के	-7.76108
▁आहेत	-7.76851
▁बात	-7.76894
गा	-7.77015
▁मेनते	-7.77196
media	-7.77232
▁म	-7.77819
▁કરી	-7.77901
दा	-7.78175
4	-7.78272
▁हुई	-7.78757
▁mass	-7.78907
8_436	-7.78972
ક	-7.7912
श	-7.79273
▁ᱴᱚᱴᱷᱟ	-7.79337
▁ब	-7.79519
वर	-7.80005
▁इन	-7.80674
ન	-7.8135
ें	-7.81776
▁જ	-7.81812
_3_	-7.81867
▁ले	-7.81942
सी	-7.81966
▁ᱡᱮ	-7.81997
गे	-7.82448
▁जिससे	-7.82508
▁मुझे	-7.8345
▁ᱦᱩᱭᱩᱜᱼᱟ	-7.83481
▁તે	-7.84243
▁सभी	-7.84827
!	-7.84969
7	-7.85161
▁विशेष	-7.85213
મ	-7.85606
डी	-7.85855
मध्ये	-7.85883
ᱞ	-7.85953
▁સાથે	-7.86264
ियों	-7.86472
▁क	-7.86581
8	-7.86753
▁मंत्री	-7.87191
s	-7.87315
▁खास	-7.87346
ची	-7.87866
9	-7.87996
▁दे	-7.88134
▁पण	-7.88956
▁ᱢᱤᱫ	-7.89063
▁ᱯᱟᱲᱟᱣ	-7.89106
▁अपनी	-7.8973
▁अधिक	-7.90202
▁दौरान	-7.90384
ᱥ	-7.90418
▁ᱵᱮᱱᱟᱣ	-7.90622
ओं	-7.90768
▁ᱵᱟᱹᱲᱤᱡ	-7.90942
▁ᱵᱟᱝ	-7.91294
▁ᱫᱟᱲᱮᱭᱟᱜᱼᱟ	-7.91395
તા	-7.91635
▁दी	-7.91739
▁ᱢᱮ	-7.92897
▁हा	-7.93069
▁योजना	-7.93436
▁इना	-7.93518
▁ᱟᱠᱟᱫᱟ	-7.93689
▁ह	-7.94414
▁आदिवासी	-7.94516
▁ᱟᱭᱢᱟ	-7.95061
▁वाले	-7.9528
▁एन	-7.95555
▁कोई	-7.9566
ᱟ	-7.96837
▁ᱚᱱᱟ	-7.9687
▁હતું	-7.96927
▁स्वास्थ्य	-7.97139
▁केले	-7.97169
▁6	-7.9796
▁पारंपरिक	-7.97973
▁ए	-7.98082
जी	-7.98536
▁हूँ	-7.98597
▁ᱩᱱᱤ	-7.99159
ᱢ	-7.99215
▁करता	-7.99286
▁दिन	-7.99436
ड़ा	-7.99528
▁ᱟᱨᱡᱟᱣ	-7.99533
ા	-7.99904
ᱱ	-8.00028
▁फसल	-8.00331
i	-8.00422
▁उ	-8.00482
▁सकते	-8.00498
▁ᱵᱟᱹᱲᱛᱤ	-8.00838
▁नि	-8.01257
▁पा	-8.01303
▁लेकिन	-8.01378
▁द्वारा	-8.01549
▁मेरे	-8.01618
वी	-8.01952
▁ग	-8.02043
▁ᱠᱟᱛᱷᱟ	-8.02284
▁वि	-8.02437
▁कार्य	-8.02504
▁गे	-8.02609
▁हमारे	-8.033
▁तथा	-8.03333
▁હતી	-8.03986
▁सु	-8.04401
_30	-8.0443
यो	-8.05182
ઓ	-8.05224
▁घर	-8.05389
▁होने	-8.05512
ख	-8.05643
▁पड़ा	-8.06243
टी	-8.06428
▁कृषि	-8.06434
▁भारी	-8.06659
▁जाते	-8.06772
▁किए	-8.06946
▁सकता	-8.07004
▁समाज	-8.0731
▁ᱢᱤᱫᱴᱟᱝ	-8.07706
▁मोदी	-8.07768
▁ᱜᱮ	-8.08321
▁ᱦᱩᱭᱩᱜ	-8.08334
▁मन	-8.08517
▁इ	-8.0902
▁बा	-8.09283
▁Batch	-8.09458
▁ᱠᱟᱹᱣᱰᱤ	-8.09499
▁वजह	-8.09682
▁જે	-8.09982
▁उपयोग	-8.10184
▁भाग	-8.10555
▁5	-8.10686
▁ᱢᱮᱱᱟᱜᱼᱟ	-8.1071
▁च	-8.1074
▁‘	-8.10751
▁કરવામાં	-8.10759
▁सके	-8.10798
ाच्या	-8.11782
्स	-8.12228
▁पहले	-8.13185
▁लोक	-8.13297
▁ᱧᱟᱢ	-8.13444
▁व्यवस्था	-8.13672
▁प्र	-8.13772
▁खेती	-8.13818
▁मे	-8.13841
▁सेवा	-8.14039
_1	-8.14233
▁अब	-8.14366
▁ᱪᱮᱛᱟᱱ	-8.14421
▁प	-8.14574
▁साल	-8.14637
3	-8.14667
▁कु	-8.1471
▁ओर	-8.14736
▁ᱛᱟᱦᱮᱸ	-8.14912
▁प्रदेश	-8.15018
▁ज	-8.15029
▁તેમણે	-8.15072
ᱴ	-8.15103
2	-8.15663
▁ᱞᱟᱹᱠᱛᱤ	-8.1578
▁8	-8.16096
▁नाम	-8.1624
डा	-8.16416
▁3	-8.1658
▁बे	-8.16636
▁ओ	-8.17024
▁4	-8.17086
ᱨ	-8.17687
वे	-8.17818
▁नाही	-8.18212
▁ᱱᱟᱯᱟᱭ	-8.18241
ति	-8.18334
▁ᱚᱨᱡᱚ	-8.18427
▁ᱪᱮᱫ	-8.18575
फ	-8.18736
ᱼ	-8.19032
्या	-8.19449
ᱠ	-8.19722
से	-8.19761
▁करें	-8.20075
▁बारे	-8.20197
▁उनके	-8.20231
▁उत्पादन	-8.20262
▁केंद्र	-8.20537
June	-8.2057
▁पूरी	-8.20662
बा	-8.20893
वि	-8.21123
▁किसी	-8.21128
लो	-8.2114
▁ᱡᱤᱭᱚᱱ	-8.21162
▁स्थानीय	-8.2139
▁ᱫᱤᱥᱚᱢ	-8.2146
▁.	-8.21493
▁ᱡᱚᱢᱟᱜ	-8.21577
...	-8.21606
▁सा	-8.21681
िक	-8.21685
▁नुकसान	-8.21997
▁ᱟᱢ	-8.22278
▁9	-8.22322
;	-8.22352
▁सोबेन	-8.2254
ᱤ	-8.22721
▁द	-8.22852
दो	-8.22873
▁ᱴᱷᱟᱶ	-8.22916
ळ	-8.22999
उ	-8.23288
▁होगा	-8.23632
▁खेत	-8.2375
ᱹ	-8.23848
▁पास	-8.23955
▁2	-8.23983
िया	-8.24016
▁मी	-8.24099
▁जल	-8.24194
ङ	-8.24484
▁रेन	-8.24672
▁सब	-8.24708
c	-8.24747
▁कार्यक्रम	-8.24805
पी	-8.24926
▁ᱨᱮᱱᱟᱜ	-8.25276
▁ᱚᱡᱮᱛᱮ	-8.25414
▁शिक्षा	-8.25486
▁आर्थिक	-8.25683
ीय	-8.258
6	-8.26127
पे	-8.26359
▁10	-8.26668
▁ଆ	-8.26891
िंग	-8.26955
▁बार	-8.27781
▁आपल्या	-8.28023
▁परिवार	-8.28164
▁उन्हें	-8.28523
▁सी	-8.28552
0	-8.28594
▁सिंह	-8.28802
जा	-8.28898
रो	-8.28944
▁ᱥᱟᱱᱟᱢ	-8.2905
▁હતો	-8.29142
की	-8.29486
▁ᱥᱟᱶᱛᱮ	-8.29507
▁ᱥᱟᱶ	-8.29591
▁तुन	-8.2962
▁र	-8.29771
▁जैसे	-8.29959
▁ᱟᱱᱟᱴ	-8.30161
टा	-8.30534
▁दिसुम	-8.30571
▁एना	-8.31342
▁કરવા	-8.31474
▁किसानों	-8.31907
▁बी	-8.32305
▁यांनी	-8.32493
_4_	-8.32548
▁कजि	-8.3283
▁केदा	-8.33051
▁बन	-8.33227
▁ᱢᱩᱪᱟᱹᱫ	-8.33338
▁दिल्ली	-8.33375
▁वर्ष	-8.33746
▁जे	-8.34065
▁नु	-8.34186
▁हु	-8.34275
▁ᱵᱷᱟᱨᱚᱛ	-8.34383
ed	-8.34415
हा	-8.34468
▁तर	-8.35256
(	-8.3532
▁કહ્યું	-8.35461
▁7	-8.35539
▁આવે	-8.35551
▁होड़ो	-8.35781
▁केली	-8.35799
▁सो	-8.35935
▁ᱟᱹᱛᱩ	-8.36035
▁तन	-8.36096
▁वा	-8.36626
▁ᱨᱮᱠᱚ	-8.36813
▁मंत्रालय	-8.36972
्य	-8.37469
ડ	-8.37734
▁जाती	-8.37747
▁राज	-8.37876
▁मेनअः	-8.38014
▁लगा	-8.38181
▁तीन	-8.38303
▁कमी	-8.38305
▁एवं	-8.38377
▁ला	-8.38538
સ	-8.3873
▁ᱥᱮ	-8.38951
गी	-8.39086
▁वाला	-8.39643
▁हाते	-8.40278
પ	-8.40429
बु	-8.4064
▁वात	-8.40753
▁रिका	-8.41041
▁ᱞᱟᱹᱭ	-8.41555
▁जाने	-8.41905
▁उस	-8.41915
ाने	-8.42114
▁बु	-8.42275
▁ताकि	-8.42489
▁पी	-8.42599
▁त्यांनी	-8.42737
▁जन	-8.42783
▁અ	-8.42969
▁ન	-8.43113
▁ᱦᱚᱭ	-8.4319
ै	-8.4324
▁जाना	-8.43384
▁अपना	-8.43462
▁Madam	-8.43659
▁प्रकार	-8.43724
▁હતા	-8.43741
▁हमें	-8.43843
ंड	-8.4388
▁जगर	-8.44118
▁सबसे	-8.44248
/	-8.44437
कार	-8.44468
▁ᱢᱟᱨᱟᱝ	-8.44647
▁આવી	-8.4501
▁रा	-8.45096
▁18	-8.4517
पा	-8.45266
▁भाषा	-8.45368
વ	-8.45507
▁ᱜᱚᱲᱚ	-8.45582
ત	-8.45628
_5_	-8.4595
▁जना	-8.46166
तो	-8.46235
▁तब	-8.4629
▁पे	-8.46417
▁स्तर	-8.46459
▁केंद्रीय	-8.46598
▁दोनों	-8.46606
દ	-8.46675
▁सेवाओं	-8.46686
▁करोड़	-8.46696
▁राष्ट्रीय	-8.46843
▁हूं	-8.4691
▁तुम	-8.46962
વા	-8.46986
▁ᱧᱮᱞ	-8.47208
▁परिणामस्वरूप	-8.47294
▁अनेक	-8.4737
▁शामिल	-8.47494
▁ई	-8.47619
▁प्रमुख	-8.47736
▁आई	-8.47951
शी	-8.47961
▁|	-8.48154
मी	-8.4828
▁ᱩᱱᱠᱩ	-8.48349
▁1	-8.48398
मे	-8.48447
▁बि	-8.48675
▁मु	-8.48748
▁इनी	-8.48811
▁TO	-8.49244
▁ᱛᱟᱭᱚᱢ	-8.49273
▁देह	-8.49356
▁असल	-8.49395
ᱫ	-8.49823
▁ᱟᱠᱟᱱ	-8.49954
ᱨᱤ	-8.50374
▁स्थिति	-8.50683
▁करे	-8.50784
▁सि	-8.51022
हे	-8.51109
▁15	-8.51186
▁ભારત	-8.51243
▁प्रति	-8.51261
.05.25	-8.51514
▁सर्व	-8.51526
▁खेल	-8.51554
नि	-8.51677
▁તમે	-8.51769
▁तइकेना	-8.51944
द्	-8.52036
▁ख	-8.52085
▁ᱛᱟᱞᱢᱟ	-8.52152
▁भर	-8.52168
▁मंडी	-8.52311
▁Fil	-8.5232
▁દ્વારા	-8.52371
▁उनकी	-8.52379
▁अलग	-8.52456
▁बना	-8.52593
▁ᱟᱱᱟᱜ	-8.52621
नो	-8.53042
▁નથી	-8.53089
▁ᱵᱟᱹᱫᱽ	-8.53712
▁ᱚᱲᱟᱜ	-8.53902
यों	-8.53939
▁રીતે	-8.54073
20	-8.54121
▁पो	-8.54159
▁देने	-8.54431
▁ᱥᱟᱶᱟᱨ	-8.5448
▁ᱦᱟᱛᱟᱣ	-8.54766
▁ल	-8.54835
▁विचार	-8.54838
▁ᱮᱫᱟ	-8.54891
▁शुरू	-8.54945
▁सामाजिक	-8.5519
▁ᱵᱟᱧᱪᱟᱣ	-8.55759
▁मदद	-8.55835
बी	-8.55874
ये	-8.56098
▁नई	-8.56215
ટ	-8.56347
▁(1)	-8.56549
▁सुरक्षा	-8.56582
▁सामान्य	-8.56592
▁Conver	-8.56629
▁ᱮᱱᱟ	-8.56694
▁निर्माण	-8.56842
▁ᱫᱤᱱ	-8.57234
▁प्राप्त	-8.57258
▁दा	-8.57611
▁ᱵᱤᱨᱤᱫ	-8.57619
▁प्रशासन	-8.57682
रि	-8.57896
▁सं	-8.57999
▁आय	-8.58009
▁वाली	-8.58141
ᱨᱟ	-8.58491
▁बीच	-8.58725
▁अन्य	-8.58765
साठी	-8.5884
▁बढ़	-8.59027
▁जारी	-8.59095
▁आया	-8.59194
▁ᱜᱤᱫᱽᱨᱟᱹ	-8.59235
▁ᱥᱟᱭ	-8.59363
▁ᱫᱚᱦᱚ	-8.59486
▁ᱜᱟᱫᱮᱞ	-8.59805
लि	-8.59919
▁गा	-8.59931
▁ᱞᱮᱠᱟᱱ	-8.59965
47	-8.60128
रू	-8.60256
▁ᱛᱷᱟᱯᱚᱱ	-8.60344
▁सुरक्षित	-8.60424
▁ᱥᱮᱪᱮᱫ	-8.60456
a	-8.60498
▁12	-8.60543
दे	-8.60828
▁फिर	-8.61079
જ	-8.61125
ᱞᱤ	-8.61432
▁હું	-8.61476
ᱱᱟ	-8.61767
ᱟᱱ	-8.61807
▁असे	-8.61957
▁बिजली	-8.62028
▁रि	-8.62407
▁मैंने	-8.62412
▁वो	-8.62539
▁लेल	-8.62752
ौ	-8.62771
ᱭᱟ	-8.6294
▁ग्रामीण	-8.62966
▁केला	-8.63473
િત	-8.63506
ांना	-8.63702
जन	-8.63738
▁टीम	-8.63989
ᱰ	-8.64094
थ	-8.64139
▁20	-8.64262
▁इंडिया	-8.64781
▁ᱵᱚᱱᱫᱮᱡ	-8.64803
▁उत्तर	-8.64921
▁16	-8.65036
ड़ी	-8.65058
Auto	-8.65092
▁मो	-8.65175
▁आली	-8.65198
Recover	-8.65316
▁ᱦᱚᱨᱟ	-8.65595
▁ᱟ	-8.65607
▁करण्यासाठी	-8.65642
▁आपदा	-8.65679
▁पुरअः	-8.65695
▁પ્રધાનમંત્રી	-8.65721
▁हमारी	-8.66002
▁એ	-8.66137
▁मिट्टी	-8.66318
ाई	-8.66409
▁पु	-8.66472
▁ᱡᱤᱭᱟᱹᱞᱤ	-8.66569
▁लाभ	-8.66569
▁मुख्य	-8.66624
▁क्षेत्रों	-8.66676
▁आले	-8.66934
43	-8.67083
▁11	-8.67115
ँ	-8.67189
▁कमि	-8.67256
▁बैठक	-8.67468
▁ध्यान	-8.67509
▁उपलब्ध	-8.67957
▁यात्रा	-8.6798
1_	-8.67985
▁इसलिए	-8.68056
▁आयोजन	-8.68139
▁जरूरी	-8.68153
▁लाख	-8.68342
▁आवश्यक	-8.68408
▁ᱡᱚᱠᱷᱚᱱ	-8.68423
▁ᱥᱚᱨᱠᱟᱨ	-8.68633
▁लिया	-8.68687
▁खा	-8.68845
ातील	-8.68857
િ	-8.6898
क्	-8.69002
82	-8.7002
79	-8.70489
▁अम	-8.70975
▁पूरा	-8.71164
ांच्या	-8.71194
લા	-8.71239
71	-8.71426
▁बड़ा	-8.71546
▁उसे	-8.71611
▁अवसर	-8.71706
રી	-8.7177
81	-8.72011
▁बच्चों	-8.72013
ून	-8.72089
ड़ि	-8.72123
ું	-8.72301
83	-8.72358
णी	-8.72372
▁अलावा	-8.72428
74	-8.72759
્	-8.72816
▁अभियान	-8.7313
▁मला	-8.73163
▁गो	-8.73169
▁ખૂબ	-8.73282
▁मिल	-8.73287
▁ક	-8.73374
▁रो	-8.73411
दार	-8.73435
▁ᱠᱚᱣᱟ	-8.73606
ગ	-8.73707
▁ᱦᱟᱞᱚᱛ	-8.74172
▁मौसम	-8.74189
▁मियद्	-8.74208
▁माध्यम	-8.74244
▁करके	-8.74322
पुर	-8.74432
▁प्रभाव	-8.74468
▁ᱡᱟᱦᱟᱸᱛᱮ	-8.74635
▁ᱦᱚᱲᱢᱚ	-8.74653
▁जानकारी	-8.74719
▁लो	-8.74799
ᱥᱤ	-8.74858
▁बदल	-8.74999
ाला	-8.75065
▁प्रदान	-8.75259
▁गु	-8.7531
ણ	-8.75526
ाची	-8.75697
▁जाए	-8.75953
कु	-8.76032
ॅ	-8.76037
▁नेआ	-8.7613
ां	-8.76136
25	-8.76219
ᱯ	-8.76336
▁ली	-8.76349
▁ᱦᱟᱥᱟ	-8.76376
▁તો	-8.76452
▁अगर	-8.76517
▁होड़ोको	-8.76524
▁इनिः	-8.76528
▁21	-8.76549
एं	-8.76705
▁ᱥᱮᱨᱣᱟ	-8.76769
▁राजा	-8.76932
84	-8.7695
▁बो	-8.76965
▁!	-8.77094
▁ᱥᱤ	-8.77111
▁महत्वपूर्ण	-8.77133
यी	-8.77144
▁दिनों	-8.77155
▁आम	-8.77306
92	-8.77545
▁दल	-8.77616
ᱚᱜᱼᱟ	-8.77617
▁ᱟᱵᱚ	-8.77762
▁थाई	-8.77794
▁त्यांच्या	-8.77992
ᱞᱟ	-8.78026
▁दिवस	-8.78035
▁ᱩᱛᱱᱟᱹᱣ	-8.7808
▁ᱥᱮᱨᱢᱟ	-8.78148
▁नवा	-8.78166
▁गांव	-8.78175
▁વધુ	-8.78237
सि	-8.78435
▁કરે	-8.78487
▁करण्यात	-8.78496
▁ᱥᱮᱞᱮᱫ	-8.7862
▁दुनिया	-8.78801
▁17	-8.78827
▁ऐसा	-8.78862
▁શ્રી	-8.78879
▁आपको	-8.79042
▁प्रयास	-8.7914
96	-8.79348
59	-8.79378
▁नदी	-8.79656
▁ᱡᱟᱹᱲᱤ	-8.79739
दी	-8.79786
98	-8.79821
62	-8.79844
व्यस्त	-8.7985
▁आगे	-8.79851
ં	-8.79855
▁दर	-8.7988
▁बंद	-8.80018
▁उन	-8.80058
ठ	-8.80112
यु	-8.8053
▁હોય	-8.8058
o	-8.80637
86	-8.80726
जे	-8.80933
70	-8.81079
▁पंतप्रधान	-8.81137
▁ᱫᱟᱲᱮ	-8.81143
66	-8.81197
▁अद्	-8.81275
▁“	-8.81278
▁થાય	-8.81327
▁संगीत	-8.81331
▁हि	-8.81341
▁ᱴᱚᱴᱷᱟᱠᱤᱭᱟᱹ	-8.81422
▁तैयार	-8.81473
▁अबु	-8.81482
93	-8.8149
▁ᱟᱜ	-8.8155
▁ᱠᱚᱢ	-8.81637
▁जमा	-8.81809
▁गला	-8.8187
50	-8.81922
ल्या	-8.82056
▁बनाने	-8.82203
▁सुविधा	-8.82235
▁Re	-8.82313
▁कल	-8.82338
▁राम	-8.82417
▁अच्छा	-8.82486
▁ଇ	-8.82522
ukun	-8.82584
▁उसके	-8.82648
खा	-8.82662
▁25	-8.82674
91	-8.8277
69	-8.82786
ाचे	-8.82877
▁શકે	-8.83009
▁लेका	-8.83311
89	-8.834
भ	-8.8349
यू	-8.83527
80	-8.83545
▁नें	-8.83552
88	-8.83753
▁भोजन	-8.83774
▁बाजार	-8.84082
▁આપણે	-8.84115
▁पूर्व	-8.84184
▁यहाँ	-8.84189
શ	-8.84242
63	-8.84245
▁दु	-8.84374
▁करा	-8.84404
▁07	-8.84418
ड़े	-8.84475
▁पाणी	-8.84512
87	-8.84536
ᱼᱟ	-8.84541
68	-8.84551
मन	-8.84642
▁શું	-8.84718
▁बचाव	-8.8473
▁કોઈ	-8.84782
▁बइ	-8.84921
97	-8.85044
94	-8.85171
▁ᱮᱴᱟᱜ	-8.85196
▁राहत	-8.85383
▁જોઈએ	-8.85538
प्र	-8.85722
▁बड़ी	-8.85793
कि	-8.85915
▁जगा	-8.85919
▁शहर	-8.86007
61	-8.86009
मो	-8.86022
गु	-8.86088
▁कभी	-8.86209
▁हजार	-8.8633
▁ओम	-8.8637
▁काही	-8.86453
▁ᱜᱮᱭᱟ	-8.86727
▁रंग	-8.8678
▁स्थान	-8.86838
▁त्या	-8.86915
▁भ	-8.86958
▁अस्त	-8.86963
ᱛ	-8.8697
67	-8.86999
▁प्रसिद्ध	-8.87035
▁इद	-8.87036
▁संरक्षण	-8.87049
ावर	-8.87147
टे	-8.87163
ॉ	-8.87209
▁बैंक	-8.87364
ᱨᱮ	-8.87414
▁13	-8.87518
▁कोअः	-8.8758
▁सांस्कृतिक	-8.87997
▁ᱵᱮᱣᱦᱟᱨ	-8.88079
ंस	-8.88135
ाचा	-8.88303
▁ᱠᱚᱨᱟᱣ	-8.88351
75	-8.88371
▁तमु	-8.88405
▁आपण	-8.88417
▁14	-8.88528
डे	-8.88538
▁ᱰᱟᱦᱟᱨ	-8.88564
▁मेनदो	-8.88633
▁चर्चा	-8.88635
y	-8.88655
▁थाय	-8.88958
़	-8.89036
▁सड़क	-8.89131
▁बड़े	-8.89133
▁રહ્યા	-8.89314
▁ठीक	-8.89396
▁आने	-8.89473
▁स्थापित	-8.89536
▁सुधार	-8.89711
46	-8.898
▁તેમના	-8.89819
जो	-8.89862
▁બે	-8.89909
▁વિકાસ	-8.9004
▁होगी	-8.90066
42	-8.90071
नु	-8.90105
णा	-8.90136
▁ती	-8.90174
▁पर्यावरण	-8.90207
▁ᱯᱚᱱᱚᱛ	-8.90222
▁प्रबंधन	-8.90759
▁Sur	-8.90774
▁हमने	-8.90792
▁करती	-8.90801
ય	-8.90814
▁सक्रिय	-8.90909
▁સ	-8.90958
▁विश्व	-8.90971
▁विभिन्न	-8.91001
▁मि	-8.91127
▁पूरे	-8.91139
▁ति	-8.91191
▁જો	-8.91196
ाय	-8.91278
मान	-8.91279
▁सरकारी	-8.91303
10	-8.91349
▁महिला	-8.91392
▁उप	-8.91402
▁ज्या	-8.91428
▁इसे	-8.91432
73	-8.91482
▁कह	-8.91581
▁लेकर	-8.91595
60	-8.91632
▁ऐ	-8.91701
72	-8.9172
56	-8.91772
▁सुनिश्चित	-8.91832
▁ᱠᱷᱩᱛᱤ	-8.91863
ରି	-8.91884
▁केवल	-8.92013
બ	-8.92205
▁देखा	-8.92262
49	-8.92342
19	-8.92419
▁यो	-8.92519
▁अनुसार	-8.92553
चि	-8.92577
▁HINDI	-8.9267
▁તેમ	-8.92712
स्	-8.92758
▁आता	-8.92867
76	-8.92942
▁आधार	-8.9305
▁ᱰᱷᱮᱨ	-8.93091
▁सर	-8.93184
00	-8.9323
▁मान	-8.93231
ᱤᱭᱟᱹ	-8.93273
▁ऐसे	-8.93322
▁सदस्य	-8.93339
ंद	-8.93416
▁થઈ	-8.93455
▁संस्कृति	-8.93521
▁सही	-8.93589
▁मंदिर	-8.93611
▁देख	-8.93645
▁कना	-8.93866
▁पि	-8.9389
▁ᱠᱮᱫᱟ	-8.93922
p	-8.94021
▁26	-8.94179
▁જ્યારે	-8.94208
▁भूमिका	-8.94254
▁ᱯᱩᱨᱟᱹᱯᱩᱨᱤ	-8.94304
▁24	-8.94364
▁डिजिटल	-8.94407
48	-8.94549
52	-8.94549
▁ᱪᱟᱞᱟᱣ	-8.9463
▁गाँव	-8.94761
▁श	-8.9477
▁30	-8.94951
त्र	-8.94965
77	-8.95029
िन	-8.95116
दु	-8.95169
गो	-8.95237
▁बस	-8.9528
▁म्हणाले	-8.9529
▁ᱵᱟᱡᱟᱨ	-8.95387
▁करू	-8.95434
▁समुदाय	-8.95452
ତା	-8.95587
▁सांगितले	-8.95675
▁प्रत्येक	-8.95723
90	-8.95809
▁પરંતુ	-8.9582
▁री	-8.95954
▁ओड़ो	-8.96004
▁अनुभव	-8.96014
44	-8.96024
78	-8.96054
▁जाय	-8.9617
▁दिशा	-8.96182
र्	-8.96191
99	-8.96244
▁घणी	-8.96276
▁यी	-8.96335
ᱧ	-8.9639
▁आयोजित	-8.96416
ଆ	-8.96425
41	-8.96475
ଇ	-8.96479
▁चलते	-8.96639
ડી	-8.96767
45	-8.96799
▁ᱯᱨᱚᱥᱟᱥᱚᱱ	-8.96802
जना	-8.96911
▁गीत	-8.97057
▁ଏ	-8.97075
▁ᱵᱤᱡᱽᱞᱤ	-8.97082
▁वापर	-8.97146
▁होबा	-8.97198
▁हमारा	-8.97219
▁02.05.25	-8.97277
▁अंत	-8.9731
▁કર્યો	-8.97312
झ	-8.9736
▁તેઓ	-8.97379
मुळे	-8.97402
▁ᱟᱠᱚᱣᱟᱜ	-8.9746
▁जि	-8.97536
ᱣ	-8.97698
▁उपर	-8.9782
53	-8.98009
55	-8.98148
▁नृत्य	-8.98155
▁છો	-8.98222
तन	-8.983
રા	-8.98348
્યા	-8.98366
m	-8.98466
▁मजबूत	-8.98694
▁કામ	-8.98701
▁છું	-8.98928
▁तह	-8.99037
▁नेअः	-8.99055
ंट	-8.99247
ᱡ	-8.99387
▁ᱜᱷᱟᱨᱚᱸᱡᱽ	-8.99422
▁ᱴᱷᱮᱱ	-8.99505
▁तहत	-8.99546
correct	-8.99638
ର	-8.99652
▁સુધી	-8.99876
▁उनका	-9.00013
ᱮ	-9.00018
▁भाई	-9.00108
▁करो	-9.00209
51	-9.00212
▁यू	-9.0024
54	-9.00257
▁विज्ञान	-9.00264
▁बढ़ावा	-9.00333
▁कोरे	-9.00522
▁चार	-9.00537
कन	-9.0054
▁संबंध	-9.00594
दि	-9.00595
13	-9.00695
▁इसु	-9.00719
▁चला	-9.00845
ᱟᱜ	-9.01023
ध	-9.01055
85	-9.01077
18	-9.01153
િક	-9.0121
ंज	-9.01222
▁चल	-9.01237
▁तंग	-9.01259
ળ	-9.01268
ियो	-9.01297
ासाठी	-9.01337
▁किंवा	-9.01363
▁आपातकालीन	-9.01392
यर	-9.01456
▁50	-9.01708
तना	-9.01713
▁विश्वास	-9.0181
▁‘‘	-9.01888
▁नम	-9.01983
ᱱᱤ	-9.0202
ᱚᱜ	-9.02156
▁कला	-9.02384
ુ	-9.02522
16	-9.02612
95	-9.02643
40	-9.02668
▁કર્યું	-9.02694
30	-9.02712
▁सहयोग	-9.02867
58	-9.02948
▁एम	-9.03017
ૂ	-9.03069
▁તરીકે	-9.03089
12	-9.03222
મા	-9.03222
एम	-9.03245
मि	-9.03312
▁जदा	-9.03429
▁म्हणून	-9.0359
ᱜ	-9.03592
▁ᱪᱟᱯ	-9.03593
▁મને	-9.03601
▁आयता	-9.03615
▁अद	-9.03718
स्ट	-9.03723
▁ᱢᱮᱱᱠᱷᱟᱱ	-9.04062
▁खेतों	-9.041
17	-9.04159
▁सामना	-9.04191
▁अनें	-9.04254
▁रुपये	-9.04471
▁मध्ये	-9.04771
▁घ	-9.04772
▁फेर	-9.04773
57	-9.05044
▁ᱯᱮ	-9.0509
▁S	-9.05108
▁तनअः	-9.05132
▁बल	-9.05168
▁निर्णय	-9.05257
▁करेंगे	-9.05328
▁देते	-9.05378
▁culture	-9.05469
▁दन	-9.05529
▁नए	-9.05601
▁जिला	-9.05701
▁तिना	-9.05758
▁लि	-9.05792
▁आपुना	-9.05829
▁नवी	-9.05883
▁ભારતીય	-9.05995
▁લોકો	-9.06115
▁राष्ट्र	-9.06144
▁विभाग	-9.06149
टि	-9.06291
8_3	-9.06472
▁ऊर्जा	-9.06483
▁बनाए	-9.06509
▁બ	-9.0656
11	-9.06612
14	-9.06638
सोर	-9.06663
15	-9.06688
▁नां	-9.06745
ᱡᱤ	-9.06804
▁हुं	-9.06885
▁तुम्ही	-9.07022
▁व्यापार	-9.07078
▁सकती	-9.07157
बे	-9.07158
▁ᱥᱮᱴᱮᱨ	-9.07264
▁ᱩᱭᱦᱟᱹᱨ	-9.07292
▁धर्म	-9.07372
▁इनकु	-9.07469
ोर	-9.07502
july	-9.07545
तु	-9.07581
23	-9.07686
शा	-9.07986
▁ના	-9.08028
▁होही	-9.08078
▁आदि	-9.08174
▁पशुपालन	-9.08251
▁स्कूल	-9.08291
▁छे	-9.08308
▁ᱜᱟᱹᱦᱤᱨ	-9.08325
▁મ	-9.08394
▁ᱟᱹᱨᱤ	-9.08521
▁वाळा	-9.08523
▁फलस्वरूप	-9.08526
▁जगह	-9.0859
▁मध्य	-9.08594
▁सम	-9.086
▁उद्योग	-9.08645
▁कौन	-9.08673
જી	-9.08833
▁जोवे	-9.0884
▁–	-9.08852
▁प्रशिक्षण	-9.0891
▁चा	-9.08957
ांची	-9.08998
▁जिसमें	-9.09151
▁योगदान	-9.09172
ᱝ	-9.09395
▁संबंधित	-9.09421
21	-9.09481
▁ᱠᱟᱱ	-9.09512
▁ᱮᱛᱚᱦᱚᱵ	-9.09517
वार	-9.09567
”	-9.09626
▁बने	-9.09647
ार	-9.09696
▁फिल्म	-9.09705
▁कन	-9.09739
▁नवीन	-9.0976
▁आंद	-9.09761
લી	-9.09874
▁बाहर	-9.09937
64	-9.0994
▁योग	-9.10144
sv	-9.10241
ष	-9.10336
▁जनजातीय	-9.10364
▁मानेय	-9.10439
33	-9.10479
સી	-9.10511
णे	-9.10598
▁PM	-9.10789
▁गुजरात	-9.10792
▁धन	-9.10801
र्स	-9.10803
▁एस	-9.10914
▁आर	-9.1102
▁गांधी	-9.11156
▁આપણા	-9.1121
▁अर्थव्यवस्था	-9.11341
▁युवा	-9.11406
▁कदम	-9.11414
32	-9.11451
▁ᱚ	-9.11495
▁આજે	-9.11545
22	-9.11599
t	-9.11604
24	-9.11623
▁ᱢᱩᱲᱩᱫ	-9.11642
▁रोजगार	-9.11681
▁मानसिक	-9.11814
▁सचिव	-9.11868
▁एर्र	-9.11943
વી	-9.12147
▁मर	-9.12217
ટી	-9.12234
ुं	-9.12273
28	-9.12329
▁રહી	-9.12399
▁लगभग	-9.12436
्‍	-9.12597
तर	-9.12673
▁करून	-9.12693
बल	-9.12722
एस	-9.13017
▁देता	-9.13033
ଃ	-9.13037
▁खर्च	-9.13317
मु	-9.13351
▁ᱦᱟᱡᱟᱨ	-9.13391
▁ઉપયોગ	-9.13434
26	-9.13496
▁सुरू	-9.13588
36	-9.13596
▁होंगे	-9.13628
65	-9.13645
▁क्योंकि	-9.13647
्र	-9.13655
▁પછી	-9.13774
▁उसने	-9.13785
ବା	-9.13785
▁देना	-9.13802
▁किस	-9.13822
ᱛᱮ	-9.13879
सु	-9.13882
ᱴᱤ	-9.13965
ांनी	-9.14091
▁बीज	-9.14195
▁आदमी	-9.14399
▁ᱵᱟᱰᱟᱭ	-9.1442
હ	-9.14469
▁मदत	-9.1453
▁ᱥᱚᱫᱚᱨ	-9.14606
ା	-9.14662
▁ᱫᱷᱟᱹᱵᱤᱡ	-9.14702
ᱛᱤ	-9.14752
एः	-9.14828
▁जोर	-9.14845
▁बता	-9.14903
▁सिंचाई	-9.14916
▁75	-9.14931
କା	-9.14939
al	-9.1505
डो	-9.15311
▁पता	-9.15336
▁मिशन	-9.15357
ियां	-9.15408
▁ध	-9.15416
▁खुद	-9.15427
▁दूर	-9.15459
पु	-9.15522
एँ	-9.15624
▁વર્ષ	-9.15702
▁हिजुः	-9.15842
▁हवा	-9.15947
्यू	-9.16124
ઝ	-9.16177
▁संख्या	-9.16268
tali	-9.16288
▁ᱡᱟᱹᱨᱩᱲᱟᱱ	-9.16297
▁स्थानों	-9.16355
▁मेरी	-9.16502
घ	-9.16586
▁u	-9.16655
ରା	-9.1667
द्ध	-9.1677
29	-9.16773
▁यदि	-9.16883
▁खाद	-9.16898
▁Sheet	-9.16913
▁बोल	-9.16923
ज़	-9.16937
▁आपके	-9.17039
▁टो	-9.17115
▁अधिकार	-9.17135
▁ᱪᱟᱞᱟᱜ	-9.17145
▁अपे	-9.17173
▁ᱢᱚᱱᱮ	-9.17178
ीन	-9.17247
ांमध्ये	-9.17252
▁ᱟᱡ	-9.17257
▁ट	-9.173
▁ᱢᱚᱱᱛᱨᱤ	-9.17421
▁अतिरिक्त	-9.17439
छ	-9.1761
ळा	-9.17733
ନା	-9.17749
▁તેમને	-9.1775
वो	-9.17863
27	-9.1789
र्र	-9.17925
▁असर	-9.18111
▁सेना	-9.1813
डि	-9.18157
▁बेहतर	-9.18218
▁કરીને	-9.18239
r	-9.18244
▁आते	-9.18322
▁जरूरत	-9.18425
▁लागू	-9.1843
▁आधारित	-9.18519
▁हमु	-9.18538
▁तेर	-9.18591
▁ᱨᱩᱣᱟᱹᱲ	-9.18624
▁मानव	-9.18646
▁ᱛᱟᱦᱮᱱᱟ	-9.18684
ीकरण	-9.18685
_20	-9.18732
▁विकसित	-9.18866
▁आधुनिक	-9.19054
ाना	-9.19201
▁अच्छी	-9.19313
▁कैसे	-9.1934
▁बंगाल	-9.19399
er	-9.19414
▁અથવા	-9.19496
▁खिलाफ	-9.19498
▁डॉ	-9.195
▁मेरा	-9.19564
▁ᱨᱩᱠᱷᱤᱭᱟᱹ	-9.19578
▁कै	-9.19589
▁ᱟᱹᱥᱩᱞ	-9.19605
▁संग	-9.19609
▁ᱚᱛ	-9.19751
▁शिकार	-9.19756
▁जु	-9.19871
▁ભાગ	-9.19939
ाव	-9.19941
लु	-9.20042
न्द	-9.20136
▁पूजा	-9.20147
▁यांच्या	-9.20244
▁ᱠᱟᱹᱢᱤᱦᱚᱨᱟ	-9.20397
▁हिस्सा	-9.20417
34	-9.20421
▁करत	-9.2052
▁होन	-9.20535
▁भूमि	-9.20584
▁वर्ग	-9.20634
31	-9.20635
▁उच्च	-9.20815
ᱸ	-9.20952
▁તેને	-9.20961
▁ᱫᱟᱨᱮ	-9.20981
▁भाव	-9.21067
▁ड	-9.2107
35	-9.21089
્સ	-9.21089
▁दक्षिण	-9.21095
u	-9.21146
▁ᱡᱟᱹᱥᱛᱤ	-9.21243
आर	-9.21265
્ય	-9.21343
વું	-9.21389
▁अव	-9.21416
एन	-9.21442
▁क्षमता	-9.21472
ᱵᱟ	-9.21486
क्ष	-9.21489
ᱢᱟ	-9.21519
▁सहायता	-9.21522
जि	-9.21547
▁लेकाते	-9.2157
▁घणा	-9.21632
▁दूसरे	-9.21752
▁ज्यादा	-9.21767
▁परिवहन	-9.21867
▁पूर्ण	-9.21925
▁डी	-9.21984
▁बताया	-9.22112
▁ᱦᱮᱡ	-9.22187
37	-9.22401
▁स्थित	-9.22416
▁कुल	-9.22477
▁सिदा	-9.22535
▁ᱜᱚᱴᱟ	-9.22572
38	-9.22598
▁ᱢᱟ	-9.22675
▁पालन	-9.22701
आई	-9.22823
ing	-9.22827
▁मूल्य	-9.22954
▁मिलता	-9.23008
▁जान	-9.23058
39	-9.23131
▁साफ	-9.23262
▁अधिकारी	-9.2335
▁माझ्या	-9.23381
▁अभी	-9.23508
▁ᱞᱟᱹᱞᱤᱥ	-9.23516
केदा	-9.23677
▁केदू	-9.2371
▁छ	-9.23734
▁ᱛᱷᱟᱨ	-9.23749
▁ᱢᱮᱱ	-9.23811
▁आम्ही	-9.23827
▁सिरमा	-9.23857
हर	-9.23908
ᱵ	-9.2393
▁याद	-9.23955
▁नतीजतन	-9.23997
▁ᱛᱮᱦᱮᱧ	-9.24061
▁बदा	-9.24077
स्त	-9.24133
▁उत्सव	-9.24275
▁मोटा	-9.24298
▁ताकत	-9.24414
▁रक्षा	-9.24455
▁मांग	-9.24536
િંગ	-9.24598
▁प्रयोग	-9.24609
▁पसंद	-9.24644
▁ᱥᱟᱹᱜᱩᱱ	-9.2466
▁बारा	-9.24687
▁06.05.2	-9.24737
▁भा	-9.25005
▁चेतावनी	-9.25026
▁आल	-9.25042
▁रेलवे	-9.25056
▁प्रणाली	-9.25349
▁वन	-9.25408
▁महत्व	-9.2541
ઇ	-9.25485
ᱛᱟ	-9.25496
▁कांग्रेस	-9.25501
▁टी	-9.25541
ंना	-9.25579
ફ	-9.25615
▁सोच	-9.25751
▁ᱜᱚᱱᱚᱝ	-9.25826
▁हवाई	-9.25874
▁ᱟᱭ	-9.25903
▁ᱥᱮᱨᱮᱧ	-9.25934
ંગ	-9.25952
▁ᱮᱱᱠᱷᱟᱱ	-9.26086
▁ᱥᱟᱶᱛᱟ	-9.26124
▁नीति	-9.26215
ଏ	-9.26354
▁बहाल	-9.26371
▁सौ	-9.26437
ଡ଼ି	-9.2648
▁ચ	-9.26525
▁ᱦᱳᱭᱳᱜᱼᱟ	-9.26698
▁ᱠᱟ	-9.26795
▁अंतर्गत	-9.26816
▁ᱯᱨᱚᱥᱟᱥᱚᱱᱤᱠ	-9.26834
▁विषय	-9.26959
थी	-9.27038
▁पार्टी	-9.27051
▁स्	-9.27072
यता	-9.27146
▁नेता	-9.27158
ᱠᱟ	-9.27328
रु	-9.27368
सं	-9.27441
▁विविधता	-9.2754
सो	-9.27542
ᱯᱷ	-9.27633
▁इं	-9.27668
▁सूची	-9.27734
िय	-9.27734
▁चुनाव	-9.27772
▁कार्यों	-9.2779
▁एका	-9.27835
ांचा	-9.27904
ओः	-9.27968
▁लेना	-9.28002
▁તમામ	-9.28087
▁खूप	-9.28087
हु	-9.28107
▁ᱧᱟᱢᱚᱜᱼᱟ	-9.28116
ियाँ	-9.28213
शन	-9.2824
▁અન્ય	-9.28311
▁त्यांना	-9.28382
01	-9.28423
▁फ	-9.28451
▁अध्यक्ष	-9.28473
▁केआते	-9.2848
ાય	-9.28612
▁Revised	-9.28872
▁હ	-9.28928
▁लोः	-9.28958
▁बुगिन	-9.28978
▁ᱯᱟᱹᱨᱥᱤ	-9.29091
▁वाढ	-9.29201
▁महा	-9.29242
S	-9.29251
तील	-9.29259
वु	-9.29351
न्	-9.29353
▁22	-9.29442
▁गुणवत्ता	-9.29496
▁ᱟᱞᱮ	-9.29602
क्स	-9.29667
▁राज्यों	-9.29723
▁डो	-9.29762
ंत	-9.29765
▁आपडा	-9.29777
▁KI	-9.29814
rgent	-9.29992
▁BAAT	-9.29992
▁चाल	-9.30072
▁देव	-9.30141
ण्यासाठी	-9.30228
▁ᱵᱟᱨ	-9.30258
▁પ	-9.30272
वीं	-9.30318
▁प्रतिशत	-9.30423
▁ᱟᱨᱦᱚᱸ	-9.30425
▁मार	-9.30508
_11	-9.30557
▁ᱱᱟᱶᱟ	-9.30663
▁पंजाब	-9.30696
▁झ	-9.30759
▁मंद	-9.30772
_21	-9.3086
तोर	-9.3087
▁40	-9.30946
▁जात	-9.31075
ᱳ	-9.31142
▁रह	-9.31157
▁ᱡᱮᱜᱮᱫ	-9.31199
ସା	-9.31215
▁ᱡᱚᱛᱚ	-9.31221
लेल्या	-9.3125
▁प्रक्रिया	-9.31291
▁सकें	-9.31296
▁આવ્યું	-9.31337
▁पक्ष	-9.31339
᱾	-9.31365
▁नू	-9.31416
▁बच्चे	-9.31543
▁कुमार	-9.31614
▁दि	-9.31616
▁जांच	-9.31667
▁इतर	-9.31767
▁કરો	-9.31776
,000	-9.3178
▁उदाहरण	-9.31886
n	-9.31949
Sheet	-9.31968
06	-9.31981
_22	-9.31995
ᱥᱟ	-9.3209
ंचा	-9.32108
ᱰᱤ	-9.32113
वन	-9.32116
▁ᱞᱟᱜᱟᱣ	-9.3212
▁इसी	-9.32126
▁ᱵᱤᱥᱮᱥ	-9.32128
▁100	-9.32137
िका	-9.32181
▁गहराई	-9.32196
▁मिला	-9.32216
▁जहाँ	-9.32239
▁डे	-9.32324
▁शाह	-9.32415
ंक	-9.32452
ᱨᱚ	-9.32456
▁प्रशासनिक	-9.325
▁आनंद	-9.32505
▁संघ	-9.32519
यतोर	-9.3252
▁नेअ	-9.32555
▁जाति	-9.32724
▁ᱥᱟ	-9.32735
▁ᱦᱟᱲᱟᱢ	-9.32746
▁माहिती	-9.32757
ନି	-9.3278
▁हल	-9.3279
▁पार	-9.32834
▁दिले	-9.32837
▁કેન્દ્રીય	-9.32843
_27	-9.32857
_26	-9.3298
टर	-9.32995
ᱭᱟᱜ	-9.32997
▁Episode	-9.33025
▁बारिश	-9.33031
▁ભ	-9.33035
▁नों	-9.33037
▁हता	-9.33055
▁અમે	-9.33105
▁इतिहास	-9.33167
▁पुलिस	-9.33172
▁ᱞᱚᱞᱚ	-9.33307
▁to	-9.33315
▁गि	-9.33337
▁शक्ति	-9.33441
ନେ	-9.33446
▁भगवान	-9.3345
▁मुख्यमंत्री	-9.33455
▁कंपनी	-9.3347
▁Mala	-9.3354
_25	-9.33548
▁आपूर्ति	-9.33634
_28	-9.33711
▁ઉપરાંત	-9.33728
▁परिणाम	-9.33775
▁ऊपर	-9.3383
08	-9.33857
ञ	-9.33871
ોને	-9.33911
_32	-9.3392
▁निवेश	-9.3397
▁मत	-9.33972
_31	-9.34176
▁गरीब	-9.34278
ᱡᱽ	-9.34287
▁वी	-9.34312
▁योग्य	-9.34331
▁देशों	-9.34363
▁પોતાના	-9.34417
▁इसका	-9.34544
▁अइङ	-9.34565
▁सामूहिक	-9.34601
इङ	-9.34606
▁केन्द्रीय	-9.34608
▁पद	-9.34668
डु	-9.34702
▁વ	-9.34754
▁पाकिस्तान	-9.34818
▁કો	-9.3488
▁बदलाव	-9.34929
▁ᱥᱟᱵᱷᱟᱵᱤᱠ	-9.35052
▁लगे	-9.35069
त्	-9.35089
▁केदु	-9.35207
▁27	-9.35212
▁गाय	-9.35276
▁સા	-9.35454
04	-9.35532
_12	-9.35551
▁तइना	-9.35606
ନୁ	-9.35633
▁विविध	-9.3572
▁इससे	-9.35745
हो	-9.35764
_33	-9.35796
▁तु	-9.35817
▁काल	-9.35869
▁પરંપરાગત	-9.35889
▁आलवा	-9.3589
▁शिविर	-9.35988
▁बर	-9.36029
▁संस्था	-9.36049
▁रोग	-9.3605
09	-9.3614
▁आवश्यकता	-9.36206
▁डि	-9.36208
बो	-9.3621
▁ᱱᱤᱨᱟᱹᱭ	-9.36226
▁तिसिङ	-9.36324
▁रात	-9.36342
▁मिलती	-9.36356
ખ	-9.36512
▁23	-9.36593
▁જણાવ્યું	-9.36613
▁मोबाइल	-9.36825
▁चाहता	-9.36854
▁छत्तीसगढ़	-9.36855
▁बाटा	-9.36941
02	-9.36999
▁तरफ	-9.3709
▁संयुक्त	-9.37104
▁जाएगा	-9.3715
▁लाल	-9.37184
▁कुबैय	-9.37218
ᱚᱱ	-9.37233
▁मिले	-9.37236
ᱣᱟ	-9.37245
▁छोटे	-9.37252
▁ᱥᱟᱞᱟᱜ	-9.37252
ચ	-9.37278
▁ᱞᱟᱹᱠᱛᱤᱭᱟᱱ	-9.37352
ᱠᱚ	-9.37387
▁છીએ	-9.3739
ᱟᱡᱟᱜ	-9.37395
▁ઉ	-9.37408
▁નવી	-9.3745
▁सें	-9.37484
%	-9.37584
▁सेनोः	-9.37633
▁ᱵᱮᱯᱟᱨ	-9.37671
_34	-9.37683
▁अबुअः	-9.37732
▁कृपया	-9.37779
▁वाट	-9.37838
ेल	-9.37845
▁अप	-9.38086
_13	-9.38088
▁हारूं	-9.38109
टो	-9.3819
▁ज्ञान	-9.38198
▁दावा	-9.38429
्यु	-9.38471
▁नरेंद्र	-9.38493
ra	-9.38521
▁रखने	-9.3869
▁वहाँ	-9.38719
ंगा	-9.38842
᱖	-9.38851
▁उसकी	-9.38879
▁આપી	-9.38935
र्ड	-9.38948
sentences	-9.38974
▁अर	-9.3898
▁बाल	-9.38984
-20	-9.38998
▁महाराष्ट्र	-9.39077
▁बनाया	-9.39121
ડા	-9.39166
_35	-9.39213
_10	-9.39256
▁हाथ	-9.39266
▁यु	-9.39275
▁ᱱᱤᱛᱚᱜ	-9.39386
025	-9.39416
▁70	-9.39468
▁संकल्प	-9.39509
▁जन्म	-9.39519
▁ବେ	-9.3957
▁Conv	-9.39571
आः	-9.39577
्क	-9.3968
▁पिछले	-9.39708
▁indian	-9.39731
▁ᱛᱟᱦᱮᱸᱫ	-9.39851
▁ग्राम	-9.39863
▁इदि	-9.39885
▁आस	-9.39933
ांचे	-9.3994
states	-9.3998
_2000_	-9.40035
▁ᱡᱳᱨ	-9.40115
पि	-9.40146
▁नागरिक	-9.40162
▁सीमा	-9.40184
सन	-9.40207
_40	-9.40332
_39	-9.40402
▁मुण्डा	-9.40467
ોમાં	-9.40469
▁कानून	-9.40493
▁रुक	-9.4053
▁યોજના	-9.40627
▁મારા	-9.40632
▁डा	-9.40666
▁जैविक	-9.40767
▁व्यक्ति	-9.40776
▁60	-9.40786
▁आपड़ा	-9.40856
_14	-9.40959
▁31	-9.40962
_06	-9.40976
_15	-9.40977
_04	-9.40984
▁દિવસ	-9.41028
_37	-9.41046
▁मूल	-9.41051
▁नंबर	-9.41081
▁ᱠᱚᱨᱮ	-9.41083
▁बुरी	-9.41131
▁समझ	-9.41225
କି	-9.41445
_16	-9.41446
03	-9.41515
▁ᱵᱚᱱᱫᱚ	-9.41579
▁खाना	-9.41594
▁व्यंजन	-9.41696
▁रहती	-9.41708
_01	-9.41743
▁माट	-9.41822
यां	-9.41825
▁ᱱᱟᱦᱟᱜ	-9.41926
ଙ୍ଗା	-9.42042
पर	-9.42077
▁पड़	-9.4208
▁पश्चिम	-9.42082
▁जय	-9.42108
▁अंततः	-9.42108
▁ᱟᱵᱚᱣᱟᱜ	-9.42133
_02	-9.42171
_08	-9.42212
▁कदा	-9.42219
पो	-9.42248
▁प्रयत्न	-9.42308
बर	-9.42325
▁खेतर	-9.42335
▁नन्ना	-9.42361
તી	-9.42378
▁संविधान	-9.42436
म्	-9.42469
▁मै	-9.4248
▁बणावा	-9.42611
▁भावना	-9.42668
_17	-9.42749
▁बनी	-9.42861
▁ᱞᱮ	-9.42911
▁पहल	-9.42911
िस	-9.42937
▁नेटवर्क	-9.4295
▁बढ़ाया	-9.42978
માંથી	-9.43031
ान	-9.43075
ळी	-9.43108
▁जिस	-9.43122
▁लोकप्रिय	-9.43182
▁केन्द्र	-9.43237
▁ᱡᱩᱫᱤ	-9.43314
▁प्रदर्शन	-9.43314
_19	-9.43365
▁प्रतिकूल	-9.43419
रण	-9.43424
▁ᱥᱟᱫᱷᱟᱨᱚᱱ	-9.43441
▁तयार	-9.43544
▁परंतु	-9.43572
▁ᱥ	-9.436
▁ᱟᱹᱫᱤᱵᱟᱹᱥᱤ	-9.43622
▁ज़्यादा	-9.43648
लू	-9.43649
▁हमेशा	-9.43675
दर	-9.43703
▁ᱥᱮᱵᱟ	-9.43707
राज	-9.44018
▁ᱢᱟᱦᱟ	-9.44141
ᱯᱤ	-9.44265
▁पै	-9.44267
▁समान	-9.44287
_07	-9.44432
▁उन्द	-9.44465
ऊ	-9.44476
ढ	-9.44479
▁करणे	-9.44509
on	-9.4451
▁चे	-9.44579
▁ᱵᱤᱨᱫᱟᱹᱜᱟᱲ	-9.44639
▁ᱞᱮᱫᱟᱭ	-9.44726
▁१	-9.44807
▁ᱩᱱ	-9.44902
_18	-9.44982
▁नया	-9.44992
▁तनाव	-9.45102
िल	-9.4511
▁स्वच्छता	-9.4511
साथ	-9.45138
▁शहरी	-9.45165
▁लिये	-9.45186
07	-9.45228
▁बिहार	-9.45265
▁पहचान	-9.4527
▁આવ્યા	-9.45296
▁દરેક	-9.45349
▁टेम	-9.45424
▁28	-9.45472
्यो	-9.45604
▁ᱩᱱᱠᱩᱣᱟᱜ	-9.45672
▁उपस्थित	-9.45747
▁झाले	-9.45773
્યો	-9.45792
रिया	-9.45872
ᱟᱭ	-9.45906
▁ବା	-9.45909
▁ᱛᱟᱦᱮᱱ	-9.45995
▁दिला	-9.46014
▁SM	-9.46101
▁પ્ર	-9.46176
▁जीत	-9.46188
▁आए	-9.46205
▁ओको	-9.4623
▁प्राकृतिक	-9.46345
▁दूध	-9.46418
▁मिलकर	-9.46491
ᱢᱤ	-9.46544
▁पड	-9.46586
b	-9.46614
▁ᱵᱟ	-9.46708
▁बढ़ा	-9.46771
▁गये	-9.46871
नाथ	-9.4692
▁स्रोत	-9.46931
▁तेज़	-9.46974
▁मोटी	-9.47096
▁स्वतंत्रता	-9.47183
▁भू	-9.47238
▁વિ	-9.47248
ધ	-9.4725
र्ट	-9.47283
▁फोन	-9.4732
▁ત્યારે	-9.47348
▁परिवर्तन	-9.47376
▁શરૂ	-9.47404
▁ᱡᱚ	-9.4742
▁लागत	-9.47502
▁जनजाति	-9.4757
▁देखने	-9.47575
▁नियम	-9.47656
▁खरीद	-9.47775
ण्ड	-9.47814
▁समर्थन	-9.47827
▁ऐक	-9.47929
▁વાત	-9.4795
᱑	-9.48021
▁तेजी	-9.48066
▁ᱡᱚᱜᱟᱣ	-9.48078
▁स्थापना	-9.48115
થ	-9.48153
▁भुगतान	-9.48159
सर	-9.48209
▁દરમિયાન	-9.48213
▁जिले	-9.48227
▁આપવામાં	-9.48252
05	-9.4832
▁ᱥᱟᱨ	-9.48327
▁जीव	-9.48342
▁તેના	-9.48347
▁लंबा	-9.48461
▁आपने	-9.48552
ଗା	-9.48664
▁लिख	-9.487
▁हतो	-9.48715
▁सुबह	-9.48717
▁जहां	-9.48821
▁ᱯᱚᱨᱤᱥᱮᱵᱟ	-9.48895
▁रू	-9.48911
वू	-9.48912
ର୍	-9.48922
▁एटअः	-9.48928
પી	-9.48976
▁वर	-9.49016
पासून	-9.49024
▁बाढ़	-9.49114
▁घटना	-9.49179
▁रोज	-9.4918
▁अइञ	-9.49191
▁महिलाओं	-9.49207
▁लाग	-9.49222
धा	-9.49229
हार	-9.49414
▁MAN	-9.49418
▁रहते	-9.49435
▁गंभीर	-9.49498
▁लाव	-9.49569
▁बढ़ाने	-9.4961
▁असा	-9.4964
▁સમય	-9.49674
▁ऊ	-9.49711
ઠ	-9.49753
▁पत्र	-9.49769
▁पारंपारिक	-9.49823
▁નહીં	-9.49828
▁छोड़	-9.49898
▁आपडी	-9.49932
▁संदेश	-9.50036
▁ᱥᱤᱜᱤᱞ	-9.5008
▁माता	-9.50089
▁खाली	-9.50141
▁ᱢᱚ	-9.50145
▁સૌથી	-9.50238
▁ᱴᱷᱟᱹᱣᱠᱟᱹ	-9.50243
हि	-9.5039
▁વચ્ચે	-9.5041
▁रहता	-9.5042
▁रहने	-9.50456
▁ଗା	-9.50617
નાં	-9.50648
श्	-9.50656
▁मौके	-9.50657
▁काय	-9.50716
કાર	-9.5075
▁राजस्थान	-9.50779
▁ᱜᱚᱴᱟᱝ	-9.50842
ar	-9.50892
▁मुल	-9.50947
गर	-9.5096
था	-9.50963
▁दबाव	-9.51052
▁संसाधन	-9.51102
▁मुंडा	-9.51126
▁मेनाः	-9.51167
▁सह	-9.5118
▁તેની	-9.51205
▁ᱯᱩᱭᱞᱩ	-9.51218
▁कार	-9.51535
કો	-9.51584
▁बिना	-9.51589
▁राइज	-9.51674
▁घेर	-9.51699
▁ᱞᱚᱜᱚᱱ	-9.51723
▁मना	-9.51752
▁San	-9.51756
▁ᱟᱹᱠᱷᱨᱤᱧ	-9.51765
▁होना	-9.51818
▁P	-9.51854
▁मार्ग	-9.51856
▁રાજ્ય	-9.51879
▁वृद्धि	-9.51952
▁लगता	-9.51995
▁जमीन	-9.51998
शि	-9.52064
▁ऑफ	-9.5207
।’’	-9.52072
ଲୁ	-9.521
▁कोशिश	-9.52175
▁મુખ્ય	-9.5223
▁ખ	-9.52232
▁इसमें	-9.52237
▁जबकि	-9.52258
▁ᱛᱤᱱᱟᱹᱜ	-9.52259
▁भविष्य	-9.52287
▁हाल	-9.52317
▁लेवा	-9.52408
▁ᱫᱤᱱᱟᱹᱢ	-9.52514
▁हात	-9.52533
f	-9.52608
▁जर	-9.52617
▁ᱥᱟᱯᱲᱟᱣ	-9.52646
▁ᱥᱩ	-9.52769
आय	-9.52796
▁गोटा	-9.52889
▁समावेश	-9.52912
▁પોતાની	-9.52915
▁पैदा	-9.53089
▁उपज	-9.53115
▁परंपरा	-9.53166
▁ᱞᱮᱠᱟ	-9.5319
▁ᱤᱧᱟᱹᱜ	-9.53368
વો	-9.53385
▁फल	-9.535
ंच्या	-9.53534
▁આવ્યો	-9.53539
▁राष्ट्रपति	-9.53549
▁केम	-9.53571
or	-9.53605
▁आञ	-9.53729
ᱽ	-9.53734
▁तुम्हाला	-9.53779
▁રૂપિયા	-9.53855
ᱫᱤ	-9.53861
वाद	-9.53865
▁रेल	-9.53909
▁ᱜᱷᱟᱹᱞ	-9.54027
▁दोन	-9.54029
▁ᱵᱚᱫᱚᱞ	-9.54229
_38	-9.54307
it	-9.54327
▁खो	-9.54338
ઈ	-9.54339
▁जम्मू	-9.54344
▁प्रेरणा	-9.5443
एफ	-9.54439
▁आयोग	-9.54444
ᱴᱟ	-9.54537
▁ᱟᱢᱟᱜ	-9.54593
▁जनता	-9.54603
ᱲ	-9.54617
▁विवाह	-9.54683
▁योजनाओं	-9.54703
▁वर्षा	-9.54734
इस	-9.54748
▁विजय	-9.54762
▁મા	-9.54858
▁टयद्	-9.54942
▁पंड	-9.54991
\'	-9.55046
अलग	-9.55074
▁बल्कि	-9.55098
▁ᱯᱟᱥᱱᱟᱣ	-9.55185
▁सैकड़ों	-9.55243
▁ᱵᱟᱱ	-9.55257
▁नियमित	-9.55266
ूं	-9.55289
ોની	-9.553
d	-9.55309
▁महान	-9.55327
▁કરોડ	-9.55349
▁समृद्ध	-9.554
▁सिर्फ	-9.55554
िट	-9.55576
▁जंगल	-9.55588
મી	-9.55592
राम	-9.55669
▁ᱵᱷᱟᱹᱞᱟᱹᱭ	-9.55828
वत	-9.55865
▁वैश्विक	-9.55887
▁यहां	-9.55899
▁सूचना	-9.55946
▁खान	-9.56045
▁पड़े	-9.5606
▁राख	-9.56061
▁ମା	-9.56095
▁चिलका	-9.56135
▁उसका	-9.56169
इन	-9.56191
▁रअ	-9.56242
▁शुरुआत	-9.56269
त्त	-9.56289
▁क्षेत्रात	-9.56299
▁पाहिजे	-9.5632
▁स्वच्छ	-9.56356
▁દ	-9.56491
गत	-9.56521
▁ᱵᱤ	-9.56626
ᱫᱟ	-9.56636
ᱮᱱ	-9.56674
▁धार्मिक	-9.56711
▁नगर	-9.56805
▁बीमा	-9.56826
▁खबर	-9.56827
चार	-9.56862
M	-9.56921
▁तय	-9.5693
नों	-9.56991
▁ᱥᱟᱞ	-9.56997
ब्	-9.57008
▁अर्थ	-9.57094
▁पर्यटन	-9.57126
▁भागीदारी	-9.57289
▁शासन	-9.57297
बि	-9.57317
▁भाजपा	-9.57364
▁સરકાર	-9.57503
▁રાષ્ટ્રીય	-9.57515
▁ᱢᱩᱫᱽᱨᱮ	-9.57573
▁વિવિધ	-9.57625
▁रूपया	-9.57663
कों	-9.57669
▁ᱟᱯᱮ	-9.57685
▁તમારા	-9.57733
▁डाल	-9.57922
ᱤᱝ	-9.57985
ᱵᱤ	-9.58107
▁ᱢᱩᱬᱩᱫ	-9.5814
᱓	-9.58183
▁रेआ	-9.58241
▁ᱢᱚᱱ	-9.58287
an	-9.58299
▁ᱞᱮᱱᱠᱷᱟᱱ	-9.5832
▁ᱡᱟᱦᱟᱱ	-9.58326
▁मंता	-9.58346
▁कठिनाइयों	-9.5835
w	-9.58363
▁टका	-9.58366
_23	-9.58391
▁મંત્રી	-9.58395
▁आवा	-9.58435
▁समूह	-9.58439
किङ	-9.58599
in	-9.58746
▁ᱠᱤᱪᱷᱩ	-9.58772
▁हों	-9.58789
मधील	-9.58842
▁वखत	-9.58852
▁उत्साह	-9.58863
_24	-9.58972
▁ᱦᱚᱛᱮᱛᱮ	-9.59014
फा	-9.59016
▁प्राथमिकता	-9.59037
▁ᱥᱮᱫ	-9.59049
▁तौर	-9.59097
▁ᱡᱟᱦᱟᱸᱭ	-9.59118
▁अनुसंधान	-9.59195
▁રહ્યો	-9.59226
▁रखा	-9.59294
▁29	-9.59328
▁मरङ	-9.59371
▁ସା	-9.59478
▁करतो	-9.59486
्‍या	-9.59538
ढ़	-9.59582
▁दिए	-9.59593
▁झाला	-9.59599
फ़	-9.59599
▁ᱥᱚ	-9.59627
▁उठा	-9.59795
▁स्वाद	-9.59845
▁ᱠᱷᱚᱛᱤ	-9.59985
▁ᱨᱮᱦᱚᱸ	-9.60016
▁ऑ	-9.60072
▁सार्वजनिक	-9.60078
▁थावा	-9.60139
▁झाली	-9.60212
▁35	-9.60345
▁हज़ारों	-9.60397
▁पेड़	-9.60473
▁वहां	-9.60485
▁पहली	-9.60562
▁ᱨᱚᱦᱚᱭ	-9.60739
▁सुन	-9.6077
▁आजादी	-9.60796
िर	-9.60912
▁तकनीक	-9.61012
ᱟᱹ	-9.6103
ण्याची	-9.61059
▁મળે	-9.61062
ेर	-9.61097
वान	-9.61103
_29	-9.61183
▁पोषण	-9.61218
▁साहित्य	-9.61313
▁धान	-9.61331
ીય	-9.61361
▁जलवायु	-9.6137
▁माँ	-9.61371
▁ऐसी	-9.61424
पूर्ण	-9.61429
▁ᱪᱟᱥᱵᱟᱥ	-9.61434
▁સં	-9.61443
ᱡᱟ	-9.61506
ंनी	-9.61643
▁અનેક	-9.61686
▁जोड	-9.61695
▁घोषणा	-9.61712
▁प्रकाश	-9.61734
▁नरेन्द्र	-9.61776
A	-9.6186
▁રહે	-9.61868
▁जावा	-9.61887
▁ᱠᱳ	-9.61888
▁व्यक्त	-9.61914
वानु	-9.61974
काल	-9.61987
▁ᱥᱟᱜᱟᱲᱚᱢ	-9.62054
▁हुईं	-9.62095
▁ᱵᱟᱹᱱᱩᱜ	-9.62165
▁अनु	-9.62193
କୁ	-9.62236
▁विस्तार	-9.62242
▁कर्नाटक	-9.62273
▁तिनी	-9.62286
▁पाल	-9.62337
▁करीब	-9.62388
▁ᱨᱤᱱ	-9.6244
▁बोलते	-9.62445
▁बेसे	-9.62483
▁पाठ	-9.62495
▁त्योहार	-9.62525
▁गृह	-9.6264
▁समस्या	-9.62668
▁तेल	-9.62674
▁ᱯᱟ	-9.62684
▁ᱯᱚᱨᱚᱵᱽ	-9.62775
▁लग	-9.6281
ग्	-9.62837
▁पौधों	-9.62845
▁दिली	-9.62895
▁ᱫᱷᱚᱨᱚᱢ	-9.62994
▁ᱫᱟᱲᱮᱹᱭᱟᱜᱼᱟ	-9.63057
धि	-9.63109
▁लेने	-9.63214
ेला	-9.63274
▁पहुँची	-9.63305
▁हुड़िङ	-9.63315
▁बुजुर्गों	-9.63328
▁પહેલા	-9.63341
▁शोध	-9.63377
▁लू	-9.63417
▁ર	-9.63438
ष्ट	-9.63457
▁निकल	-9.63512
▁ᱩᱫᱩᱜ	-9.63571
▁डॉलर	-9.63633
ᱦᱟ	-9.63647
▁ᱚᱞ	-9.63854
▁ᱚᱱᱟᱛᱮ	-9.63873
▁ᱛᱟᱞᱟᱛᱮ	-9.63885
▁उतर	-9.639
વામાં	-9.63947
▁ᱦᱟᱹᱯᱤᱫ	-9.63975
▁सैन्य	-9.64089
पाल	-9.64095
▁लड़ाई	-9.64151
▁खेळ	-9.64182
▁नियंत्रण	-9.64198
▁मह	-9.64226
▁आरोग्य	-9.6423
▁ᱤᱧᱟᱜ	-9.6426
▁ᱤᱫᱤ	-9.64268
▁असम	-9.64298
▁ᱵᱤᱰᱟᱹᱣ	-9.64357
▁होईल	-9.64437
▁केरल	-9.64438
એસ	-9.64441
▁हारु	-9.6448
हू	-9.64534
▁कार्ड	-9.64549
▁अमेरिका	-9.64581
वानी	-9.64634
▁ᱧᱩᱛᱩᱢ	-9.64654
▁वस	-9.64667
▁युवाओं	-9.64676
▁विरासत	-9.64709
▁लेकन	-9.64713
्‍य	-9.64804
तुर	-9.64809
▁खुशी	-9.64947
ोः	-9.65073
▁ᱜᱟᱱ	-9.65102
▁उदुब	-9.65165
વે	-9.65252
▁A	-9.65284
▁ᱵᱤᱨ	-9.65352
सह	-9.65384
▁જેમ	-9.6545
▁ᱥᱤᱵᱤᱨ	-9.6545
▁વિશેષ	-9.65455
▁ତା	-9.65459
▁कोटी	-9.65493
▁महीने	-9.65694
▁कियना	-9.65755
हना	-9.65873
▁युद्ध	-9.65915
▁वार	-9.65928
▁तरीका	-9.66028
▁अपन	-9.66028
▁कहते	-9.66048
स्थ	-9.6609
▁बेघर	-9.66107
▁ᱛᱤᱨᱞᱟᱹ	-9.66161
▁गिर	-9.66221
ᱥᱚᱱ	-9.66251
▁सम्मान	-9.66259
_36	-9.66276
▁ᱧᱟᱢᱟ	-9.66347
▁ऐतिहासिक	-9.66388
▁समस्याएँ	-9.66399
▁सामने	-9.66416
▁गति	-9.66417
▁महोत्सव	-9.66422
▁ᱡᱚᱛᱷᱟᱛ	-9.66519
▁of	-9.66617
ષ	-9.66715
▁सात	-9.66733
▁ᱟᱛᱳ	-9.66747
ાવ	-9.66766
▁વિશે	-9.66845
ઓને	-9.66885
▁ᱢᱮᱱᱟᱜ	-9.66933
▁ᱨᱟᱹᱥᱠᱟᱹ	-9.66944
कल	-9.66975
▁ᱧᱩ	-9.66992
▁जोम	-9.67007
▁वैज्ञानिक	-9.67054
▁देशवासियों	-9.67055
▁कार्यालय	-9.67095
▁80	-9.67132
▁टे	-9.67215
▁हतु	-9.67229
▁स्पष्ट	-9.67242
▁ᱫᱟᱨᱟᱭ	-9.67273
ेन	-9.6729
▁32	-9.67295
▁कं	-9.67313
▁मियद	-9.67325
▁नागरिकों	-9.67344
▁लड़	-9.6738
▁ᱵᱚᱛᱚᱨᱟᱱ	-9.67411
▁वित्त	-9.67437
▁सफलता	-9.67516
▁बोंगा	-9.67518
▁आदेश	-9.67531
▁ओडिशा	-9.67535
▁ᱪᱟᱹᱞᱩ	-9.67568
▁फा	-9.67572
▁किलोमीटर	-9.67601
▁तोर	-9.67646
▁મે	-9.67647
▁भूकंप	-9.677
▁ᱥᱚᱦᱚᱨ	-9.67734
▁असेल	-9.67734
ନ୍	-9.67757
▁ଲ	-9.678
जु	-9.67815
▁हती	-9.67839
યા	-9.67879
▁शिक्षण	-9.67933
ાઈ	-9.68068
▁मामला	-9.68074
वल	-9.68091
▁કારણ	-9.68181
વિ	-9.682
▁ᱯᱤ	-9.68222
▁पहुंच	-9.68226
▁ᱰᱚᱜᱚᱨ	-9.68262
▁ગ	-9.68363
▁दशक	-9.68387
▁सू	-9.68443
▁अल	-9.6847
▁हरियाणा	-9.68495
▁टा	-9.68598
▁પા	-9.68686
▁चाहते	-9.68755
रों	-9.68783
▁પાક	-9.68797
▁जुड़े	-9.68825
le	-9.6889
▁ᱵᱷᱟᱜᱮ	-9.68898
▁रीति	-9.68975
R	-9.69016
▁खोज	-9.69095
मां	-9.69128
किसान	-9.69134
▁ओह	-9.69165
▁ᱵᱚ	-9.69198
र्क	-9.69277
▁यही	-9.6928
_03	-9.69285
ରୁ	-9.69389
▁होत	-9.69395
▁ᱟᱲᱟᱜ	-9.6943
▁ओड़अः	-9.69465
▁ᱯᱚ	-9.69562
ग्र	-9.69578
▁कश्मीर	-9.69592
▁ᱯᱷᱮᱰᱟᱛ	-9.69598
▁रआ	-9.69635
▁बिर	-9.69642
▁मीडिया	-9.6965
▁आला	-9.69831
▁આદિવાસી	-9.69868
▁ᱵᱮ	-9.69892
▁मेहनत	-9.69971
ेशन	-9.69983
▁रख	-9.70041
▁ઓ	-9.70079
ᱠᱷ	-9.70099
ᱪ	-9.70114
બી	-9.70179
▁ᱦᱤᱸᱥ	-9.70206
▁ᱩᱰᱟᱹᱱ	-9.70239
▁मारा	-9.70248
_05	-9.7033
ନ	-9.70391
▁कृषी	-9.70443
▁संपर्क	-9.70445
કા	-9.70462
ंडा	-9.70511
▁મદદ	-9.70613
▁पुरा	-9.70616
▁लक्ष्य	-9.70639
▁ᱛᱟᱦᱮᱸᱱᱟ	-9.70649
▁માત્ર	-9.70652
▁આપવા	-9.70708
સ્ટ	-9.70723
▁उसी	-9.70729
▁बधाई	-9.70749
▁क्रिकेट	-9.70783
I	-9.70787
▁બંને	-9.70817
ଡା	-9.70823
▁बीजा	-9.70936
▁पशुओं	-9.71048
ील	-9.71048
▁देखील	-9.71106
▁आयो	-9.71113
▁माने	-9.71137
રો	-9.71143
▁ଅ	-9.71268
▁सभा	-9.71281
▁તમને	-9.71363
ଲ	-9.71373
▁જેમાં	-9.71407
▁कुन	-9.71445
▁દેશ	-9.71535
▁जिन	-9.71588
▁ᱩ	-9.71642
▁प्यारे	-9.71714
▁मने	-9.71737
इड	-9.71788
▁चक्रवात	-9.7181
▁ᱵᱚᱸᱜᱟ	-9.71845
नू	-9.71949
લે	-9.71967
▁अक्सर	-9.71981
▁पंचायत	-9.71981
▁ᱵᱟᱹᱫ	-9.71984
▁होरा	-9.7203
▁तेव्हा	-9.72053
▁આવશે	-9.72084
ation	-9.72157
_2_1	-9.72188
▁ફ	-9.7221
્યું	-9.72319
ल्	-9.72411
▁चिनअः	-9.72431
▁ᱞᱮᱠᱷᱟᱱ	-9.72517
▁33	-9.72519
▁तीनी	-9.72528
▁जिना	-9.72562
▁45	-9.72597
ास	-9.72657
ल्ला	-9.72698
▁રહ્યું	-9.72741
▁ભારતના	-9.72832
▁मळे	-9.72962
▁પ્રોત્સાહન	-9.73025
▁બા	-9.73092
▁पू	-9.73122
▁थीं	-9.73145
ପା	-9.73151
▁बांध	-9.7317
ᱯᱩᱨ	-9.73174
▁आरोप	-9.73199
▁बूतो	-9.73249
▁कॉलेज	-9.733
ेंगे	-9.73438
▁ᱞᱟᱹᱲᱦᱟᱹᱭ	-9.73438
▁पांच	-9.73464
म्ब	-9.73476
▁हातु	-9.73516
લો	-9.73541
▁भारताच्या	-9.73663
▁કેન્દ્ર	-9.73687
▁मिळ	-9.73698
▁साझा	-9.73768
▁माल	-9.73779
ᱫᱽ	-9.73782
▁वर्तमान	-9.73788
एल	-9.73917
वाल	-9.73949
पति	-9.74046
▁M	-9.74054
▁समाधान	-9.74071
गि	-9.74089
▁सै	-9.74126
▁जिसे	-9.74152
▁नेतृत्व	-9.74174
▁कल्याण	-9.74198
▁बताओ	-9.74203
▁त्यो	-9.74205
नंग	-9.74222
ंदा	-9.74299
▁कियाना	-9.74366
▁प्रगति	-9.74457
ᱵᱚ	-9.74458
▁माना	-9.74616
▁स्वीकार	-9.74633
▁दवा	-9.74648
ेज	-9.74723
▁C	-9.7485
▁टीकाकरण	-9.74883
▁ડ	-9.74928
▁सुकु	-9.74967
ᱜᱽ	-9.74977
बू	-9.74994
▁36	-9.74999
▁ᱥᱩᱢᱩᱝ	-9.75023
▁गाव	-9.75033
▁ᱥᱟᱢᱲᱟᱣ	-9.75058
ांसाठी	-9.75101
ठा	-9.75116
म्प	-9.75156
▁मोटो	-9.75225
▁p	-9.7528
▁ᱢᱩ	-9.75315
▁राह	-9.75443
▁क्यों	-9.75508
P	-9.7552
▁गंगा	-9.75595
▁વા	-9.75599
▁उद्देश्य	-9.75606
ोम	-9.75607
▁SANTALI	-9.7563
▁पूछ	-9.75636
▁तरेह	-9.75688
▁વિશ્વ	-9.75841
ᱠᱤ	-9.75925
▁होय	-9.75935
ᱥᱴ	-9.75939
▁મહત્વપૂર્ણ	-9.75951
▁बचत	-9.76
▁କ	-9.76016
▁2018	-9.7606
▁મો	-9.76129
▁જરૂરી	-9.76143
▁ᱪᱮᱫᱟᱜ	-9.76153
▁देंगा	-9.76157
▁रखते	-9.76161
▁मुंबई	-9.76166
▁मेना	-9.76204
ic	-9.76232
▁परीक्षा	-9.76238
▁ᱜᱚ	-9.76318
▁गेले	-9.76404
णु	-9.7641
▁05	-9.76434
▁परियोजना	-9.76437
᱗	-9.76506
▁कुड़ि	-9.7651
▁H	-9.76513
▁राज्‍य	-9.76523
▁चले	-9.76546
▁शि	-9.7657
▁1000	-9.76579
▁चित्रपट	-9.76601
ड़ो	-9.76692
▁चाहे	-9.76695
▁दुकान	-9.76721
▁निकाल	-9.76722
▁કૃષિ	-9.76742
▁ᱳ	-9.76801
रेन	-9.7685
▁᱒᱐	-9.76944
▁तालाब	-9.76965
▁ᱡᱤ	-9.76979
▁આગળ	-9.76995
भर	-9.77026
▁अउ	-9.77053
ंमध्ये	-9.77075
हन	-9.77082
િયા	-9.77096
▁ᱩᱱᱫᱚ	-9.7711
▁मू	-9.77175
▁ᱱᱟᱶᱟᱱ	-9.77194
▁ᱱᱟ	-9.77199
▁होबाओ	-9.77239
भा	-9.77312
ᱤᱡ	-9.77317
▁કરશે	-9.77324
▁जीवा	-9.77387
ल्ल	-9.77411
રે	-9.77451
▁हरा	-9.77508
ाइ	-9.77526
▁जून	-9.77562
▁पैसे	-9.77651
▁કેટલાક	-9.77655
लिंग	-9.77666
▁કરતા	-9.77692
▁ᱥᱟᱠᱟᱢ	-9.77722
▁देवी	-9.77737
▁હવે	-9.77769
▁पहन	-9.77794
ुल	-9.778
▁जग	-9.77824
ण्	-9.7783
୍	-9.78022
गार	-9.78106
▁तीना	-9.78148
देश	-9.78186
▁शांति	-9.78223
▁आयर	-9.78239
▁हू	-9.78252
▁दर्ज	-9.7826
टु	-9.78339
▁ᱱᱚᱝᱠᱟᱱ	-9.78365
▁c	-9.7837
िम	-9.78409
▁पुरस्कार	-9.78528
▁प्रौद्योगिकी	-9.78564
▁ᱵᱷᱮᱜᱟᱨ	-9.78565
▁वापस	-9.78644
पणे	-9.78661
▁हीं	-9.7881
▁रीत	-9.78831
ंची	-9.78853
▁व्या	-9.7886
▁ओमा	-9.78893
ाल	-9.78894
व्ह	-9.78896
▁t	-9.78903
ंगी	-9.78906
▁गरज	-9.78931
▁उपाय	-9.78945
▁प्रेम	-9.78959
▁થયો	-9.78974
०	-9.79073
▁शेतात	-9.79085
कुल	-9.79092
▁करसाण	-9.79094
▁चीन	-9.7911
re	-9.79136
▁जैसी	-9.79143
ଲା	-9.7916
▁is	-9.79168
▁ᱵᱮᱜᱚᱨ	-9.79229
▁ધ્યાન	-9.79266
▁दस	-9.79276
▁थ	-9.79284
▁प्रेरित	-9.7934
▁सक	-9.79354
▁देती	-9.79393
देव	-9.79452
▁लगातार	-9.79452
▁चित्र	-9.79515
▁सुना	-9.7956
▁ᱞᱟᱠᱪᱟᱨ	-9.79563
▁माय	-9.79572
▁G	-9.79604
▁जुड़	-9.7961
▁स्टेशन	-9.79643
▁લેવા	-9.79656
ଲି	-9.79675
▁बेस	-9.79679
▁ઇ	-9.79804
▁2019	-9.79931
कडे	-9.79969
▁संचार	-9.79996
▁କା	-9.80042
▁जेव्हा	-9.80047
▁वदारे	-9.80071
▁સ્	-9.80076
▁राजनीतिक	-9.80089
वें	-9.80099
ହା	-9.80163
ᱜᱤ	-9.80303
▁જેથી	-9.8032
▁मतलब	-9.80422
ृ	-9.8043
▁s	-9.80497
दू	-9.80506
त्र्प्र	-9.80524
▁90	-9.80529
▁मति	-9.80549
▁वर्षों	-9.80623
▁तमिलनाडु	-9.80683
▁ᱦᱟᱹᱵᱤᱡ	-9.80683
▁जागतिक	-9.80721
▁प्रोत्साहन	-9.80759
▁ᱴᱷᱤᱠ	-9.80759
▁समारोह	-9.8076
▁धुंध	-9.8076
▁हरू	-9.80764
▁कोआ	-9.8078
▁ᱠᱟᱹᱨᱤ	-9.80911
▁करेगा	-9.81025
▁ᱦᱟᱹᱴᱤᱧ	-9.81211
▁शायद	-9.81211
ᱵᱽ	-9.81263
▁કારણે	-9.81268
▁न्याय	-9.81276
▁आवी	-9.81308
णार	-9.81309
ન્ટ	-9.81427
▁થશે	-9.81443
▁मावा	-9.81498
at	-9.81588
▁પ્રથમ	-9.81627
▁મળી	-9.81629
▁बणावी	-9.81633
लों	-9.81647
▁व्यापक	-9.81665
▁मनातिङ	-9.81745
▁34	-9.81823
▁हेतु	-9.81863
▁ᱵᱟᱱᱟᱨ	-9.81863
▁शकतो	-9.81916
▁बनाई	-9.81926
▁वै	-9.81943
▁लेहका	-9.82008
▁सिर	-9.82098
▁जास्त	-9.82107
▁ସି	-9.82126
▁ସ	-9.82181
▁धन्यवाद	-9.82198
▁ᱵᱚᱨᱚᱯᱷ	-9.82236
▁ᱢᱟᱱᱰᱤ	-9.82329
ભ	-9.82338
▁य	-9.82362
▁ପା	-9.8237
▁जेर	-9.82378
କ	-9.82407
▁᱑᱙	-9.82416
िए	-9.82418
આઈ	-9.82455
▁नना	-9.8251
▁फसलें	-9.82524
ᱨᱳ	-9.82609
▁बर्फबारी	-9.82618
ᱦᱚ	-9.82679
▁सर्वात	-9.827
▁रेअ	-9.82713
▁ᱮᱦᱚᱵ	-9.82734
▁रोजी	-9.82771
पर्यंत	-9.82783
▁प्रधान	-9.82865
▁जाये	-9.82877
▁उचित	-9.82889
▁નવા	-9.82906
ભા	-9.82916
▁अशा	-9.82933
स्‍त	-9.82996
▁तअः	-9.83053
▁बजे	-9.83057
▁व्यवसाय	-9.83079
▁तिने	-9.83101
▁2020	-9.83105
▁खाते	-9.83105
▁अस्पताल	-9.83117
▁શ	-9.83162
निक	-9.83196
),	-9.83225
▁નામ	-9.83235
▁ईमेल	-9.8324
▁ᱟᱠᱷᱲᱟ	-9.8331
▁51	-9.83578
▁रया	-9.83653
પુર	-9.83686
▁साधन	-9.83702
▁परि	-9.83776
▁मोठ्या	-9.83813
ण्यात	-9.83822
▁પે	-9.83873
▁मात्रा	-9.83891
▁करण्याची	-9.83958
ୋ	-9.83968
▁न्यायालय	-9.83988
l	-9.84148
▁ᱥᱟᱸᱜᱷᱟᱨ	-9.84227
▁थो	-9.84247
▁आवे	-9.84268
▁ओजना	-9.84272
▁ઉત્પાદન	-9.8428
h	-9.843
▁इसकी	-9.84313
▁शब्द	-9.84336
▁જ્યાં	-9.84357
ूर	-9.84377
▁तुमच्या	-9.84439
एक	-9.84477
▁हिजु	-9.84477
▁चु	-9.84494
▁ओल	-9.84542
▁ओलावृष्टि	-9.84552
▁हाँ	-9.84578
▁रखना	-9.84585
▁जाऊ	-9.84622
᱘	-9.84711
ન્ડ	-9.84729
▁मेले	-9.84802
ुम	-9.84807
▁ᱤ	-9.84816
▁ટકા	-9.84879
▁बै	-9.84904
▁પૂર્વ	-9.84907
સ્	-9.84956
▁नावा	-9.84984
વાર	-9.84993
କ୍	-9.8503
▁घो	-9.85036
▁अमृत	-9.85043
▁ᱞᱟᱲᱟᱣ	-9.851
᱒	-9.85109
▁स्ट	-9.85164
્ર	-9.85218
▁रोक	-9.85242
▁हासिल	-9.85258
ेस	-9.85302
▁वित्तीय	-9.85328
द्वारे	-9.85355
▁समुदायों	-9.85373
▁राय	-9.85401
कुन	-9.85485
▁इमतङ	-9.85495
_3_1	-9.85509
▁अधिकारियों	-9.8553
᱔	-9.85599
▁प्रश्न	-9.85652
ᱲᱤ	-9.85653
▁दनिया	-9.85759
▁દર	-9.85803
▁જેના	-9.85844
▁करयो	-9.85914
▁What	-9.85929
▁ᱞᱮᱫ	-9.8597
ᱞᱮ	-9.86049
▁ऑनलाइन	-9.86087
▁संगठन	-9.8611
▁કરવાની	-9.86124
▁नीं	-9.86162
ᱜᱮ	-9.86236
▁अरे	-9.86264
नुंग	-9.86353
▁मामले	-9.86371
▁બનાવવા	-9.86383
ଜା	-9.86444
▁अं	-9.86472
▁आवाज	-9.86477
▁जानते	-9.86498
ଡ଼ା	-9.8655
▁मैदान	-9.86613
▁᱑	-9.86679
_1_1	-9.86745
▁ક્ષેત્રમાં	-9.86761
▁एल	-9.86863
▁ᱜᱟᱛᱟᱠ	-9.86883
पूर	-9.86942
▁समिति	-9.86957
ଟା	-9.86969
▁झारखंड	-9.87003
तात	-9.87031
▁કર્યા	-9.87132
▁લે	-9.8716
▁व्यावसायिक	-9.87164
▁થ	-9.87212
▁42	-9.87216
-‘‘	-9.87225
ियु	-9.87244
▁एटेः	-9.87283
ेड	-9.87306
▁हित	-9.87348
कना	-9.87368
▁करतात	-9.87369
पन	-9.87382
▁પાણી	-9.87474
▁एकता	-9.87475
▁स्व	-9.8755
▁भेट	-9.87579
▁ᱛᱤ	-9.87609
न्न	-9.87682
▁તમારી	-9.87744
▁परेशान	-9.87751
▁आंदोलन	-9.87759
▁लोर	-9.87784
▁ओकोन	-9.87866
▁खु	-9.87874
▁वीर	-9.87887
▁ᱢᱤᱫᱴᱟᱹᱝ	-9.87888
▁कौशल	-9.87933
▁आशा	-9.8794
▁कोके	-9.87963
▁वरह	-9.87992
▁इतना	-9.88003
▁મારી	-9.88033
▁उद्घाटन	-9.88049
ଞ୍ଜା	-9.88075
▁जाई	-9.88081
▁ᱢᱮᱱᱛᱮ	-9.88151
શે	-9.8823
▁प्रकल्प	-9.883
▁સુરક્ષા	-9.88333
▁दअः	-9.88365
▁2016	-9.88375
▁ᱵᱟᱹᱲᱛᱤᱜᱼᱟ	-9.88565
▁फि	-9.88616
ch	-9.88785
ાઇ	-9.88817
▁સામાન્ય	-9.88821
▁ᱡᱤᱱᱤᱥ	-9.88821
▁सूखा	-9.88834
▁करीन	-9.88867
▁सफल	-9.88884
ांत	-9.88897
▁ᱩᱱᱤᱭᱟᱜ	-9.88921
▁आपड़ी	-9.88934
काफी	-9.88946
▁सफाई	-9.88953
▁44	-9.88982
ेह	-9.89116
▁जोड़	-9.89123
▁संभव	-9.89153
▁अपि	-9.89182
▁જરૂર	-9.89214
▁दें	-9.89251
▁સો	-9.89307
ସି	-9.89363
▁2014	-9.89394
▁ᱨᱟ	-9.89436
तरी	-9.8947
▁ᱠᱩᱦᱲᱟᱹ	-9.89475
▁प्रवेश	-9.89475
▁46	-9.8954
▁फायदा	-9.89557
▁धो	-9.89563
▁ᱥᱟᱯᱷᱟ	-9.89613
▁आं	-9.89663
▁हक	-9.89683
ଟି	-9.89724
ମା	-9.89794
▁लाई	-9.89797
▁ᱱᱟᱣᱟ	-9.8985
ᱨᱩ	-9.89889
▁उनको	-9.89898
▁केवळ	-9.89934
▁બેંક	-9.89941
गढ़	-9.90011
▁कीमत	-9.901
▁भागात	-9.9013
▁वरिष्ठ	-9.90134
चर	-9.90175
▁अभि	-9.90188
▁पर्व	-9.90202
▁गी	-9.90211
▁જીવન	-9.9024
ᱵᱷ	-9.90273
▁संघर्ष	-9.90302
▁55	-9.90316
▁सेन	-9.90334
▁चौ	-9.90362
▁गयी	-9.90369
ીને	-9.90388
▁સુ	-9.90395
▁ᱯᱚᱨᱤᱢᱟᱱ	-9.90506
स्व	-9.90508
ट्ट	-9.90527
▁कप	-9.90559
ંક	-9.90573
▁65	-9.90662
▁निर्	-9.90665
▁शारीरिक	-9.90672
▁तइन	-9.90684
▁गुरु	-9.90705
▁मुटन	-9.90734
▁याशिवाय	-9.90749
▁ᱦᱩᱰᱤᱧ	-9.90755
ક્ષ	-9.90756
▁उत्पाद	-9.90877
▁विदेश	-9.90929
▁a	-9.90935
▁आलू	-9.90937
प्	-9.90943
ᱦ	-9.91087
▁માહિતી	-9.91088
▁आत	-9.91114
▁इतु	-9.91234
▁वड़	-9.9128
▁ᱠᱮ	-9.91375
▁दोन्ही	-9.91422
्म	-9.91429
फी	-9.91442
▁तकनीकी	-9.9149
लिया	-9.91507
▁धरती	-9.91532
यन	-9.91582
▁ત	-9.91617
▁ᱧᱩᱛᱩᱢᱟᱱ	-9.91619
▁तरीके	-9.91711
ᱥᱚ	-9.91731
▁39	-9.91736
▁पुस्तक	-9.91797
पेक्षा	-9.91862
ेंद्र	-9.91882
▁उठ	-9.91897
જા	-9.91918
▁नजर	-9.91979
▁प्रकृति	-9.91982
▁मनखु	-9.92028
▁देशवासियो	-9.92068
▁ᱦᱚᱱᱚᱛ	-9.92094
▁विद्यालय	-9.92137
▁हाव	-9.92151
▁पैदावार	-9.92169
ોના	-9.92293
ᱚᱢ	-9.92348
▁चिमिन	-9.92365
धी	-9.9238
कारी	-9.92433
પા	-9.9249
▁ᱫᱷᱟᱣ	-9.92516
▁पुट	-9.92547
▁નરેન્દ્ર	-9.92558
▁सारे	-9.92667
▁ફિલ્મ	-9.92676
▁गौरव	-9.92715
▁जिसके	-9.92742
▁आठ	-9.92766
▁कट	-9.92819
▁जिनिस	-9.92867
▁ᱫᱩᱨᱡᱚ	-9.92898
C	-9.9292
▁येथे	-9.92922
▁ओते	-9.92932
▁ધ	-9.93045
योग	-9.93081
▁सहकार्य	-9.9311
▁ᱯᱩᱨᱟᱹᱣ	-9.93132
▁ᱞᱮᱛᱟᱲ	-9.93152
▁पर्र	-9.9319
▁ऋण	-9.93195
▁तेज	-9.93204
▁पोल्लो	-9.93323
▁श्रम	-9.93359
▁શિક્ષણ	-9.93365
▁बातचीत	-9.93366
▁बाता	-9.93395
▁बोर्ड	-9.93435
▁થયા	-9.93458
▁प्रो	-9.93459
▁गर्व	-9.93473
▁ᱨᱮᱭ	-9.93488
▁नये	-9.935
▁प्रथम	-9.93536
▁देखभाल	-9.93664
▁48	-9.9373
▁ᱠᱚᱫᱚ	-9.93735
▁)	-9.93753
▁N	-9.93807
▁मार्च	-9.93816
ᱦᱤ	-9.93847
▁ᱠᱷᱚᱛ	-9.9395
▁मल	-9.93988
यतंग	-9.93989
▁संकट	-9.94018
▁तयोम	-9.94025
तरा	-9.94055
▁38	-9.94078
▁स्वयं	-9.94093
▁the	-9.94141
ुक	-9.9417
▁ठ	-9.94171
▁જોવા	-9.94173
▁मिसा	-9.94194
▁च्या	-9.94206
▁यांना	-9.94248
▁मेल	-9.94269
▁राजधानी	-9.94308
▁रिपोर्ट	-9.9436
▁Hindi	-9.94394
▁ખા	-9.94434
स्‍	-9.94435
▁ᱢᱟᱹᱱ	-9.9461
▁अयर	-9.94648
et	-9.94718
▁પ્રયાસ	-9.94746
᱙	-9.94767
ᱜᱚ	-9.94769
ᱵᱷᱤ	-9.94784
ांवर	-9.94947
मर	-9.94995
ुर	-9.95001
▁સી	-9.9501
▁ખાસ	-9.95082
▁पढ़	-9.95101
▁ताना	-9.95151
एअ	-9.95162
▁तला	-9.95173
▁ᱫᱟ	-9.95193
▁l	-9.95195
यें	-9.95219
▁બધા	-9.9522
▁उपक्रम	-9.95225
▁मेन	-9.95248
▁नमी	-9.95257
ाया	-9.95264
्रि	-9.95278
▁देण्यात	-9.95302
▁ᱥᱩᱵᱤᱫᱷᱟ	-9.95303
▁संस्थान	-9.95337
▁झालेल्या	-9.95379
’’	-9.95405
▁बिल	-9.95415
ंच	-9.95423
▁करार	-9.95436
▁57	-9.95447
▁समुद्र	-9.95487
બા	-9.9549
▁प्रस्ताव	-9.95561
▁लेते	-9.95598
▁सीख	-9.95644
▁ᱜᱟᱹᱰᱤ	-9.95652
▁करण्याचे	-9.95665
▁49	-9.95699
▁असलेल्या	-9.95706
▁निम्मा	-9.95706
▁पुर	-9.95761
▁वदार	-9.95783
▁નિ	-9.9579
न्‍	-9.9579
▁निश्चित	-9.95826
▁યોજનાઓ	-9.95837
▁बोली	-9.9589
▁ᱦᱟ	-9.95899
प्प	-9.95951
▁स्वस्थ	-9.96059
▁कहानी	-9.96069
▁ટેકનોલોજી	-9.96133
▁ᱮᱴᱠᱮᱴᱚᱬᱮ	-9.96133
▁હા	-9.96161
▁उत्पन्न	-9.96177
ेट	-9.96196
▁बिजा	-9.96212
▁उत्पादों	-9.9627
▁किये	-9.96284
▁આપણી	-9.96355
▁ᱵᱟᱵᱚᱛ	-9.96396
▁પડશે	-9.96396
ᱴᱟᱨ	-9.96397
▁નિર્માણ	-9.96398
▁केल्या	-9.96404
ातून	-9.9642
િલ	-9.96425
▁52	-9.96426
▁आवाहन	-9.96508
▁उल्लेख	-9.96526
▁मारी	-9.96582
▁अमित	-9.96612
▁પાસે	-9.96662
ସ	-9.96705
▁ᱚᱠᱟ	-9.96731
▁ᱡᱟ	-9.96734
▁લોકોને	-9.96737
न्स	-9.96738
▁બાદ	-9.96751
▁मिली	-9.9686
▁માંગ	-9.96922
▁ત્યાં	-9.96925
ᱚᱠ	-9.96941
ᱮᱥ	-9.96952
▁ᱫᱟᱨᱟᱢ	-9.96973
ण्या	-9.97068
▁आंध्र	-9.97102
▁ᱴᱟᱠᱟ	-9.97103
▁गेल	-9.97105
त्य	-9.97117
▁नुतुम	-9.97204
▁बेरा	-9.9721
▁वाळी	-9.97276
मंत्री	-9.97279
▁ᱪᱮᱸᱜᱷᱟᱣᱱᱟ	-9.97284
ीत	-9.97291
▁मळी	-9.97304
ૈ	-9.97402
▁ᱠᱩᱨᱩᱢᱩᱴᱩ	-9.97457
્યુ	-9.97486
▁कर्ज	-9.97503
▁ᱛᱟ	-9.97513
▁હેઠળ	-9.97546
▁સામેલ	-9.97549
ᱯᱟ	-9.97568
-2.0-	-9.97613
▁शा	-9.97629
ઓમાં	-9.97673
▁ᱪᱤᱛᱟᱹᱨ	-9.9768
▁करनी	-9.97754
▁प्राचीन	-9.97769
▁देण्यासाठी	-9.97798
▁जवाब	-9.97815
▁તેથી	-9.97816
▁युग	-9.97924
▁લાભ	-9.97924
▁शहरों	-9.97924
▁मेला	-9.97987
સા	-9.97993
▁सनङ	-9.98015
▁हिसाब	-9.98053
स्क	-9.981
▁प्रोत्साहित	-9.98126
▁खोल	-9.98184
▁2017	-9.98216
▁सहित	-9.98249
▁ᱡᱩᱣᱟᱹᱱ	-9.9826
▁प्रस्तुत	-9.98306
▁લ	-9.98342
दारी	-9.98367
▁I	-9.98425
▁बदले	-9.98496
ସ୍	-9.98528
િન	-9.98574
g	-9.98576
नुसार	-9.98587
▁शकते	-9.986
▁ᱪᱟ	-9.98605
र्न	-9.98662
िये	-9.9869
▁व्यवहार	-9.9871
▁देखते	-9.98722
▁ᱮᱥ	-9.98809
▁ᱠᱩᱲᱤ	-9.98809
▁पीएम	-9.98812
તો	-9.98822
▁सवाल	-9.98828
▁मंच	-9.98833
ोन	-9.98835
▁મજબૂત	-9.98889
▁ᱢᱟᱲᱟᱝ	-9.98889
▁चारा	-9.98922
▁53	-9.98923
▁सामान	-9.9898
▁डॉक्टर	-9.98984
▁सपोय	-9.99
▁શકો	-9.99079
▁ᱡᱟᱱᱟᱢ	-9.99115
▁ᱛᱳᱣᱟ	-9.99116
▁ᱥᱚᱢᱟᱱ	-9.9914
▁ग्वालियर	-9.99251
▁41	-9.99385
याँ	-9.99399
▁तंत्रज्ञान	-9.99419
▁निभा	-9.99487
▁इनि	-9.99515
▁फो	-9.99592
ण्याचा	-9.99625
ସେ	-9.99647
▁बिचार	-9.99658
▁उंद	-9.99823
ંચ	-9.99862
▁त्यांचे	-9.99874
▁नौ	-9.99918
▁सप्ताह	-9.99926
▁फसलों	-9.9994
▁चिंता	-9.9997
▁યોગ્ય	-9.99999
ન્સ	-10.0006
▁हालांकि	-10.0007
▁मशीन	-10.0007
▁वदु	-10.0008
ᱞᱚ	-10.001
▁કા	-10.001
न्ड	-10.0019
▁बचा	-10.0023
▁खुश	-10.0026
▁जातात	-10.0026
▁मित्र	-10.0027
▁खाद्य	-10.0033
▁37	-10.0034
▁01.05.2025_	-10.0039
एपे	-10.0039
લિ	-10.004
▁योजनाएं	-10.0042
▁72	-10.0042
▁ज़	-10.0045
त्व	-10.0045
युं	-10.0046
ष्	-10.0047
▁पेहला	-10.0049
▁तोबे	-10.0049
▁રોજ	-10.0052
▁ᱞᱟᱭᱚᱝ	-10.0053
આર	-10.0056
▁वहीं	-10.0056
ऐ	-10.0057
▁अयुम	-10.0057
▁थाहे	-10.0061
▁હો	-10.0065
वादी	-10.0069
il	-10.0071
मेंट	-10.0078
▁ᱮᱢᱟ	-10.008
▁सलाह	-10.0082
▁ᱚᱸᱰᱮ	-10.0088
▁शो	-10.0092
▁d	-10.0093
▁ᱥᱟᱹᱦᱤᱛ	-10.0094
▁भेज	-10.0094
▁ᱡᱟᱹᱨᱤ	-10.0095
▁निर्देश	-10.0095
लोर	-10.0103
▁संशोधन	-10.0108
▁मन्ता	-10.0108
▁મોટી	-10.0109
▁आन्द	-10.0111
▁બોલ	-10.0111
ion	-10.0115
▁वाह	-10.012
▁ब्र	-10.0125
▁ନା	-10.0126
▁बहु	-10.0126
▁किय	-10.013
ni	-10.0131
ंचे	-10.0131
▁ᱥᱳ	-10.0131
▁अरब	-10.0133
▁ᱛᱟᱹᱞᱤᱠᱟ	-10.0145
▁आपले	-10.0148
▁देवा	-10.0149
▁रसिका	-10.0155
વર	-10.0157
▁गैर	-10.0158
▁मई	-10.0165
▁खाता	-10.0166
▁कदी	-10.0168
▁सोमय	-10.0168
▁शरीर	-10.0168
▁ᱜᱟᱛᱮ	-10.0169
▁सपय	-10.0173
દી	-10.0176
दान	-10.0177
▁इने	-10.0179
▁सागर	-10.0183
ᱜᱼᱟ	-10.0183
▁इस्तेमाल	-10.0186
▁कटाई	-10.0186
▁पिता	-10.0188
▁1070425029_2_	-10.0191
▁ᱠᱩ	-10.0194
ओअ	-10.0198
▁F	-10.0199
▁ढ	-10.02
▁ᱮᱢᱚᱜ	-10.0205
▁ગુ	-10.0206
▁नेका	-10.0208
▁कुबेय	-10.021
▁03.05.25	-10.021
▁पड़हे	-10.0217
किन	-10.022
ंगे	-10.022
▁उपकरण	-10.0223
▁ᱠᱤ	-10.0227
▁ખેતરમાં	-10.0229
करण	-10.0233
▁सरल	-10.0237
▁समाप्त	-10.0238
▁दूसरी	-10.0247
es	-10.0247
▁आत्मनिर्भर	-10.0248
▁ᱫᱚᱲᱦᱟ	-10.0252
▁अपनअः	-10.0254
▁धूमधाम	-10.0256
▁આપે	-10.0257
▁संधी	-10.0259
▁54	-10.026
▁कथा	-10.0261
▁जवान	-10.0266
ᱨᱮᱱ	-10.0268
|	-10.0268
▁ᱥᱩᱨ	-10.0268
▁ᱚᱨᱥᱚᱝ	-10.0275
▁बह	-10.0276
▁म्हटले	-10.028
▁जागा	-10.0281
ત્ર	-10.0285
▁रु	-10.0287
▁उन्‍होंने	-10.0294
‍	-10.0294
▁जातो	-10.0295
▁સામે	-10.0299
?"	-10.03
▁संभावना	-10.0301
ᱯᱚ	-10.0302
▁દૂર	-10.0313
▁बढ	-10.0315
▁सोड	-10.0317
▁प्रभावी	-10.0317
▁अंतर	-10.0317
▁b	-10.0324
▁विरोध	-10.033
ᱡᱚ	-10.0342
▁समर्पित	-10.0345
▁संपूर्ण	-10.0358
v	-10.0364
▁दिखा	-10.0365
▁બેઠકમાં	-10.0366
▁મુજબ	-10.0369
▁मौजूद	-10.0371
बंध	-10.0373
▁f	-10.0374
▁64	-10.0377
▁अन्न	-10.0378
▁अच्छे	-10.0379
▁सुरुवात	-10.0379
▁ᱫᱚᱞ	-10.0393
▁बिरसा	-10.0394
ᱫᱚ	-10.0395
▁2022	-10.0397
▁પી	-10.0401
▁अधिनियम	-10.0407
▁बणी	-10.0409
▁નિર્ણય	-10.0412
▁संसद	-10.0416
डू	-10.0421
▁ᱜᱳ	-10.0423
▁યુ	-10.0432
▁अंतिम	-10.0432
-19	-10.0434
▁ᱠᱟᱱᱟᱭ	-10.0435
▁खरेदी	-10.0435
▁पैसा	-10.0439
▁ᱠᱷᱟᱥ	-10.0442
▁पेश	-10.0444
▁અહીં	-10.0445
▁भरपूर	-10.0447
कू	-10.0448
ેટ	-10.0448
▁दर्श	-10.0451
▁बाहेर	-10.0451
ᱟᱢ	-10.0451
▁येत	-10.0451
▁जाण	-10.0456
▁नाव	-10.0456
▁સિ	-10.0458
▁कीसोर	-10.047
बार	-10.0474
▁છ	-10.0477
▁इलाका	-10.0479
वास	-10.048
▁जू	-10.049
▁उससे	-10.0497
▁हुदी	-10.0511
▁बुनियादी	-10.0512
▁रेगे	-10.0521
ᱛᱚ	-10.0522
▁चू	-10.0523
ामध्ये	-10.0524
▁सन	-10.0525
▁ᱞᱟ	-10.0525
▁गर्मी	-10.0529
▁दुरङ	-10.0531
▁मौ	-10.0535
▁सत्र	-10.0541
▁लअः	-10.0542
B	-10.0544
▁अनाज	-10.0545
▁વધારવા	-10.0546
▁पुढे	-10.0546
▁મોટા	-10.0546
▁नव	-10.0547
▁સારી	-10.0549
▁गाँवों	-10.0556
ᱵᱮ	-10.0562
▁ᱫᱷᱟᱥᱟᱣ	-10.057
▁नेया	-10.057
▁વિચાર	-10.0586
निया	-10.0588
▁2015	-10.0589
કે	-10.0591
▁સે	-10.0594
▁शेती	-10.0594
▁कितना	-10.0597
▁महात्मा	-10.0604
ીઓ	-10.0605
ୀ	-10.0606
▁सशक्त	-10.0608
▁अगले	-10.0609
▁ખેડૂતો	-10.061
धन	-10.061
▁गैस	-10.0611
▁ભારતમાં	-10.0613
ତି	-10.0614
ल्‍	-10.0627
▁घेतला	-10.0627
ᱫᱷᱟ	-10.0629
चल	-10.0632
▁वालों	-10.0632
▁મેં	-10.0634
▁पोहोच	-10.0637
▁बजा	-10.0644
-2	-10.065
ियन	-10.0653
▁आग्रह	-10.0655
▁पड़ता	-10.0655
▁उठाने	-10.0657
▁लिखा	-10.0657
द्र	-10.066
▁तसेच	-10.0662
▁जां	-10.0672
▁जल्दी	-10.0673
▁साम	-10.0677
▁महसूस	-10.0681
▁73	-10.0683
▁ᱤᱱ	-10.0684
इञ	-10.0685
▁पकवान	-10.0685
▁ઇન્ડિયા	-10.0686
▁मेन्ते	-10.0686
▁ગયા	-10.0687
ଦୁ	-10.0694
कडून	-10.0695
▁ढंग	-10.0695
सार	-10.0701
र्ज	-10.071
▁મુલાકાત	-10.0711
▁ᱞᱟᱦᱟ	-10.0715
▁प्रयासों	-10.0719
જુ	-10.072
▁होनको	-10.0721
गम	-10.0722
हून	-10.0724
▁क्र	-10.0728
▁लु	-10.0729
▁साम्राज्य	-10.073
▁गाम	-10.0731
दुर	-10.0731
ଜୁ	-10.0732
▁ᱟᱡᱟᱨ	-10.0737
▁ପ	-10.074
▁इन्	-10.0743
▁કરવી	-10.0746
▁શરૂઆત	-10.075
▁Man	-10.0751
▁सुसुन	-10.0755
▁પોતાન	-10.0759
▁परिषद	-10.0763
7_30	-10.0764
▁ઉત્તર	-10.0765
▁स्‍	-10.0765
▁ક્ષેત્ર	-10.0767
▁76	-10.0771
▁मिअद्	-10.0777
▁गोवा	-10.0782
▁दाम	-10.0783
ରେ	-10.0785
▁आपकी	-10.0786
▁पं	-10.0786
▁रिया	-10.0789
▁लोःते	-10.0792
યો	-10.0798
▁शताब्दी	-10.0799
▁ᱫᱚᱦᱚᱭᱟ	-10.0802
▁बनाना	-10.0803
▁विधि	-10.0805
▁ᱡᱚᱢ	-10.0807
પ્ર	-10.0807
▁કરવાનો	-10.0814
▁लोकतंत्र	-10.0816
▁કરવું	-10.082
▁દેશના	-10.0822
▁सांग	-10.0824
▁જાહેર	-10.0824
▁जरूर	-10.0824
▁वातावरण	-10.0829
▁कब	-10.0829
▁हार	-10.083
▁सम्	-10.0832
▁छा	-10.0833
▁कितने	-10.084
▁जाहे	-10.0841
▁सम्मेलन	-10.0844
▁77	-10.0851
▁उड़ु	-10.086
डिया	-10.0862
▁ᱯᱮᱨᱮᱡ	-10.0864
▁रहें	-10.0864
ટા	-10.0869
▁खाने	-10.0873
▁ᱩᱫᱽᱜᱟᱹᱣ	-10.0873
▁एनतअः	-10.0877
▁બની	-10.0878
▁शिव	-10.0885
▁મંત્રાલય	-10.0888
अकन	-10.0896
ᱮᱞ	-10.0897
▁વ્યવસ્થા	-10.0903
▁आदर्श	-10.0904
▁કાર્ય	-10.0913
▁ત્રણ	-10.0913
▁करियो	-10.0913
ड्ड	-10.0915
▁त्यौहार	-10.0923
▁56	-10.0927
▁ᱥᱚᱱᱛᱚᱨ	-10.0928
▁तिनायी	-10.0929
िश	-10.0936
▁દેશમાં	-10.0937
टिंग	-10.0939
▁લાખ	-10.0944
▁सौर	-10.0945
▁माह	-10.0948
▁रद्द	-10.0955
▁ᱦᱚᱭᱦᱤᱥᱤᱫ	-10.0958
▁तुलना	-10.0958
▁पकड़	-10.096
▁सअः	-10.096
▁संवाद	-10.0962
▁मता	-10.0969
▁पहुँच	-10.097
▁स्थापन	-10.0972
nd	-10.0978
▁58	-10.0987
▁कुटुंब	-10.0987
▁अंग	-10.0992
ંડ	-10.0994
▁रुपया	-10.0998
▁2100	-10.1003
▁इच्छा	-10.1004
▁कोरोना	-10.1004
▁नवाचार	-10.1006
▁पीला	-10.1008
▁સંબંધિત	-10.1009
र्म	-10.1012
▁आसपास	-10.1014
▁दू	-10.1023
ंडी	-10.1023
▁राव	-10.1024
▁पूर्वी	-10.1025
!"	-10.1025
▁ᱡᱟᱝ	-10.1026
खी	-10.1026
ંત	-10.1033
▁भु	-10.1033
▁दिखाई	-10.1038
▁रुप	-10.1041
_09	-10.1044
▁2.	-10.1044
▁ᱵᱚᱱ	-10.1046
▁ᱯᱩ	-10.1047
▁ᱠᱮᱴᱮᱡ	-10.1049
▁લગભગ	-10.1054
ᱟᱨ	-10.1058
▁ᱵᱩᱡᱷᱟᱹᱣ	-10.1059
धार	-10.1062
▁निर	-10.1065
▁पुन	-10.1066
▁ᱦᱮ	-10.1067
वाय	-10.1067
▁नीचे	-10.1071
▁लगी	-10.1072
ᱢᱚ	-10.1073
▁ᱰᱤ	-10.1073
▁જાય	-10.1074
▁रेल्वे	-10.1075
▁मोह	-10.1078
अर	-10.108
▁मान्यता	-10.108
એફ	-10.1082
▁वताड	-10.1084
व्य	-10.1084
▁बाइ	-10.109
▁नेतअः	-10.1093
▁पल	-10.1095
▁સહયોગ	-10.11
▁पोशाक	-10.1105
ᱟᱹᱣ	-10.1105
▁राशि	-10.1109
▁ખર્ચ	-10.111
▁ᱦᱚᱨᱚᱜ	-10.111
रम	-10.1118
बेन	-10.112
▁દેશો	-10.1121
▁ग्यो	-10.1131
▁नाना	-10.1132
डर	-10.1133
जू	-10.1133
▁डेरा	-10.1136
▁ᱥᱨᱤ	-10.1136
▁करि	-10.114
ेगा	-10.1146
▁सक्षम	-10.1146
▁हमू	-10.1148
▁उर्वरक	-10.1151
▁ચર્ચા	-10.1151
▁तिनान	-10.1151
▁छात्रों	-10.1153
▁ଉ	-10.1153
▁आपका	-10.1155
▁जैव	-10.1155
▁78	-10.1156
▁कार्यक्रमों	-10.1162
ાં	-10.1174
D	-10.118
▁लक्ष	-10.1181
▁ग्या	-10.1184
en	-10.1187
▁पीछे	-10.1187
▁તપાસ	-10.1192
▁ᱮᱱ	-10.1195
▁आव	-10.1198
▁नही	-10.1199
▁साध	-10.1201
वाह	-10.1202
▁पहला	-10.1207
▁રો	-10.1207
▁डर	-10.1208
▁गुण	-10.1209
▁ᱪᱟᱸᱫᱚ	-10.1212
सू	-10.1216
▁ᱠᱟᱹᱢᱤᱭᱟᱹ	-10.1219
▁कहीं	-10.122
▁1144	-10.1223
▁पुरुष	-10.1228
▁सहायक	-10.1228
▁हिंदू	-10.1231
▁જેવા	-10.1233
▁आग	-10.1233
▁आद्	-10.1233
▁તૈયાર	-10.1233
ामुळे	-10.1234
▁खराब	-10.1238
ंब	-10.1242
▁फैसला	-10.1243
▁शकता	-10.1245
▁तइ	-10.1247
▁जनवरी	-10.1252
▁आयु	-10.1253
ᱠᱥ	-10.1257
नगर	-10.1258
तान	-10.1261
▁India	-10.1264
करी	-10.1268
▁સંરક્ષણ	-10.1269
oren	-10.1271
ेश	-10.1273
▁ᱪᱟᱪᱟᱞᱟᱣ	-10.1274
▁ᱫᱤᱞᱞᱤ	-10.1279
▁ᱵᱟᱭ	-10.1283
▁અંતર્ગત	-10.1285
▁ᱥᱟᱢᱟᱝ	-10.1285
▁लोकांना	-10.1287
▁सुंदर	-10.1298
▁ઘણા	-10.1298
▁ᱦᱤᱡᱩᱜ	-10.1299
ᱮᱫ	-10.13
व्या	-10.13
▁ᱵᱷᱤ	-10.1301
▁बैठकीत	-10.1303
▁अगस्त	-10.1307
▁पुल	-10.1308
ज़ा	-10.1312
▁उसमें	-10.1313
ંદ	-10.1314
▁देखी	-10.1315
▁छोटी	-10.1315
▁ଏଙ୍ଗା	-10.1318
▁संबोधित	-10.1321
ନେରୁ	-10.1324
માન	-10.1331
▁आती	-10.1336
▁धरोहर	-10.1337
▁ᱜᱮᱥᱟᱭ	-10.1338
▁બનાવવામાં	-10.1339
ᱛᱷ	-10.1341
કી	-10.1343
થા	-10.1347
▁टक्के	-10.1347
▁ᱧᱟᱢᱼᱟ	-10.1347
ମ୍ବା	-10.1351
ମ	-10.1355
▁જમીન	-10.1358
▁ᱱᱚᱣᱟᱫᱚ	-10.136
▁पाया	-10.137
▁साथियो	-10.1372
▁आकर्षक	-10.1373
▁ᱮᱱᱮᱡ	-10.1373
▁रस	-10.1374
तंग	-10.1376
ᱢᱚᱱ	-10.1376
ଦି	-10.1376
▁विदेशी	-10.1377
ment	-10.1385
▁in	-10.1387
▁મોદી	-10.139
यान	-10.1392
ताओं	-10.1392
O	-10.1393
सिंह	-10.1394
▁वाळां	-10.1395
▁मायना	-10.1399
▁वेळ	-10.1404
ણી	-10.1407
▁अध्ययन	-10.141
▁प्रमाण	-10.1414
▁पशु	-10.1414
ाइट	-10.1414
▁ᱵᱳᱭ	-10.1415
▁चिकित्सा	-10.142
▁ᱟᱞᱜᱟ	-10.142
ल्ड	-10.1429
th	-10.1431
▁होकर	-10.1434
ᱭᱟᱨ	-10.1435
▁जुड़ा	-10.1436
▁फूड	-10.1437
वालोर	-10.144
▁सिद्ध	-10.1441
▁बातें	-10.1443
ᱱᱚ	-10.1451
▁देशभर	-10.146
▁ᱜᱚᱢᱠᱮ	-10.1462
▁संस्कृत	-10.1468
न्ना	-10.1475
▁प्रतीक	-10.1475
▁होऊ	-10.1477
▁भूस्खलन	-10.1478
ol	-10.1479
▁तैनात	-10.1484
▁जयंती	-10.1486
એમ	-10.1487
▁जापान	-10.1489
▁ઘણી	-10.149
▁ᱵᱷᱟ	-10.1493
ᱤᱞ	-10.1494
एच	-10.1494
▁ᱠᱚᱢᱚᱜᱼᱟ	-10.1495
ଞ୍ଜୁ	-10.1506
▁उद्यान	-10.1507
▁मुन्ने	-10.151
▁वाद	-10.1511
▁उम्मीद	-10.1511
▁मिद्	-10.1517
स्ती	-10.152
ीच्या	-10.152
▁सुझाव	-10.1521
कोअः	-10.1524
▁हिसि	-10.1524
▁तेको	-10.1525
आप	-10.1526
દા	-10.153
▁ᱵᱚᱱᱫᱮᱡᱽ	-10.1535
▁ᱨᱮᱞ	-10.1535
ᱩ	-10.1535
▁रेओ	-10.154
▁ᱢᱤ	-10.154
▁तू	-10.1542
▁केंद्रित	-10.1544
▁पर्याप्त	-10.1547
▁निर्यात	-10.1548
मैं	-10.1549
तअः	-10.1551
▁ᱵᱳ	-10.1561
▁ખેતી	-10.1563
ହ	-10.157
is	-10.1571
▁ᱨᱟᱱ	-10.1574
▁एंगा	-10.158
▁ᱟᱨᱮᱞ	-10.1583
▁उगा	-10.1593
▁लाने	-10.1595
▁बढ़ती	-10.1596
ଡ଼େ	-10.1601
▁रम	-10.1607
▁D	-10.1608
▁रानी	-10.1615
▁मं	-10.1615
▁બનાવી	-10.1617
ᱜᱟ	-10.1619
▁दलों	-10.1627
▁जला	-10.163
कम	-10.1632
ताना	-10.1632
▁જનજાતિ	-10.1633
ି	-10.1633
ीर	-10.1633
▁पस	-10.1635
▁જળ	-10.1635
▁થયું	-10.1638
▁अलार्म	-10.1638
▁स्ट्रीट	-10.1643
▁मध्यप्रदेश	-10.1644
त्ता	-10.1651
प्त	-10.1652
▁अस	-10.1652
▁गलत	-10.1654
▁कू	-10.1655
िह	-10.1661
▁करोड	-10.1662
हम	-10.167
▁आंधी	-10.1671
कृत	-10.1674
▁ᱯᱟᱲᱦᱟᱣ	-10.1676
▁झाड	-10.1676
्त	-10.168
ᱭᱚ	-10.1682
▁ᱥᱟᱦᱟᱨ	-10.1682
▁समा	-10.1684
▁m	-10.1684
शु	-10.1685
▁ठेव	-10.1692
डवा	-10.1698
बद्दल	-10.1701
▁राजनीति	-10.1702
कोअ	-10.1707
▁वेह	-10.1711
▁कुलि	-10.1715
▁एफ	-10.1716
▁ପୁ	-10.1717
▁उत्तराखंड	-10.1724
▁ᱥᱟᱨᱦᱟᱣ	-10.1724
ટે	-10.1728
▁गेल्या	-10.1731
N	-10.1734
▁सेट	-10.1736
ath	-10.175
▁ᱜᱚᱡ	-10.1753
▁स्वातंत्र्य	-10.1762
▁गहरा	-10.1763
▁ᱜᱩ	-10.1766
▁अधिकांश	-10.1768
ଙ୍ଗେ	-10.1768
▁बैठ	-10.1768
▁बद	-10.1769
▁સેવા	-10.1769
▁एनते	-10.177
▁તેમાં	-10.1771
ତ	-10.1771
▁इनमें	-10.1772
▁ससंकिर	-10.1773
▁तिन	-10.1776
▁चुका	-10.1778
▁सुर	-10.1782
▁नन्‍ना	-10.1786
ᱢᱟᱱ	-10.179
ଟ	-10.179
▁तां	-10.1798
ाः	-10.1799
ତେ	-10.1799
वाला	-10.1803
रेदो	-10.1803
▁प्रसाद	-10.1806
▁ᱯᱟᱴᱟᱣ	-10.1811
अप	-10.1813
▁निजी	-10.182
ालय	-10.1823
▁कोसिस	-10.1825
ᱪᱟ	-10.1827
▁जागरूकता	-10.183
रत	-10.1832
गल	-10.1834
ગા	-10.1835
ધાર	-10.1835
▁भीतर	-10.1838
▁वरेह	-10.184
ᱱᱰ	-10.1841
▁ᱟᱭᱳ	-10.1841
▁ᱜᱟ	-10.1844
▁उद	-10.1846
્વ	-10.1855
▁ગામ	-10.1856
तू	-10.1857
યુ	-10.1858
▁छोटा	-10.1861
▁देखकर	-10.1868
▁ગો	-10.187
▁ᱟᱹᱜᱩ	-10.1872
▁अंतर्राष्ट्रीय	-10.1872
▁नर	-10.1872
क्‍	-10.1878
ેલ	-10.1879
▁85	-10.1879
▁E	-10.1885
▁नमोः	-10.1888
▁ᱛᱟᱠᱚᱣᱟ	-10.1889
▁બહાર	-10.1889
▁વ્યક્તિ	-10.1889
सल	-10.1892
▁आहोत	-10.1899
िता	-10.19
▁ᱠᱮᱜᱼᱟᱭ	-10.1901
▁स्क	-10.191
▁मैच	-10.1912
▁संबंधी	-10.1919
शील	-10.1922
▁:	-10.1926
▁फूल	-10.1931
▁ᱛᱮᱠᱚ	-10.1933
ड़िया	-10.1935
▁मारे	-10.1936
▁मुक्त	-10.1937
▁बजट	-10.1938
टक	-10.1943
र्थ	-10.1946
अन	-10.1947
▁बिनगा	-10.195
ᱠᱟᱨ	-10.1953
▁ᱠᱤᱨᱤᱧ	-10.1953
श्‍	-10.1954
▁ᱮᱱᱮᱢ	-10.1955
चित	-10.196
▁शिक्षक	-10.1968
▁असते	-10.1969
ाह	-10.1972
▁આરોગ્ય	-10.1977
▁ᱵᱚᱭᱦᱟ	-10.1977
▁नज	-10.198
▁मामलों	-10.1988
▁हां	-10.199
ाशी	-10.199
▁धा	-10.1991
पट	-10.1991
▁ᱯᱨᱚᱫᱮᱥ	-10.1998
▁कोअ	-10.1998
▁झा	-10.1999
▁ᱤᱛᱟᱹ	-10.1999
▁खोले	-10.2
▁मंजूरी	-10.2001
▁उनसे	-10.2016
धान	-10.2017
जर	-10.202
भाव	-10.2024
▁ଅଟେ	-10.2027
फे	-10.2029
▁मिलने	-10.203
ल्स	-10.2032
▁चालू	-10.2037
શા	-10.2037
ro	-10.2041
▁પ્રાપ્ત	-10.2049
▁दिल	-10.205
कान	-10.2058
▁ᱚᱠᱛᱮ	-10.206
▁कोविड	-10.2068
▁जैसा	-10.2076
▁मनो	-10.2076
ମେ	-10.2078
▁दिख	-10.2079
ण्यास	-10.2082
▁बोर	-10.2083
ર્ટ	-10.2085
▁રમત	-10.2087
▁ᱜ	-10.2089
▁ᱩᱱᱠᱩᱭᱟᱜ	-10.2093
▁बेटी	-10.2094
▁ઈ	-10.2095
▁बँक	-10.2096
▁અધિકારીઓ	-10.21
▁ᱟᱠᱟᱞ	-10.21
▁लोकसभा	-10.2101
▁सहभागी	-10.2115
▁कहना	-10.2115
▁ᱚᱠᱚᱭ	-10.2116
▁ᱦᱚᱭᱼᱦᱤᱥᱤᱫ	-10.2124
▁चर	-10.2138
▁ᱨᱮᱜᱮ	-10.2141
ભર	-10.2144
▁ओहे	-10.2145
ણા	-10.2149
ारा	-10.2152
ुआ	-10.2152
▁બદલ	-10.2155
ન્	-10.2157
ुन	-10.2158
गेअ	-10.2165
▁સાંસ્કૃતિક	-10.2167
▁लेन	-10.2169
▁लौट	-10.2173
from	-10.2175
▁અલગ	-10.2179
क्र	-10.2184
▁काजे	-10.2185
▁जाएगी	-10.2188
▁સિંહ	-10.2188
▁गोट	-10.2197
▁केना	-10.2197
▁काळात	-10.22
▁जाईल	-10.2207
E	-10.221
▁पुनर्	-10.2211
▁ताजा	-10.2212
▁san	-10.2213
▁पटेल	-10.2216
▁ᱯᱨᱚ	-10.2219
स्ता	-10.2222
▁पेयजल	-10.2224
ઘ	-10.2233
ज्ञ	-10.2234
एआ	-10.2236
▁यांचा	-10.2239
ेय	-10.224
अकना	-10.224
▁आतंकवाद	-10.2246
▁एनका	-10.2247
▁त्याच्या	-10.2251
▁राष्‍ट्रीय	-10.2257
न्‍द	-10.2259
जदा	-10.2259
▁ઉપ	-10.226
▁आबु	-10.2264
▁ᱠᱟᱹᱭᱫᱩᱥ	-10.2275
▁हिमाचल	-10.2275
▁उग	-10.2276
▁Corpus	-10.2281
▁ᱵᱟᱯᱞᱟ	-10.2287
ᱞᱳ	-10.2288
▁घट	-10.2289
▁मानक	-10.2292
▁दौड़	-10.2294
ध्य	-10.2296
▁आंतरराष्ट्रीय	-10.2298
▁ᱵᱮᱝᱠ	-10.2299
ᱵᱚᱨ	-10.2301
▁दड़ि	-10.2303
▁त्यामुळे	-10.2303
▁पट	-10.2309
▁अनोख	-10.2313
ᱥᱩ	-10.2317
▁मॉ	-10.2319
ପି	-10.232
▁अभ्यास	-10.2321
▁गांवों	-10.2321
▁अत्यंत	-10.2321
▁भोपाल	-10.2322
त्या	-10.2323
▁ᱥᱮᱱ	-10.2323
ur	-10.2324
▁पवित्र	-10.2327
▁द्वीप	-10.2327
मिन	-10.2338
▁વૈશ્વિક	-10.2339
▁परिवारों	-10.234
ीस	-10.2342
देह	-10.2343
▁मोका	-10.2344
▁આર્થિક	-10.2344
▁नअः	-10.2345
भाग	-10.2349
▁सेसेन	-10.2352
ट्स	-10.2353
▁अले	-10.2359
▁ᱚᱯᱷᱤᱥ	-10.2362
ᱚᱨ	-10.2363
▁मले	-10.2365
र्ण	-10.2366
▁एत	-10.2366
णाऱ्या	-10.2369
▁शिकायत	-10.2373
लां	-10.2376
▁स्‍व	-10.2377
▁चंद्र	-10.2387
▁સમાજ	-10.2393
लर	-10.2396
▁शिखर	-10.2397
▁समाचार	-10.2397
▁आभार	-10.2397
▁ᱵᱷᱟᱨᱚᱛᱤᱭᱚ	-10.2398
▁वसमा	-10.2413
▁नगेन	-10.2416
▁बनाते	-10.2417
▁રાખવા	-10.2418
ᱯᱟᱨ	-10.2423
▁कामि	-10.2427
▁उसको	-10.243
▁परियोजनाओं	-10.2431
▁शकतात	-10.2432
▁संसाधनों	-10.2432
▁स्प	-10.2436
ter	-10.2438
▁काको	-10.2442
▁पुन्हा	-10.2449
▁અભિયાન	-10.2449
▁આંતરરાષ્ટ્રીય	-10.2449
डल	-10.2449
▁पॉ	-10.2453
▁ma	-10.2461
▁स्थल	-10.2465
ગત	-10.2468
▁ᱡᱟᱹᱛᱤᱭᱟᱹᱨᱤ	-10.2472
िङ	-10.2477
▁तट	-10.2477
▁नेताओं	-10.2481
▁किला	-10.2487
▁कोड़ा	-10.2487
▁हड़म	-10.2487
▁मनाते	-10.2488
▁आकार	-10.2488
▁सकारात्मक	-10.2489
▁पहनत	-10.2493
तम	-10.2501
१	-10.2507
▁आद	-10.2508
▁चावल	-10.2509
▁विमान	-10.251
▁ᱯᱩᱥᱴᱤ	-10.2513
▁99	-10.2514
▁दिनचर्या	-10.2519
▁શકાય	-10.2519
▁सवा	-10.2523
▁सजा	-10.2529
▁मणिपुर	-10.253
▁काँग्रेस	-10.2536
▁ઉપલબ્ધ	-10.2536
▁व्यक्ती	-10.2538
इअ	-10.2544
▁તરફ	-10.2548
▁ठा	-10.2552
▁आत्म	-10.2554
▁ᱡᱩᱢᱤᱫ	-10.2554
તિ	-10.256
▁विश्वविद्यालय	-10.2564
▁स्वागत	-10.2566
▁इनिअः	-10.2566
में	-10.257
▁आसान	-10.2572
▁हुड़	-10.2573
▁પરિવર્તન	-10.2577
▁રાષ્ટ્રપતિ	-10.2578
▁᱓	-10.2586
▁सीट	-10.2597
▁मास	-10.26
▁जै	-10.2601
▁ᱜᱷᱩᱨᱱ	-10.2601
▁अध्यक्षता	-10.2601
▁त्याला	-10.2605
▁Murmu	-10.2605
▁लागे	-10.2607
▁ᱦᱟᱹᱨᱭᱟᱹᱲ	-10.2607
▁गृहमंत्री	-10.2608
▁होतो	-10.2611
रिंग	-10.2617
▁केंद्रों	-10.2623
▁हवामान	-10.2623
▁ᱯᱷᱩᱨᱜᱟᱹᱞ	-10.2625
▁मजा	-10.2628
▁पृथ्वी	-10.263
▁ᱱᱮᱴᱣᱟᱨᱠ	-10.2631
▁दुरगा	-10.2631
▁માર્ગ	-10.2631
▁ᱛᱤᱥ	-10.2632
सम	-10.2633
▁पार्क	-10.2633
▁काजि	-10.2636
▁आवास	-10.2641
▁સમાવેશ	-10.2643
▁मृत्यु	-10.2643
▁दान	-10.2647
▁धारा	-10.2653
न्तोर	-10.2655
▁રાજ	-10.2655
मुख	-10.2656
▁करताना	-10.266
▁परिस्थितियों	-10.2661
▁पीढ़ी	-10.2661
ब्र	-10.2672
▁સચિવ	-10.2672
▁जोड़ा	-10.2676
▁आपल्याला	-10.268
▁આપ	-10.2681
▁बेचने	-10.2684
▁घणो	-10.2684
खो	-10.2684
▁त्रिपुरा	-10.2684
▁ᱴ	-10.2685
▁યાદ	-10.2685
▁ટીમ	-10.269
▁सोरा	-10.2697
▁बौद्ध	-10.2702
▁ᱡᱳᱜᱟᱡᱳᱜᱽ	-10.2703
▁घणु	-10.2704
ઓની	-10.2707
▁ର	-10.271
T	-10.2711
▁लगाया	-10.2715
ᱵᱷᱟ	-10.2715
▁शे	-10.2718
▁हं	-10.272
▁पदार्थ	-10.2721
▁ᱱᱚ	-10.2724
िज	-10.2728
▁हातें	-10.2729
▁કોંગ્રેસ	-10.2732
▁ᱠ	-10.2733
▁नाटक	-10.2735
ବ	-10.2741
▁बातों	-10.2741
वृत्त	-10.2743
▁ओकोए	-10.2744
▁पत्नी	-10.2744
ᱰᱟ	-10.2745
▁सुख	-10.2746
▁जेतन	-10.2747
▁ସେ	-10.2748
▁प्रतियोगिता	-10.275
ଡି	-10.275
▁सत	-10.2751
▁पेर	-10.2753
▁शाम	-10.2754
▁ᱞᱟᱵᱷ	-10.2755
▁मेघालय	-10.2756
▁कोट	-10.276
▁समीक्षा	-10.2762
▁ट्रेन	-10.2763
▁भाइयों	-10.2766
▁देरी	-10.2769
▁ઝ	-10.2771
ad	-10.2774
ir	-10.2777
ंङ	-10.2778
▁दोस्त	-10.2779
▁सला	-10.278
▁दुख	-10.278
▁મંજૂરી	-10.2783
ण्‍ड	-10.2785
पत्र	-10.2792
▁घाट	-10.2792
▁संत	-10.2793
▁हमुं	-10.2795
▁ᱯᱟᱹᱛᱭᱟᱹᱣ	-10.2798
▁चेक	-10.2799
▁निर्धारित	-10.2804
ପ୍	-10.2805
▁कलाकार	-10.2806
▁बिसेस	-10.281
▁લઈને	-10.2815
▁राः	-10.2819
ेन्द्र	-10.282
▁मीटर	-10.2821
ce	-10.2821
▁મન	-10.2823
▁कितनी	-10.2823
▁काए	-10.2826
કર	-10.2827
▁रन	-10.2829
▁लहर	-10.2834
▁ᱥᱤᱛᱩᱝ	-10.2834
▁शैली	-10.2836
▁કહેવા	-10.284
ate	-10.2841
तूर	-10.2841
▁मंदर	-10.2846
▁रेको	-10.2846
▁સ્થાનિક	-10.2847
वली	-10.2848
िग	-10.2848
▁इनुङ	-10.2853
▁खावा	-10.2854
▁जुनी	-10.2863
▁करहे	-10.2876
▁95	-10.2877
ଡ଼	-10.2879
▁ᱥᱮᱴᱮᱨᱚᱜ	-10.2879
▁जीवनशैली	-10.2883
▁पहर	-10.2887
▁वास्तव	-10.2891
ात्मक	-10.2891
ગી	-10.2899
ପ	-10.29
▁वगर	-10.2901
▁जैन	-10.2903
▁चीज	-10.2904
▁500	-10.2905
▁पाच	-10.2907
▁मिलेगा	-10.2908
ક્સ	-10.2919
▁लड़की	-10.2924
ोल	-10.2927
▁खेलों	-10.293
फो	-10.2932
▁फ़	-10.2935
सोबत	-10.2937
▁जिंल्गी	-10.2938
ᱚ	-10.2938
▁बारि	-10.2939
▁પહોંચ	-10.2951
▁पिर्र	-10.2954
▁સમગ્ર	-10.2956
▁आन	-10.2957
ଙ୍ଗି	-10.2959
▁सरदार	-10.2962
ᱞᱟᱹ	-10.297
▁संदर्भ	-10.2971
▁वाच	-10.2971
▁ब्रिटिश	-10.2975
▁ᱡᱟᱭᱜᱟ	-10.2975
▁ᱴᱷᱟᱣ	-10.2975
▁सूर्य	-10.2975
▁हर्र	-10.2977
▁ᱵᱟᱦᱟᱞ	-10.2979
▁निरंतर	-10.2981
▁ડિજિટલ	-10.2981
▁ᱥᱟᱪᱟᱨᱦᱮᱫ	-10.2981
▁सेवाएँ	-10.2984
▁वस्तु	-10.2985
▁शाकाहारी	-10.2987
▁नरेन्‍द्र	-10.2993
रां	-10.2996
▁गट	-10.3002
▁किदु	-10.3005
▁इनकुअः	-10.3011
▁रै	-10.3012
निः	-10.3012
▁चरण	-10.3013
તુ	-10.3014
j	-10.3018
▁ᱟᱯᱱᱟᱨ	-10.3023
▁बेच	-10.3023
▁ᱥᱤᱝ	-10.3025
यना	-10.3027
्‍यों	-10.303
▁अली	-10.3031
िको	-10.3034
▁ᱥᱮᱛᱟᱜ	-10.3036
▁विधानसभा	-10.3036
▁शर्मा	-10.304
▁लोह	-10.3041
▁क्ल	-10.3045
▁મહિલાઓ	-10.3049
च्छ	-10.3051
▁पुरी	-10.3053
ेंट	-10.3058
▁लगाने	-10.3059
▁આયોજન	-10.3061
▁હશે	-10.3062
▁टेक	-10.3065
▁ᱵᱟᱪᱷᱱᱟᱣ	-10.3067
▁સ્વ	-10.3068
▁ᱵᱩᱨᱩ	-10.3074
र्ग	-10.3078
▁अमर	-10.3078
▁ᱛᱟᱞᱟ	-10.3079
▁मन्द	-10.308
▁तकनीकों	-10.3081
▁उर्वरता	-10.3086
▁ᱜᱩᱱᱢᱟᱱ	-10.3086
▁रेवा	-10.3086
▁घेण्या	-10.3089
▁નીતિ	-10.3089
ठी	-10.3091
▁बनाकर	-10.3092
▁शासक	-10.3094
▁ᱪᱮ	-10.3095
▁पुराने	-10.3095
▁पत्त	-10.3103
▁खिलाड़ी	-10.3106
त्र्प्रः	-10.3108
▁મંદિર	-10.311
▁अदालत	-10.311
▁मली	-10.3112
ાન	-10.3118
▁એમ	-10.312
लैंड	-10.3123
▁ᱵᱟᱨᱭᱟ	-10.3128
▁ᱱᱤ	-10.3133
▁ᱯᱟᱱᱛᱷᱟ	-10.3135
▁કર	-10.3136
as	-10.314
▁थोड़ा	-10.3141
ીએ	-10.3146
▁जानवरों	-10.3148
▁देशातील	-10.3153
ଡେ	-10.3154
▁स्वादिष्ट	-10.3154
▁राखवा	-10.3157
▁प्रचार	-10.3161
▁हिंदी	-10.3161
▁सैनिक	-10.3166
चो	-10.3168
▁दुकुरा	-10.317
▁ᱵᱤᱢᱟ	-10.3176
किंग	-10.3178
▁तम	-10.3184
ंदर	-10.3184
▁पात्र	-10.3185
▁सिक्किम	-10.3185
▁પરિવાર	-10.3187
नंतर	-10.3188
छा	-10.319
▁जिन्होंने	-10.3192
▁ભૂમિકા	-10.3192
ड़ों	-10.3199
▁ओळख	-10.3204
लेट	-10.3205
▁ᱵᱮᱵᱷᱟᱨ	-10.321
▁बाधित	-10.321
କେ	-10.3213
▁पौधे	-10.3214
▁ग्राहक	-10.3216
▁ᱠᱷᱚᱨᱚᱪ	-10.3217
▁ᱠᱷᱚᱛᱟᱱ	-10.3218
li	-10.3218
▁कोणत्याही	-10.3218
▁कॉ	-10.3221
मार	-10.3221
▁मेनकेदा	-10.3225
ᱨᱟᱢ	-10.3226
▁जाकर	-10.3226
▁अतिशय	-10.3236
▁बनने	-10.3241
ण्याचे	-10.3249
▁बाबा	-10.3254
पू	-10.3256
▁अनुकूल	-10.3261
▁वीडियो	-10.3268
▁जानी	-10.3274
▁અધ્યક્ષ	-10.3276
▁फे	-10.328
▁तोड़	-10.3281
▁નદી	-10.3282
▁आपे	-10.3283
ᱟᱹᱨ	-10.3285
▁तुसिङ	-10.3288
▁तमिल	-10.329
▁श्र	-10.3296
ेश्वर	-10.3298
નિ	-10.3299
▁टेस्ट	-10.3302
▁सारी	-10.3308
▁દક્ષિણ	-10.3312
भारत	-10.3315
▁जिसका	-10.3315
▁પોલીસ	-10.3318
ମୁ	-10.3321
▁तैयारी	-10.3326
▁भारतात	-10.333
▁ᱪᱤᱨᱜᱟᱹᱞ	-10.3331
▁ᱵᱤᱞᱚᱢ	-10.3331
एते	-10.3331
ᱤᱠ	-10.3332
▁ᱢᱮᱥᱟ	-10.3333
▁आपली	-10.3333
▁निवड	-10.3335
▁ગ્રામીણ	-10.3337
▁अवधि	-10.3339
ᱤᱱ	-10.3339
ह्	-10.3341
▁વેપાર	-10.3343
▁दूसरा	-10.335
▁मळ	-10.3353
▁रेदो	-10.3355
ᱤᱥ	-10.3355
▁विशिष्ट	-10.3356
▁चांगले	-10.3356
▁સંપૂર્ણ	-10.3356
▁राजनाथ	-10.3361
▁સહિત	-10.3364
संग	-10.3366
भी	-10.3367
▁જી	-10.3368
▁150	-10.3369
▁आण	-10.337
હા	-10.3371
युक्त	-10.3372
▁᱒	-10.3374
el	-10.3376
ेक	-10.3377
▁चक्र	-10.3378
▁फैल	-10.3379
▁વિશ્વાસ	-10.3382
▁ᱦᱚᱲᱠᱚ	-10.3383
▁દિલ્હી	-10.3387
▁ᱡᱳ	-10.3387
▁एशिया	-10.339
▁बाघ	-10.3392
देन	-10.3395
मल	-10.3399
▁મોદીએ	-10.3401
ᱪᱷ	-10.3402
▁એન	-10.3407
▁लोकगीत	-10.3408
▁तापमान	-10.3414
▁गोमके	-10.3414
िड	-10.3418
▁मुस्लिम	-10.342
▁एव	-10.3421
▁जुड़ी	-10.3423
▁ଗି	-10.3425
▁वेळी	-10.3428
▁सको	-10.3435
▁लख	-10.3435
▁કેવી	-10.3438
▁टु	-10.3438
लोः	-10.3445
▁पहुंचा	-10.3446
▁करणार	-10.3446
▁લઈ	-10.3448
am	-10.3455
▁ᱫᱩᱨᱡᱚᱠ	-10.3457
▁સંગીત	-10.3459
शे	-10.3459
ल्यानंतर	-10.3464
स्‍ट	-10.3467
▁ᱨᱤ	-10.3467
▁आमच्या	-10.3472
ᱫᱷᱚ	-10.3478
झा	-10.3478
हल	-10.3488
▁सहकारी	-10.3492
▁વર્ષે	-10.3495
▁मंत्र	-10.35
▁नुंग	-10.3502
▁મુ	-10.3505
▁पोर्टल	-10.3512
▁हट	-10.3513
▁सब्जियों	-10.3517
▁देखवा	-10.3517
▁ટ	-10.3521
▁कृष्ण	-10.3522
▁ᱱᱟᱜᱚᱨᱤᱠ	-10.3523
क्षा	-10.3525
▁विपणन	-10.3536
se	-10.3538
▁चै	-10.354
▁ᱵᱷᱟᱵᱽᱱᱟ	-10.3543
▁उपचार	-10.3546
कृषि	-10.3548
▁सुधारणा	-10.3549
ଣ୍ଡା	-10.3549
▁सदस्यों	-10.3551
▁भाजप	-10.3555
ତ୍	-10.356
᱕	-10.3562
▁વિસ્તારોમાં	-10.3563
▁करण्याचा	-10.3564
यार	-10.3564
▁बराबर	-10.3568
▁ભાજપ	-10.3575
▁शकत	-10.3578
▁ᱵ	-10.358
▁उड़	-10.3581
▁आत्मा	-10.3586
▁विधायक	-10.3588
▁વધી	-10.3591
ल्ली	-10.3593
▁हमला	-10.3598
દાર	-10.36
ᱫᱮ	-10.3604
▁मस	-10.3609
▁रचना	-10.3609
ौर	-10.361
▁जहाज	-10.361
स्प	-10.3615
ळे	-10.3618
सिंग	-10.3618
▁यामुळे	-10.3625
▁ଦେ	-10.3627
क्त	-10.3627
▁भवन	-10.3628
▁अगाडी	-10.3629
▁T	-10.363
न्ता	-10.363
▁કાર્યક્રમો	-10.3632
▁होनी	-10.3638
▁ᱩᱛᱛᱚᱨ	-10.364
▁किताब	-10.3642
▁माध्यमातून	-10.3643
ड़ु	-10.3644
न्त	-10.3645
▁औषध	-10.3658
ट्र	-10.3661
▁जद्	-10.3662
▁જિલ્લા	-10.3663
▁जोगव	-10.3664
▁घेऊन	-10.3668
▁विश्‍व	-10.3673
▁पत्थर	-10.3673
▁स्वतः	-10.3674
▁पढ़ा	-10.3674
ટ્ર	-10.3675
har	-10.3676
▁ઘ	-10.3679
▁कर्तव्य	-10.368
▁2012	-10.368
▁હે	-10.3683
ent	-10.3683
▁साह	-10.3685
▁असल्याचे	-10.37
▁बिक्री	-10.3701
विरोधात	-10.3701
▁कमजोर	-10.3703
त्री	-10.3704
▁ᱴᱮᱦᱟᱴ	-10.3706
▁भाषण	-10.3707
▁टीका	-10.3709
▁गरीबी	-10.3713
▁પૂર્ણ	-10.3719
▁अंतरिक्ष	-10.372
▁ᱡᱚᱲᱟᱣ	-10.372
▁असुरक्षित	-10.372
▁तिहुने	-10.3723
ेम	-10.3726
▁कईना	-10.3733
▁वताड़	-10.3736
▁सुमार	-10.3737
ଡ଼ାଇ	-10.3739
▁इनमा	-10.374
खे	-10.3743
ᱭᱮ	-10.3743
वले	-10.3744
▁चलता	-10.375
▁રોકાણ	-10.3753
▁आवासीय	-10.3756
▁રાષ્ટ્ર	-10.3759
▁रास्ते	-10.3759
▁ᱴᱤᱠᱟ	-10.3761
▁રા	-10.3763
▁શાહ	-10.3765
▁सड़कों	-10.3766
▁यांचे	-10.3766
▁g	-10.3766
▁ગઈ	-10.3767
▁ᱮᱞ	-10.3771
▁सीधे	-10.3775
▁કુ	-10.3778
▁समुद्री	-10.3778
▁आहार	-10.3784
▁बेहे	-10.3785
▁फैला	-10.3788
▁मौका	-10.3789
▁सेनो	-10.379
▁हमलोग	-10.3791
ᱪᱟᱨ	-10.3793
ाक	-10.3795
▁लगातिङा	-10.3799
▁गतिविधियों	-10.3801
▁लंबे	-10.3806
▁ચૂંટણી	-10.3806
ट्टा	-10.3806
▁देर	-10.3806
ᱳᱨ	-10.3807
▁इम	-10.3809
▁પ્રદેશ	-10.381
▁पूना	-10.381
च्च	-10.3822
▁एकत्र	-10.3824
▁नथी	-10.3826
▁संतुलित	-10.3826
▁शेतकऱ्यांना	-10.3827
સર	-10.3829
▁महत्त्व	-10.383
us	-10.3831
▁हटा	-10.3832
रक	-10.3834
▁સમુદાય	-10.3836
▁गोष्टी	-10.3839
▁અનુભવ	-10.3839
▁हमणे	-10.3841
क्या	-10.3847
▁ચાર	-10.3849
▁ᱛᱟᱦᱮᱸᱱ	-10.3849
ंवर	-10.3849
▁વધારો	-10.3853
▁त्रि	-10.3854
ૌ	-10.3863
▁ताजे	-10.3864
▁स्वामी	-10.3871
▁चुके	-10.3873
▁सबथी	-10.3874
▁भेळा	-10.3875
▁ᱨᱚ	-10.3878
▁खर	-10.3879
▁2013	-10.388
▁मंड	-10.3885
▁देशाच्या	-10.3886
▁बिन	-10.3888
▁Co	-10.3888
▁ରା	-10.3889
ᱥᱮ	-10.3891
वून	-10.3893
▁प्रिय	-10.3898
▁मसालों	-10.39
गड	-10.39
▁धोरण	-10.3901
▁लेदो	-10.391
▁गठन	-10.3913
▁ᱠᱚᱲᱟ	-10.3914
▁----	-10.3919
▁बयान	-10.3926
મો	-10.3927
ांग	-10.3927
यह	-10.3929
▁कायम	-10.3941
ઢ	-10.3945
षा	-10.3945
▁इलाज	-10.395
▁અંગે	-10.3961
जब	-10.3966
▁संकेत	-10.3967
▁पेड़ेः	-10.3971
कड़ा	-10.3979
प्रधानमंत्री	-10.3984
ार्थ	-10.3988
ᱟᱣ	-10.3989
हित	-10.3993
▁ક્ષમતા	-10.3994
▁आसानी	-10.3995
त्ती	-10.4001
▁मुलाकात	-10.4008
▁श्रीमती	-10.4008
▁ᱢᱳᱫᱤ	-10.4009
▁बदां	-10.4009
▁ବି	-10.4009
▁દુનિયા	-10.4015
▁राष्ट्रपती	-10.4015
केट	-10.4022
तिङ	-10.4024
यक	-10.4026
ତାରି	-10.4026
ᱱᱟᱜ	-10.4033
▁મુખ્યમંત્રી	-10.4035
ंडे	-10.4047
▁कठिनाइयाँ	-10.4056
▁ᱡᱟᱣᱜᱮ	-10.4056
▁टि	-10.4061
▁प्रतिभा	-10.4061
दास	-10.4062
▁કાર્યક્રમ	-10.4063
पद	-10.4069
ve	-10.4074
गांव	-10.4077
▁200	-10.4078
▁असो	-10.4084
▁तंत्र	-10.4088
▁अइञअः	-10.4089
ᱫᱷ	-10.409
େ	-10.409
▁कर्म	-10.4094
ष्ठ	-10.4098
▁2011	-10.4104
▁ᱢᱳᱵᱟᱭᱤᱞ	-10.4104
▁काट	-10.4106
▁करेल	-10.4107
ᱣᱟᱨ	-10.411
ᱠᱩ	-10.4115
▁ᱱᱚᱸᱰᱮ	-10.4115
▁ᱡᱚᱭᱵᱤᱠ	-10.4117
ᱢᱮ	-10.412
▁सार	-10.4124
▁ᱨᱟᱵᱟᱝ	-10.4124
▁ᱫᱟᱲᱮᱭᱟᱜ	-10.4128
▁ମ	-10.4128
▁खिला	-10.413
वाई	-10.4131
ᱬ	-10.4131
▁वार्षिक	-10.4131
▁બો	-10.4133
▁માનવ	-10.4134
▁ᱰᱟ	-10.4136
ଦ	-10.4136
▁स्थानिक	-10.4137
▁सांसद	-10.4145
▁ᱡᱟᱠᱟᱛ	-10.4145
સે	-10.4146
▁राहुल	-10.4146
▁मुगल	-10.4148
▁बहन	-10.4151
▁कल्पना	-10.4152
▁वाय	-10.4154
ତାନି	-10.4154
ଗି	-10.4156
▁बीमारी	-10.4157
▁अपुना	-10.4157
▁राजगढ़	-10.417
▁સેવાઓ	-10.4171
▁देखो	-10.4171
▁આવેલા	-10.4172
▁मग	-10.4173
ंडर	-10.4174
िला	-10.4182
▁ᱵᱮᱯᱟᱨᱤᱭᱟᱹ	-10.4183
▁ᱩᱯᱟᱹᱭ	-10.4187
▁रयो	-10.4192
▁चुनौती	-10.4193
▁शादी	-10.4196
▁शैक्षणिक	-10.42
▁चो	-10.4201
रूम	-10.4203
▁पोस्ट	-10.4206
▁લીધો	-10.4207
▁कुला	-10.421
ायला	-10.4213
સ્ત	-10.4213
▁ᱤᱱᱰᱤᱭᱟ	-10.4214
રાજ	-10.4217
▁भारतातील	-10.4217
▁राज्यपाल	-10.4219
▁ઘર	-10.4222
▁झेलन	-10.4222
व्ही	-10.4227
▁बुढ़िया	-10.4228
▁युवक	-10.4228
▁स्वतंत्र	-10.4229
▁सिंगि	-10.4233
▁नेकन	-10.4237
▁વ્યક્ત	-10.424
holan	-10.4249
▁कठिनाई	-10.4251
गन	-10.4253
ᱭᱩ	-10.4256
▁थई	-10.4256
▁नमो	-10.4257
▁दुल	-10.4258
▁सरकारने	-10.4259
ॉल	-10.4261
▁अंदर	-10.4265
ूल	-10.4265
▁તેણે	-10.4265
્ત	-10.4268
▁સમજૂતી	-10.427
▁विकेट	-10.4274
▁धरम	-10.4274
▁बू	-10.4277
ᱭᱟᱱ	-10.4277
ᱯᱮ	-10.4277
▁महत्त्वपूर्ण	-10.4278
▁अक	-10.4281
ટર	-10.4284
▁गोल	-10.4288
na	-10.4289
▁ᱠᱟᱹᱴᱤᱡ	-10.4298
▁બંધ	-10.4299
▁सत्ता	-10.43
▁ची	-10.43
▁સંશોધન	-10.4312
नाम	-10.4315
चन	-10.4316
▁फिटनेस	-10.4319
▁ગાંધી	-10.4319
▁वारसा	-10.4324
▁नवंबर	-10.4326
▁કરવો	-10.4327
▁ᱮᱢᱚᱜᱼᱟ	-10.4329
▁सिखा	-10.4333
▁आबादी	-10.4333
▁अनुमति	-10.4333
▁हॅू	-10.4337
▁असून	-10.4341
क्रम	-10.4345
▁શક્તિ	-10.4346
हरा	-10.4347
त्रा	-10.4349
जल	-10.4353
▁ଗିବା	-10.4358
▁तेगे	-10.4361
▁ᱴᱟᱲᱟᱝ	-10.4361
▁सदी	-10.4363
▁સદી	-10.4364
▁पन	-10.4365
▁त्‍या	-10.4366
▁देणे	-10.4369
▁करण्याच्या	-10.4375
G	-10.4375
▁अटल	-10.4382
ବେ	-10.4384
▁दर्शन	-10.4389
▁सरकारच्या	-10.439
▁इतनी	-10.4404
मेन	-10.4404
▁असली	-10.4404
▁परीक्षण	-10.4411
▁આપ્યું	-10.4411
▁વે	-10.4413
▁प्रकरण	-10.4414
▁પસંદ	-10.4417
▁લખ	-10.4418
यल	-10.4421
▁રાજ્યો	-10.4424
▁ନି	-10.4426
▁बचाने	-10.4427
▁उड़ुङ	-10.4428
क़	-10.443
▁ᱫᱩᱨᱤᱵᱽ	-10.4432
▁कहने	-10.4438
▁पड़ीं	-10.4438
▁રિ	-10.4438
▁નૃત્ય	-10.4439
▁જાણ	-10.4439
▁किनारे	-10.444
▁दाल	-10.4446
मत	-10.4447
ાઉ	-10.4447
▁नारी	-10.4449
▁उद्यम	-10.4449
▁कोर्ट	-10.445
बाबत	-10.4455
▁हन	-10.4456
▁चुकी	-10.4457
▁ᱠᱷᱮᱞᱚᱸᱰ	-10.4466
▁भे	-10.4467
स्त्र	-10.4469
▁शतक	-10.4473
▁कठिन	-10.4474
000	-10.4477
▁देकर	-10.4478
▁निगम	-10.448
ाज	-10.448
।”	-10.448
▁संरचना	-10.4482
x	-10.4487
▁;	-10.4488
▁कॅ	-10.4488
▁પો	-10.4494
▁पहुँचने	-10.4494
▁वाहन	-10.4497
▁होबाओः	-10.4498
ेली	-10.4499
▁तिहुयी	-10.45
▁ઊર્જા	-10.4503
▁ओकोनअः	-10.4505
▁रोकोम	-10.4506
▁વખતે	-10.4507
▁कक्षा	-10.4508
क्क	-10.451
એન	-10.4511
▁बुजुर्ग	-10.4513
▁लघु	-10.4518
▁बणावे	-10.4519
▁તાલીમ	-10.4532
vised	-10.4538
રૂપ	-10.4538
▁चेतन	-10.4542
▁સુધારો	-10.4546
▁फायदो	-10.4546
▁विशाल	-10.4546
▁બીજ	-10.4546
हाना	-10.455
▁ᱠᱷᱟᱱ	-10.4557
▁बिचर	-10.4557
▁ᱞᱮᱱᱟᱭ	-10.4559
ર્મ	-10.4561
▁घेत	-10.4563
▁ମୁ	-10.4565
▁इनां	-10.4566
▁खत्म	-10.4568
त्मक	-10.4569
▁नेग	-10.4569
▁સ્થિતિ	-10.4575
▁जित	-10.4579
▁तुम्हें	-10.4582
▁नियुक्त	-10.4585
▁जद	-10.4586
▁दृष्टिकोण	-10.4589
▁ᱵᱤᱨᱩᱫᱷ	-10.4589
▁शिक	-10.4601
▁પહેલ	-10.4602
यासारख्या	-10.4607
▁ᱥᱤᱵᱤᱞ	-10.4611
ર્ક	-10.4612
▁किती	-10.4612
▁चयन	-10.4617
▁नाहीत	-10.4619
ल्ट	-10.463
ᱰᱩ	-10.4632
▁आर्	-10.4635
▁आयोजनों	-10.4639
▁तारीख	-10.464
▁इतने	-10.464
ani	-10.4643
▁मंत्रालयाने	-10.4644
▁શહેર	-10.4645
▁विधेयक	-10.4647
चु	-10.4648
▁चाह	-10.4649
▁उड़ुः	-10.465
म्म	-10.465
ᱫᱷᱤ	-10.4651
▁ᱡᱮᱜᱮᱛ	-10.4655
▁कपड़े	-10.4657
▁निवास	-10.4672
▁पंतप्रधानांन	-10.4672
▁સ્થિત	-10.4675
▁सत्य	-10.4675
▁आख	-10.4678
वां	-10.4678
▁श्रेणी	-10.4684
▁वर्	-10.4686
▁ताइकेना	-10.4691
▁દેશવાસીઓ	-10.4691
र्व	-10.4694
▁पाए	-10.4695
▁आयी	-10.4696
▁परत	-10.4698
ᱤᱭᱟ	-10.4698
▁जुलाई	-10.4698
▁जाएं	-10.4698
ଲ୍	-10.4701
ેશ	-10.4701
ᱤᱧ	-10.4706
वला	-10.4707
▁સરકારે	-10.4711
▁हुलङ	-10.4711
▁अञ	-10.4712
te	-10.4714
▁वही	-10.4715
▁गुरू	-10.4715
ᱛᱩ	-10.4715
▁ચે	-10.4716
હે	-10.4717
▁अपेक्षा	-10.4719
▁ᱫᱩ	-10.4722
▁कागेत	-10.4726
▁ठर	-10.4726
કલ	-10.4727
▁भ्रष्टाचार	-10.4727
▁विवाद	-10.4734
▁प्रतिक्रिया	-10.4735
▁ᱢᱟᱱ	-10.4744
▁देशात	-10.4746
▁સરકારી	-10.4748
▁शेतकऱ्यां	-10.4749
▁सुलभ	-10.4749
ᱯᱷᱤ	-10.4754
▁પશ્ચિમ	-10.476
▁सतत	-10.4761
शास्त्र	-10.4762
▁ᱞᱟᱛᱟᱨ	-10.4764
ᱜᱷ	-10.4768
▁ତି	-10.4769
टू	-10.477
क्की	-10.4771
▁दम	-10.4771
▁ᱛᱚᱠᱷᱚᱱ	-10.4772
ण्याच्या	-10.4772
▁સેના	-10.4773
▁नोट	-10.4779
▁मुर	-10.4782
ul	-10.4784
▁बाकी	-10.4784
▁गण	-10.4786
▁મંડિમાં	-10.4786
▁कंपनियों	-10.4787
▁कायदा	-10.4791
▁पश्चिमी	-10.4791
▁ट्र	-10.4792
▁आह	-10.4792
▁शाही	-10.4795
▁अंक	-10.4797
▁सहा	-10.4797
▁करियु	-10.4799
म्‍ब	-10.48
▁घोषित	-10.4801
ર્સ	-10.4801
▁वितरण	-10.4801
▁ᱛᱟᱞᱟᱨᱮ	-10.4802
दीप	-10.4803
▁यश	-10.4804
▁प्रा	-10.4809
▁लकड़ी	-10.4809
▁संस्थानों	-10.481
▁इर्र	-10.4811
▁खतरनाक	-10.4816
▁आना	-10.482
▁मइन	-10.4822
▁લોક	-10.4823
▁स्थिर	-10.4823
▁બાળકો	-10.4824
▁अनुदान	-10.4824
▁हूड़	-10.4826
ᱦᱚᱸ	-10.4828
▁समझौता	-10.483
▁મહત્વ	-10.4845
▁जरिए	-10.4847
▁शेर	-10.4847
▁डिश	-10.485
▁मोकल	-10.4852
ियर	-10.4855
▁कहके	-10.4858
▁कविता	-10.4865
▁रुपयां	-10.4866
▁અપ	-10.4869
▁देंगे	-10.4872
रिक	-10.4873
बै	-10.4873
बहुत	-10.4873
यत	-10.4875
▁चिमिनङ	-10.4879
ડે	-10.4882
▁अमेरिकी	-10.4882
▁घरेलू	-10.4882
▁પૂર	-10.4888
▁शीर्ष	-10.489
ᱨᱚᱱ	-10.4891
▁ᱦᱚᱨᱚᱜᱟ	-10.4895
▁ᱴᱤ	-10.4895
▁रहना	-10.4896
▁ᱠᱷᱚᱵᱚᱨ	-10.4897
▁कस	-10.4901
ाइल	-10.4909
▁देवता	-10.491
▁જવા	-10.4911
▁પ્રદર્શન	-10.4919
▁मछली	-10.4919
▁संग्रह	-10.492
▁अनुसूचित	-10.4927
▁करण्यास	-10.4927
▁अपील	-10.493
▁किन	-10.4938
▁બને	-10.4939
ड़क	-10.4948
▁ખેડૂત	-10.4951
▁થવા	-10.4954
▁re	-10.4959
▁ᱚᱰᱚᱠ	-10.4964
▁उम्र	-10.4964
▁गर	-10.4967
ांशी	-10.497
▁લા	-10.497
रान	-10.4974
▁शेतकरी	-10.4979
▁जिनमें	-10.498
ᱦᱮ	-10.4982
▁ᱵᱟᱰᱟᱭᱟ	-10.4983
▁વિભાગ	-10.4985
धे	-10.4987
▁प्यार	-10.4987
▁समस्याओं	-10.4988
▁ᱵᱟᱹᱧ	-10.4995
▁बरस	-10.4997
▁માળખા	-10.5002
▁साबित	-10.5006
▁धीरे	-10.5006
▁सूत्रों	-10.501
ଡୁ	-10.5015
त्यांची	-10.502
्‍यु	-10.502
me	-10.5026
धर	-10.5031
ll	-10.5033
▁डगरां	-10.5036
▁मनख	-10.5041
▁રામ	-10.5047
▁थायो	-10.5052
-8-	-10.5052
▁औद्योगिक	-10.5055
▁સંસ્થાઓ	-10.5056
▁ᱜᱟᱱᱚᱜᱼᱟ	-10.5058
तः	-10.5058
▁ମି	-10.5059
▁चाय	-10.5061
▁विद्युत	-10.5062
▁जनव	-10.5063
ᱦᱩ	-10.5065
▁भाजी	-10.5067
▁छात्र	-10.5073
▁त्र्प्र	-10.5077
▁पोरोब	-10.5077
ॉन	-10.5079
▁निर्भर	-10.5079
▁maia	-10.5079
ચા	-10.5081
▁याव्यतिरिक्त	-10.5082
▁મળશે	-10.5085
▁ᱥᱩᱨᱥᱩᱯᱩᱨ	-10.5085
द्य	-10.5088
ज्ज	-10.5091
पत	-10.5092
▁हरि	-10.5093
▁संबंधों	-10.5093
▁फोटो	-10.5094
‘	-10.5096
▁સહાય	-10.5099
▁પ્રયાસો	-10.5099
▁क्रीडा	-10.51
▁जानता	-10.51
▁कधी	-10.5102
▁आकर्षित	-10.5107
▁तयोमते	-10.5108
▁मॉडल	-10.5108
▁આવક	-10.5108
▁असतात	-10.5109
ूँ	-10.511
્મ	-10.5112
▁Ki	-10.5115
▁लें	-10.5122
▁लद्दाख	-10.5123
▁લાગે	-10.5123
▁लोकु	-10.5124
▁ᱟᱠᱟᱫᱟᱭ	-10.5124
▁जांन	-10.5127
▁સર	-10.5128
नह	-10.5133
▁बच	-10.5134
▁ᱦᱤ	-10.5135
▁तरा	-10.5136
▁वालो	-10.5137
▁यादव	-10.5138
▁इलाकों	-10.5138
▁अस्थायी	-10.5146
▁बदलि	-10.5148
श्र	-10.5148
▁भि	-10.5149
▁मनाया	-10.5149
▁मोन	-10.515
ang	-10.5152
लं	-10.5152
▁सर्वोच्च	-10.5153
▁बाग	-10.5155
▁मनाए	-10.5155
▁संतुलन	-10.5161
▁છોડ	-10.5162
▁1.	-10.5162
▁जेटली	-10.5168
રણ	-10.5169
▁સંસ્કૃતિ	-10.5169
स्ट्र	-10.5169
▁ᱵᱩ	-10.5171
▁आये	-10.5172
▁प्रवास	-10.5173
▁उद्	-10.5173
▁मुश्किल	-10.5176
▁रीते	-10.518
▁त्‍यो	-10.5183
▁सद	-10.5184
▁સતત	-10.5184
▁દેશની	-10.5193
▁पर्यंत	-10.5194
▁शेयर	-10.5195
શો	-10.5196
▁करया	-10.5199
▁વરસાદ	-10.5199
▁प्रजा	-10.5199
▁ᱪᱚ	-10.5202
इंग	-10.5204
ᱟᱹᱭ	-10.5205
▁इव	-10.5206
▁ᱨᱟᱡᱽ	-10.5211
▁करवानी	-10.5213
▁સમયે	-10.5213
ानुसार	-10.5213
▁डु	-10.5218
ળી	-10.522
ᱠᱳ	-10.522
ᱨᱤᱭᱟ	-10.522
तों	-10.5221
▁ઉદ્યોગ	-10.5222
▁ᱦᱟᱯᱛᱟ	-10.5222
▁कारोबार	-10.5222
ᱮᱢ	-10.523
▁बढावा	-10.523
▁ગયો	-10.5231
▁पत	-10.5231
▁क्षेत्रीय	-10.5234
ँड	-10.5237
▁गोक	-10.5237
▁भेला	-10.5239
लय	-10.5239
સં	-10.5243
रंग	-10.5247
ᱲᱟ	-10.5247
बहनों	-10.5255
▁સભ્યો	-10.5255
▁नुं	-10.526
▁घाटी	-10.5262
ોનો	-10.5267
▁ગા	-10.5268
▁जाणकारी	-10.5273
▁ᱡᱮᱞᱮᱠᱟ	-10.5276
▁પડે	-10.5277
▁टन	-10.5278
▁यांची	-10.5282
▁झील	-10.5282
▁मत्ता	-10.5283
मू	-10.5289
▁ᱫᱚᱥᱟᱨ	-10.5291
▁अग	-10.5295
्वा	-10.5295
▁सोमोय	-10.5299
▁રેલવે	-10.5299
▁कैसा	-10.53
▁भण	-10.5303
कोम	-10.531
▁पैर	-10.5314
वण	-10.5315
▁ट्रे	-10.5317
ॉट	-10.5321
▁दिशेने	-10.5322
ियत	-10.5323
હિ	-10.5326
▁ᱥᱟᱹᱨᱤ	-10.5326
▁ᱮᱢᱟᱱ	-10.5327
▁आइ	-10.5329
▁પાંચ	-10.5331
▁સામાજિક	-10.5338
▁સરળ	-10.5339
▁मुनु	-10.5341
▁માં	-10.5343
▁ᱥᱟᱛᱟᱢ	-10.5346
▁फै	-10.5349
▁ᱢᱟᱱᱟᱣ	-10.535
सारख्या	-10.535
▁मौत	-10.5351
▁जाओ	-10.5352
▁ᱵᱷᱮᱱᱮᱜᱟᱨ	-10.5354
▁म्हणजे	-10.5365
▁हाय	-10.5367
▁बणाव	-10.5368
▁बच्चा	-10.5369
ହି	-10.537
▁सिबिल	-10.537
▁जिम्मेदारी	-10.5372
हान	-10.5374
▁जरुड़ु	-10.5377
▁हिमालय	-10.5377
▁दूरी	-10.5379
▁इनके	-10.538
▁जिनमा	-10.5381
બે	-10.5381
▁घु	-10.5384
▁बदी	-10.5384
▁खंड	-10.5387
▁घरों	-10.5389
▁चिअः	-10.5391
▁बजाय	-10.5392
▁કાયદા	-10.5393
ख्	-10.5399
▁घास	-10.5399
▁फ्र	-10.5399
▁मुक	-10.54
▁जेता	-10.5406
▁મહિલા	-10.5407
▁ᱯᱟᱸᱡᱟ	-10.5408
▁अड्डे	-10.5408
▁ᱫᱟᱣ	-10.5412
▁ખેડૂતોને	-10.5413
▁ड्र	-10.5415
▁गेला	-10.5416
▁ᱤᱭᱩ	-10.5419
▁᱒᱐᱐	-10.5421
▁/	-10.5422
▁शिल्प	-10.5424
▁लोगो	-10.5425
▁प्राथमिक	-10.5426
ᱵᱚᱱ	-10.5428
▁᱕	-10.5431
पण	-10.5431
સ્થાપિત	-10.5432
▁ᱛᱷᱚᱱᱚᱛ	-10.5432
-2.0-1	-10.5436
▁ᱠᱩᱥᱤᱭᱟᱜ	-10.5439
▁ᱡᱟᱹᱛᱤ	-10.5439
▁आह्वान	-10.544
▁विकल्प	-10.5441
आते	-10.5445
▁କୁ	-10.5451
▁કરીએ	-10.5459
▁बागवानी	-10.5464
᱐	-10.5469
▁कार्	-10.547
▁उमर	-10.5471
▁अक्टूबर	-10.5471
▁પ્રક્રિયા	-10.5479
▁ᱥᱟᱢᱚᱨᱤᱠ	-10.5479
▁स्पर्धा	-10.5479
▁वायु	-10.5479
▁नाच	-10.548
ीने	-10.5481
मेअ	-10.5481
रूप	-10.5482
▁बणे	-10.5483
▁ᱡᱚᱥ	-10.5487
▁इदेक	-10.549
▁जम	-10.5493
▁संस्कृती	-10.5494
▁जकेद्	-10.5494
▁दया	-10.5499
▁विधान	-10.5499
केद्	-10.5502
▁ᱥᱟᱶᱛᱟᱠᱤᱭᱟᱹ	-10.5503
▁ᱦᱳ	-10.5503
▁पीट	-10.5504
▁व्य	-10.5509
▁उदय	-10.5512
▁झाल्या	-10.5512
▁लाइन	-10.5517
▁पंच	-10.5517
▁सबको	-10.5521
▁पूछा	-10.5523
▁ज्यात	-10.5524
▁ᱪᱟᱞᱟᱜᱼᱟ	-10.5524
▁दावो	-10.5525
▁RE	-10.5527
▁आवेदन	-10.5527
▁अटकर	-10.553
▁લો	-10.5532
▁ओना	-10.5535
२	-10.5536
▁तमारी	-10.554
▁नौकरी	-10.5544
▁જન	-10.5545
▁हरी	-10.5549
▁बं	-10.5549
▁होबाओआ	-10.5553
▁विक	-10.5554
▁निर्मिती	-10.5556
▁દાવો	-10.5559
ાર	-10.5559
▁સમજ	-10.5562
▁कागज	-10.5572
▁रआः	-10.5575
विक	-10.5576
ચી	-10.558
▁ᱪᱟᱞᱟᱣᱮᱱ	-10.5585
वों	-10.5586
▁म्हण	-10.5594
्ता	-10.5596
▁વાનગીઓ	-10.5596
▁હોવા	-10.5597
▁वॉ	-10.5598
▁वंश	-10.5601
▁वस्त्र	-10.5603
▁ᱱᱤᱛ	-10.5604
▁વધારે	-10.5606
▁મિશન	-10.5606
▁काइङ	-10.5606
▁अगु	-10.5608
▁मोठी	-10.5608
▁સૌ	-10.5609
▁तइनोः	-10.5613
▁પ્રદાન	-10.5614
▁मरा	-10.5618
▁मध्यम	-10.5619
वारी	-10.5622
ᱟᱹᱨᱤ	-10.5622
▁ᱠᱷᱚ	-10.5624
▁मिद	-10.5624
ाधिकार	-10.5627
▁ऑस्ट्रेलिया	-10.563
रस	-10.5632
▁from	-10.5634
▁चलो	-10.5635
▁रूपये	-10.5636
▁दौरा	-10.5636
▁दुर्	-10.5637
▁रेआः	-10.5637
▁પાકિસ્તાન	-10.5638
▁એસ	-10.5638
▁एनाते	-10.5641
▁દુ	-10.5641
▁पोलिस	-10.5646
▁દા	-10.5647
▁पेट	-10.5651
▁आकर	-10.5652
▁સારું	-10.5654
▁ᱱᱟᱹᱭ	-10.5654
▁ᱥᱚᱨᱮᱥ	-10.5654
▁मंज	-10.5655
▁लागेल	-10.5657
▁ढा	-10.5661
નાર	-10.5663
▁लै	-10.5664
▁उपुन	-10.5665
▁समृद्धि	-10.5675
कभी	-10.5675
▁मालिक	-10.5676
क्शन	-10.5677
▁ବ	-10.568
▁सरकारों	-10.5685
▁યાત્રા	-10.5686
▁अय	-10.5688
▁दाखव	-10.569
किल	-10.5691
▁अएअः	-10.5691
▁रुकावट	-10.5694
ઓના	-10.5695
▁ᱦᱤᱡᱩᱜᱼᱟ	-10.5696
▁पक्षी	-10.5697
▁ᱞᱤ	-10.5699
▁जुवान	-10.57
▁વર્ગ	-10.5701
▁अशोक	-10.5702
up	-10.5706
▁घंटे	-10.571
▁તહેવારો	-10.5713
ावा	-10.5714
▁लाइ	-10.572
उन	-10.5721
▁ᱜᱮᱞ	-10.5721
▁अकोअः	-10.5724
▁ᱰᱮ	-10.5725
▁આનંદ	-10.5726
▁किले	-10.5727
▁उत्तम	-10.5727
▁ᱢᱚᱦᱟ	-10.5727
▁अपराध	-10.573
ᱛᱷᱟ	-10.5732
करून	-10.5733
▁लोन	-10.5735
▁સંસ્થા	-10.5737
▁शुल्क	-10.5742
▁बढ़े	-10.5745
▁...	-10.5749
एंगे	-10.575
कोरे	-10.5751
न्य	-10.5756
▁ᱦᱩᱲᱩ	-10.5759
▁एच	-10.5759
▁सोशल	-10.5759
▁एं	-10.576
▁कद	-10.5767
ᱠᱟᱹ	-10.5772
▁करयु	-10.5772
▁गुन	-10.5776
कता	-10.5777
▁આઇ	-10.5778
▁आराम	-10.5779
दूर	-10.5782
▁गेंद	-10.5787
▁साथियों	-10.5789
▁वर्णन	-10.5789
▁ᱠᱷᱟ	-10.579
▁प्रदर्शित	-10.5791
▁सारा	-10.5793
▁कमा	-10.5796
▁बॉ	-10.5797
द्द	-10.5798
गढ	-10.5801
▁जेल	-10.5803
हला	-10.5806
▁बोरो	-10.5807
ଜ	-10.5809
▁अंग्रेजी	-10.581
वाना	-10.5811
▁प्रबंध	-10.5811
घर	-10.5816
▁सिद्धांत	-10.5816
▁आखिर	-10.5817
▁ઓળખ	-10.5818
▁દો	-10.5821
▁ᱱᱚᱢᱵᱚᱨ	-10.5824
▁कराने	-10.5827
▁ᱡᱳᱜᱟᱡᱳᱜ	-10.5831
▁पहिल्या	-10.5832
▁Sentences	-10.5832
▁विवरण	-10.5832
▁डेटा	-10.5833
ndi	-10.5842
▁तान	-10.5842
▁मंदा	-10.5845
▁सां	-10.5846
▁अपनाने	-10.5848
ᱵᱩ	-10.5848
▁ભાગીદારી	-10.5848
▁ᱯᱚᱱᱛᱷᱟ	-10.5848
જન	-10.5849
▁पेलखा	-10.5849
▁अमअः	-10.585
▁पेन	-10.5854
ेआ	-10.5854
▁આગામી	-10.5856
▁હજાર	-10.5856
यतोना	-10.5857
ओःअ	-10.5857
▁केन्‍द्रीय	-10.5858
▁ᱯᱨᱟᱭ	-10.5863
▁हिन्दुस्तान	-10.5865
▁નાણાકીય	-10.5865
▁સ્થાપના	-10.5865
्‍यू	-10.5865
▁ᱩᱯᱨᱩᱢ	-10.5873
▁भरोहो	-10.5873
▁अंदाज	-10.5875
▁जरूड़ु	-10.5878
▁ભાર	-10.5878
▁साड़ी	-10.5884
▁राखी	-10.5887
डब्ल्यू	-10.5889
▁द्विपक्षीय	-10.5889
▁संस्कार	-10.5889
▁અપીલ	-10.5889
om	-10.5892
▁जेणे	-10.59
▁दशा	-10.5902
▁ठंड	-10.5904
▁त्याने	-10.5908
▁परिसर	-10.5908
डियो	-10.5913
राव	-10.5914
▁संरक्षित	-10.5914
ramo	-10.5915
▁पुत्र	-10.5919
ᱞᱩ	-10.592
▁भरा	-10.5923
▁बयर	-10.5924
મે	-10.5926
▁बैल	-10.5926
▁L	-10.593
▁प्रगती	-10.5931
▁ᱪᱤᱱᱦᱟᱹ	-10.5933
ःअ	-10.594
ମ୍	-10.5941
न्‍न	-10.5943
▁रेडियो	-10.5944
▁सोम	-10.5946
▁अध्‍यक्ष	-10.5963
▁Nis	-10.5964
▁एट	-10.5964
ᱩᱨ	-10.5965
लेंग	-10.5967
ity	-10.5967
्रे	-10.5968
▁रिकॉर्ड	-10.5972
▁मुद्दों	-10.5972
▁નાના	-10.5972
ᱩᱱ	-10.5975
▁कौशल्य	-10.5979
▁ᱥᱚᱢ	-10.5982
▁रोका	-10.5982
▁ଗୁଲେ	-10.5985
्ट	-10.5986
▁મંત્રાલયે	-10.5988
▁ᱨᱚᱝ	-10.5994
▁बावजूद	-10.5997
▁साक्षात्कार	-10.5997
udu	-10.5997
▁સંયુક્ત	-10.5997
▁फर्	-10.5998
ાવવા	-10.5999
▁एआई	-10.6002
ांतर	-10.6004
▁जिन्हें	-10.6005
ᱱᱮ	-10.6006
▁हत्या	-10.601
સ્ક	-10.6017
लङ	-10.6022
embra	-10.6022
▁ᱮᱥᱮᱨᱟᱱ	-10.6022
दन	-10.6028
▁ᱢᱩᱫᱨᱮ	-10.603
▁ᱛᱷᱚᱠ	-10.603
▁शुभकामनाएं	-10.6031
▁पूर	-10.6036
ळां	-10.6038
▁ऐवा	-10.6038
▁बढ़ता	-10.6039
LI	-10.6039
ᱱᱩ	-10.604
▁ᱦᱟᱨ	-10.6041
સિંહ	-10.6041
▁आउ	-10.6047
▁जानवर	-10.6048
Bes	-10.6051
um	-10.6053
▁જોઈ	-10.6054
ᱨᱟᱭ	-10.6057
▁बदला	-10.6057
▁लोकुं	-10.606
▁ଡା	-10.6063
▁સુવિધાઓ	-10.6065
▁नाख	-10.6068
पास	-10.6068
▁गर्म	-10.6069
▁नारायण	-10.6072
▁पर्वत	-10.6072
▁साइ	-10.6076
▁तदा	-10.6077
સ્થ	-10.6079
▁राजमार्ग	-10.6081
▁करवु	-10.6082
▁બીજા	-10.6083
▁बड़	-10.6084
▁कीस	-10.6084
▁ᱨᱩ	-10.6091
▁जिलों	-10.6091
▁टिकट	-10.6093
▁ᱢᱟᱱᱟᱣᱟ	-10.6101
િય	-10.6103
▁પ્રકાશ	-10.6103
▁फरवरी	-10.6105
▁करिया	-10.6107
डिजिटल	-10.6109
▁समज	-10.6109
▁ᱢᱳ	-10.611
▁आयुर्वेद	-10.6111
▁कइना	-10.6112
्रो	-10.6113
▁हंस	-10.6113
▁ᱡᱷᱤᱡ	-10.6114
▁मेने	-10.6115
▁त्योहारों	-10.6115
▁ᱵᱟᱵᱟ	-10.6119
▁सूरज	-10.6122
▁इंदौर	-10.6122
लाल	-10.6123
▁मिनट	-10.6124
▁यादी	-10.6125
▁आल्या	-10.6129
▁રે	-10.6129
▁मुताबिक	-10.613
▁ᱱᱩᱠᱩ	-10.613
▁बुरू	-10.6135
▁बुला	-10.6136
▁ऐप	-10.6138
▁ज्ञापन	-10.6139
▁ᱯᱩᱨᱟᱹ	-10.6143
▁ତ	-10.6144
्‍स	-10.6145
▁खादी	-10.6146
▁खे	-10.6147
▁सेंड़ा	-10.6147
▁बूम	-10.6149
्टी	-10.615
ોએ	-10.6155
▁ᱯᱳᱭᱞᱳ	-10.6156
ᱫᱩ	-10.6157
▁बक	-10.6157
st	-10.6162
▁रोड	-10.6166
▁कीतुर	-10.6167
▁ᱱᱚᱝᱠᱟ	-10.6168
▁मोठा	-10.6168
▁વાતચીત	-10.6172
▁कहाँ	-10.6174
ષ્	-10.6174
।”।	-10.6175
▁જઈ	-10.6184
▁लिमिटेड	-10.6189
-3	-10.619
▁तिरंगा	-10.619
▁सहज	-10.6196
▁मिलेगी	-10.6197
▁श्रृंखला	-10.6198
ाम	-10.6199
▁प्रमाणात	-10.62
▁पदक	-10.62
न्या	-10.6203
▁In	-10.6203
▁h	-10.6205
▁जनरल	-10.6207
▁मज	-10.621
▁रहेगा	-10.6222
▁गिर्रदा	-10.6223
▁ઓછા	-10.6223
▁ᱵᱟᱝᱠᱷᱟᱱ	-10.6223
▁जिथे	-10.6224
▁शक	-10.6224
આ	-10.6224
▁मिळेल	-10.6226
ाद	-10.6227
▁पुरना	-10.623
ल्ले	-10.623
▁बिता	-10.6231
▁बेटे	-10.6232
બુ	-10.6234
▁इदम	-10.6234
▁देस	-10.6236
▁कराया	-10.6237
स्थान	-10.6239
▁નક્કી	-10.624
▁पति	-10.624
▁एरिया	-10.6243
▁कोड	-10.6249
▁सहमत	-10.6252
▁गोबर	-10.6255
▁ᱠᱷᱚᱡᱚᱜ	-10.6256
▁ᱡᱚᱱᱛᱚᱨ	-10.6257
▁યોગદાન	-10.6258
▁बुवाई	-10.626
▁जोड़े	-10.6262
ुः	-10.6263
▁होराते	-10.6264
ઉ	-10.6265
▁ᱢᱚᱬᱮ	-10.6266
▁सीमित	-10.6266
▁अंतरराष्ट्रीय	-10.6266
▁द्या	-10.6268
▁मर्र	-10.6268
▁आयना	-10.6274
▁उनलोगों	-10.6274
ᱨᱟᱱ	-10.6275
▁येते	-10.6278
▁सोबेनको	-10.6283
▁सर्दी	-10.6294
टिक	-10.6304
▁फ्ल	-10.6307
▁ᱞᱮᱫᱮᱭᱟ	-10.6309
▁किरिङ	-10.6309
▁શિ	-10.6309
▁ᱵᱷᱚ	-10.6316
▁तरी	-10.6317
क्षित	-10.6321
▁મહા	-10.6322
ᱢᱩ	-10.6323
्ल	-10.6324
▁यीं	-10.6328
▁માતા	-10.6328
▁ᱵᱮᱱᱟᱣᱟ	-10.6329
ᱝᱜᱟ	-10.6331
▁ᱱᱚᱰᱮᱱ	-10.6332
पल	-10.6334
રાવ	-10.6336
ेः	-10.6342
ut	-10.6343
▁મળીને	-10.6344
ગર	-10.6348
ᱴᱳ	-10.6355
▁वीज	-10.6356
ᱫᱟᱨ	-10.6361
वरून	-10.6365
ᱠᱮ	-10.6368
▁ᱠᱩᱥᱤᱭᱟᱜᱼᱟ	-10.637
▁प्रतिनिधि	-10.6375
▁तून	-10.6376
▁मिलते	-10.6379
ंड़	-10.6382
un	-10.6384
▁સમયસર	-10.6387
જો	-10.6389
▁प्रसार	-10.639
▁हमलोगों	-10.6393
▁फिलम	-10.6395
▁इरा	-10.6396
▁दायर	-10.6396
▁ᱴᱮ	-10.6396
िनी	-10.6397
▁करणाऱ्या	-10.6399
▁निदा	-10.6402
▁પ્રગતિ	-10.6403
▁ᱯᱩᱥᱴᱟᱹᱣ	-10.6403
▁रिवाज	-10.6403
▁समझा	-10.6403
▁अर्जुन	-10.6403
ायता	-10.6404
▁ᱠᱟᱛᱮᱫ	-10.6405
▁ᱞᱟᱦᱟᱨᱮ	-10.6407
न्‍ना	-10.6409
लेका	-10.641
▁क्रेडिट	-10.6412
▁तभी	-10.6418
▁बर्	-10.6425
▁ᱡᱩ	-10.6426
▁करवी	-10.6429
▁गुंतवणूक	-10.6429
▁ખરીદી	-10.6429
▁मुझको	-10.6438
▁इंटरनेट	-10.6438
ow	-10.6441
ers	-10.6451
▁सहमति	-10.6456
▁વિસ્તાર	-10.6457
ᱚᱞ	-10.646
▁पाई	-10.6461
▁ગુજરાત	-10.6464
▁बलिदान	-10.6464
इयों	-10.6466
▁एयर	-10.6467
खाली	-10.6472
▁सामग्री	-10.6473
▁ᱜᱟᱶᱛᱟ	-10.6473
▁तेबअः	-10.6473
ापासून	-10.6478
તર	-10.648
▁पक	-10.6484
▁ताल	-10.6488
▁एड	-10.6491
▁બેઠક	-10.6491
▁ᱠᱤᱨᱤᱧᱤᱭᱟᱹ	-10.6492
क्का	-10.6494
▁पोषक	-10.6499
ટક	-10.6501
▁भणवा	-10.6503
▁સ્પર્ધા	-10.6508
બ્ર	-10.6508
▁ᱵᱟᱦᱟ	-10.6513
▁માન	-10.6514
▁ନେ	-10.6515
ᱯᱩ	-10.6515
▁बरन	-10.6518
▁કુલ	-10.6519
▁गपा	-10.6521
ᱪᱩ	-10.6522
▁कर्रस	-10.6523
▁निगरानी	-10.6525
▁ᱯᱩᱠᱷᱨᱤ	-10.6525
▁ᱦᱚᱸᱭ	-10.6525
▁सराहना	-10.6525
कला	-10.6529
▁रोह	-10.6531
ध्‍य	-10.6532
▁कोरअः	-10.6534
▁ᱦᱟᱥᱯᱟᱛᱟᱞ	-10.6534
▁निदेशक	-10.6534
▁किमी	-10.6535
di	-10.6537
▁ᱥᱟᱹᱜᱟᱹᱭ	-10.6543
काना	-10.6543
▁थाया	-10.6549
ଦା	-10.6549
ᱵᱚᱞ	-10.6549
▁वाहतूक	-10.6551
▁ᱮᱫ	-10.6556
▁पडे	-10.6559
▁मंजुरी	-10.656
▁मूर्ति	-10.6561
▁अन्	-10.6561
ᱛᱨᱚ	-10.6562
▁इनो	-10.6563
▁फी	-10.6563
▁પુ	-10.6566
▁तास	-10.6566
નારા	-10.6571
બો	-10.6572
ट्टी	-10.6572
ક્ર	-10.6575
▁गतिविधि	-10.6576
▁सामर्थ्य	-10.6578
▁ચાલ	-10.6578
▁जादा	-10.6579
▁धु	-10.6586
▁अनिवार्य	-10.6587
▁ᱟᱸᱡᱚᱢ	-10.6587
▁स्वप्न	-10.6587
▁ᱞᱩ	-10.659
षण	-10.659
▁भगत	-10.6596
▁ᱨᱟᱢ	-10.6601
▁उर	-10.6604
्टर	-10.6607
▁आपस	-10.6608
धु	-10.661
▁ᱪᱤ	-10.6612
▁मुद्रा	-10.6613
▁कोआते	-10.6613
▁ક્યારેય	-10.6613
्के	-10.6614
▁हद	-10.6614
राः	-10.6616
▁मोहन	-10.662
▁ग्रंथ	-10.6622
ર્ડ	-10.6622
▁कर्मचारी	-10.6631
▁जनसंख्या	-10.6631
▁આધારિત	-10.6632
▁नस	-10.6638
ak	-10.6639
्व	-10.6639
गाँव	-10.664
▁२	-10.6645
तंत्र	-10.6649
▁આપ્યો	-10.665
▁घणां	-10.665
એલ	-10.6651
▁हाट	-10.6652
▁સહ	-10.6654
▁अफ	-10.6655
▁અવસર	-10.6657
▁ᱯᱚᱨ	-10.6659
▁बोलो	-10.666
समय	-10.6666
▁2023	-10.6666
▁कहता	-10.667
▁भाषाई	-10.6678
लिका	-10.6684
▁ᱥᱟᱬᱮᱥᱤᱭᱟᱹ	-10.6685
ફા	-10.6689
▁मतोर	-10.669
▁लगाए	-10.6692
▁तौल	-10.6693
▁સ્વચ્છતા	-10.6696
▁भंडारण	-10.6697
▁उठाए	-10.6697
तक	-10.6701
रवा	-10.6709
▁मानते	-10.6709
સો	-10.671
कृति	-10.6712
▁“‘	-10.6712
▁ᱚᱡᱮ	-10.6719
▁પાર્ટી	-10.672
▁ᱞᱚ	-10.6728
▁पहुँचा	-10.6729
▁चुन	-10.6729
▁दड़िअ	-10.6729
▁उत्	-10.673
▁खातर	-10.673
▁गुना	-10.6731
▁सीज	-10.6731
हरी	-10.6737
▁स्थायी	-10.6737
▁इस्लाम	-10.6738
▁करेगी	-10.6748
▁W	-10.675
ᱥᱚᱨ	-10.6752
्री	-10.6757
▁व्यक्तिगत	-10.6758
:-	-10.6764
▁नेशनल	-10.6765
▁તેનાથી	-10.6767
▁man	-10.6774
▁तीर	-10.6774
▁करवानु	-10.6778
▁घाल	-10.6779
खर	-10.6782
▁रुपए	-10.6784
▁छह	-10.6785
▁महिलाएं	-10.6791
▁बुक	-10.6795
▁सपना	-10.68
▁व्हा	-10.6801
નગર	-10.6802
बड़ा	-10.6802
▁ᱢᱟᱨᱮᱱ	-10.6807
Murmu	-10.6812
▁दनियां	-10.6812
पूर्वी	-10.6813
▁પાસેથી	-10.6813
▁शांत	-10.6814
▁ઓફ	-10.6816
ाडवा	-10.6818
▁06	-10.6819
▁लाखों	-10.6826
Go	-10.6826
पूर्वक	-10.6827
ive	-10.6828
▁अधिकारों	-10.6835
1039	-10.6835
▁સ્વતંત્રતા	-10.6836
▁હાથ	-10.6839
▁શોધ	-10.6841
ᱛᱷᱚ	-10.6844
▁काळ	-10.6844
▁ᱫᱚᱦᱚᱭ	-10.6845
▁दाड़िआ	-10.6846
▁उपकरणों	-10.6849
▁ᱵᱤᱥ	-10.6852
▁ᱫᱟᱭᱟᱠᱟᱛᱮ	-10.6854
▁काठी	-10.6855
▁क्‍या	-10.6857
वासी	-10.6862
▁जरुर	-10.6863
▁સન્માન	-10.6863
▁अप्रैल	-10.6863
जान	-10.6863
▁ᱥᱟᱥᱚᱱᱤᱭᱟᱹ	-10.6865
▁कइ	-10.6867
▁ब्ल	-10.6869
▁सल	-10.687
▁રંગ	-10.6871
▁न्यू	-10.6874
▁गाना	-10.6874
▁साप	-10.688
ᱟᱝ	-10.6883
▁चलाने	-10.6884
▁ઝડપથી	-10.6891
▁રોજગાર	-10.6891
▁ᱦᱚᱪᱚ	-10.6891
lo	-10.6892
कृ	-10.6895
▁रॉ	-10.6895
▁लेख	-10.6896
la	-10.6897
▁संतोष	-10.69
▁राष्‍ट्रपति	-10.69
▁તેમજ	-10.6903
▁ख़	-10.6903
▁मेन्दो	-10.6909
▁मतुरा	-10.6909
▁संग्रहालय	-10.6909
▁नेपाल	-10.691
▁जवळ	-10.6911
▁उपयुक्त	-10.692
dam	-10.6923
્ટ	-10.6925
हें	-10.6925
ଗ	-10.6926
▁गडकरी	-10.6927
▁પ્રકાર	-10.6928
▁डाय	-10.6933
्‍यो	-10.6934
▁मोर	-10.6935
બર	-10.6937
▁ठिकाणी	-10.6937
▁सोंगे	-10.6937
▁શક્ય	-10.6937
▁बेटा	-10.694
▁ᱮᱯ	-10.6945
▁ᱞᱟᱠᱷ	-10.6949
याभूत	-10.695
▁तुमने	-10.6952
▁उमि	-10.6953
▁अपु	-10.6954
▁वेबसाइट	-10.6954
▁વરિષ્ઠ	-10.6954
▁खिलाड़ियों	-10.6954
▁ᱫᱟᱜᱡᱟᱹᱲᱤ	-10.6955
▁કંપની	-10.6961
▁घेरा	-10.6961
ᱰᱳ	-10.6962
▁પંજાબ	-10.6963
पोर्ट	-10.6965
▁दड़िअः	-10.6969
▁ᱵᱮᱥ	-10.697
पार	-10.6973
ધિ	-10.6974
ᱤᱭᱚ	-10.6975
िआ	-10.6975
▁लीन	-10.6976
▁देशभरात	-10.6979
▁દિશામાં	-10.698
▁दृष्टि	-10.6982
▁राजकीय	-10.6982
▁बगे	-10.6982
᱐᱐	-10.6983
▁યુવા	-10.6986
▁સંબંધો	-10.6988
▁उतार	-10.6988
▁રમ	-10.6988
▁अज	-10.699
▁वाळो	-10.6991
▁अत्यावश्यक	-10.6991
▁ᱦᱟᱹᱠᱩ	-10.6991
▁ᱨᱮᱞᱣᱮ	-10.6991
▁हिंसा	-10.6991
્રો	-10.6994
▁सोर	-10.6994
▁શા	-10.6998
▁આઈ	-10.6998
▁ଜ	-10.6998
વાની	-10.6999
▁चंडीगढ़	-10.7
▁अधीन	-10.7
▁ગાય	-10.7001
वुं	-10.7001
▁आदर	-10.7003
▁शासित	-10.7008
▁प्रावधान	-10.7009
▁महामारी	-10.7009
▁ᱥᱴᱮᱥᱚᱱ	-10.701
▁बहादुर	-10.701
ाड	-10.7017
▁खावानु	-10.7019
▁ધર્મ	-10.7019
म्बा	-10.702
ાવી	-10.7021
है	-10.7024
यीं	-10.7024
▁जाएंगे	-10.7026
▁चीनी	-10.7028
मधून	-10.7032
शिया	-10.7038
▁तेलंगाना	-10.7046
િયન	-10.7046
▁स्वरूप	-10.7047
▁मिठाईयो	-10.705
▁જીત	-10.7051
▁સ્વચ્છ	-10.7052
▁Baat	-10.7055
▁शक्ती	-10.7058
▁સમ	-10.7059
▁ᱟᱥᱟ	-10.7059
▁मोड़े	-10.7061
दल	-10.7062
▁हिस्सों	-10.7063
▁ભોજન	-10.7065
▁2010	-10.7066
▁ᱫᱤ	-10.7067
▁गाड़ी	-10.707
ᱞᱟᱨ	-10.707
खु	-10.7074
▁ઉચ્ચ	-10.7074
▁મહિના	-10.7074
और	-10.7074
▁यानी	-10.7077
▁लिखे	-10.708
▁मजदूर	-10.7081
▁अनुमान	-10.7082
जनक	-10.7082
▁નીચે	-10.7083
▁दिपिलि	-10.7083
▁શ્રેષ્ઠ	-10.7083
▁મૂલ્ય	-10.7083
ંધ	-10.7084
▁લોન	-10.7087
▁आफ	-10.7093
▁मंग	-10.7093
િસ	-10.7094
सान	-10.7098
ᱡᱩ	-10.7099
▁वेळेवर	-10.7102
▁बुढ़ा	-10.7102
न्दा	-10.7103
રિયા	-10.7106
ଣ	-10.711
▁રજૂ	-10.7111
▁निः	-10.7111
▁हवाद	-10.7112
ଜି	-10.7112
▁हिय	-10.7113
ફર	-10.7113
▁लहान	-10.7113
▁ᱱᱚᱰᱮ	-10.7114
▁वजन	-10.7114
▁अइञ्	-10.7118
रिका	-10.7125
भि	-10.7132
ᱜᱩ	-10.7136
ᱪᱤ	-10.7139
▁हमज	-10.714
▁वोट	-10.7142
▁हरु	-10.7142
ર્ગ	-10.7148
▁સ્થળો	-10.7149
▁अशी	-10.715
▁बदली	-10.715
किःअ	-10.7151
स्म	-10.7152
ाबाद	-10.7152
▁अड	-10.7152
ne	-10.7154
▁साब	-10.7156
▁अइंग	-10.7156
▁પ્રત્યે	-10.7157
▁ᱥᱟᱧᱪᱟᱣ	-10.7157
▁शहीद	-10.7157
क्षण	-10.7158
▁नवो	-10.7161
ᱠᱨᱤ	-10.7164
▁સુનિશ્ચિત	-10.7167
▁लावा	-10.717
▁संगठनों	-10.7171
▁मुसलमान	-10.7176
▁संचालन	-10.7176
▁सामंजस्य	-10.7176
ांव	-10.7177
वै	-10.7177
ᱠᱚᱨ	-10.7179
ᱫᱷᱩ	-10.718
▁अत	-10.7181
▁दरम्यान	-10.7185
▁डिग्री	-10.7195
doe	-10.7195
▁पढ़ाई	-10.7199
▁बग	-10.72
ଲେ	-10.7201
▁पेहल	-10.7203
▁Class	-10.7204
▁जिलंगी	-10.7204
▁છેલ્લા	-10.7204
▁भूल	-10.7204
लिन	-10.7206
▁दिस	-10.7206
ist	-10.721
▁विस	-10.721
वस	-10.7215
▁दड़िआ	-10.7218
▁गोनोङ	-10.7223
ᱠᱷᱤ	-10.7224
▁6080	-10.7228
▁सेहत	-10.7229
▁ᱥᱤᱢ	-10.7229
िद	-10.723
▁वाराणसी	-10.7232
▁ઉદાહરણ	-10.7232
▁योजने	-10.7234
▁જેને	-10.7235
03-	-10.7242
▁ᱯᱷᱚ	-10.7242
વાદ	-10.7242
""	-10.7244
▁उत्कृष्ट	-10.7251
▁પૈસા	-10.7251
▁સ્વાસ્થ્ય	-10.7251
ଣ୍ଡି	-10.7251
▁कुं	-10.7253
▁वदू	-10.7253
▁हजारों	-10.7255
▁घड	-10.7255
રૂ	-10.7257
▁Sek	-10.726
ᱴᱚ	-10.7268
▁मेह	-10.727
▁चमक	-10.727
▁लाइट	-10.7271
▁रमवा	-10.7273
वानू	-10.7275
▁હાજર	-10.7275
ડો	-10.7279
▁માટી	-10.7283
लीन	-10.7284
▁सोप	-10.7287
▁માલ	-10.7293
▁रखें	-10.7295
ତାଙ୍ଗି	-10.7298
▁ନ	-10.7299
▁पुथि	-10.73
▁रक्त	-10.7302
▁संगम	-10.7305
▁करावी	-10.7306
▁પ્રોજેક્ટ	-10.7307
▁कौ	-10.7307
▁तुरंत	-10.7309
ᱰᱮ	-10.7312
▁दौर	-10.7312
▁કુમાર	-10.7314
वह	-10.7316
▁એવું	-10.7316
▁वकील	-10.7318
रिवाज	-10.7324
▁पुरानी	-10.7325
▁त्याची	-10.7326
▁चानाः	-10.7327
▁ओड़ाः	-10.7333
▁ᱦᱚ	-10.7334
▁चबा	-10.7335
▁हैदराबाद	-10.7336
ગો	-10.7338
▁लॉ	-10.734
▁निपटने	-10.7346
રુ	-10.7352
▁अद्भुत	-10.7355
▁ᱪᱷᱟᱹᱲ	-10.7355
▁7118	-10.7355
थल	-10.736
▁वड़क	-10.7362
F	-10.7364
फ्ट	-10.7367
टन	-10.7368
મિ	-10.7372
▁नाकुन	-10.7374
▁समिती	-10.7374
▁एंड	-10.7375
▁विशेषतः	-10.7379
▁અસર	-10.7382
मेर	-10.7383
▁धूप	-10.7384
▁ᱟᱹᱨᱩ	-10.7384
▁ᱥᱟᱯᱟᱵ	-10.7384
▁कीट	-10.7385
▁तेअः	-10.7386
▁ᱵᱟᱹᱱᱩᱜᱼᱟ	-10.7388
▁પગલાં	-10.7394
▁2009	-10.7396
▁वैसे	-10.74
मंडल	-10.7401
जनचि	-10.7402
હાર	-10.7404
▁लांब	-10.7404
▁यामध्ये	-10.7405
भव	-10.7405
▁ડે	-10.7409
▁उन्नत	-10.7411
▁શેર	-10.7412
▁ଦା	-10.7413
▁त्याचे	-10.7415
▁᱔	-10.7416
▁मृत	-10.7418
▁खरीदारी	-10.742
▁हिन्दी	-10.742
▁સિંચાઈ	-10.7422
▁ᱟᱥᱲᱟ	-10.7422
▁बेह	-10.7422
▁हाथे	-10.7423
▁तुम्हारे	-10.7423
द्व	-10.7424
▁हस	-10.7425
ᱵᱷᱮ	-10.7426
500	-10.7427
▁ᱚᱥᱛᱷᱟᱭ	-10.7431
▁सध्या	-10.7433
▁हगा	-10.7434
▁ଏସେ	-10.7434
▁Copy	-10.7441
▁साहब	-10.7443
▁રાજ્યમાં	-10.7449
નિક	-10.7449
▁चीजों	-10.7453
▁जिसने	-10.7453
▁अहम	-10.7457
▁घा	-10.7458
▁घटक	-10.7458
▁मनुष्य	-10.746
ष्‍ट	-10.7464
एअः	-10.7467
▁बोला	-10.7468
ોનું	-10.747
▁अथवा	-10.747
▁એવા	-10.747
વાળા	-10.7471
बद्ध	-10.7476
िअ	-10.7479
▁ભવિષ્ય	-10.7479
▁श्रीलंका	-10.7479
▁शानदार	-10.7479
▁त्याचा	-10.7484
▁पद्धती	-10.7485
ખા	-10.7487
▁कुशल	-10.7489
तून	-10.7489
▁गरमी	-10.7491
ᱟᱞ	-10.7493
▁जाँच	-10.7494
મર	-10.7494
ગણ	-10.7495
▁समानता	-10.7497
▁इतुन	-10.7498
्मा	-10.7499
દ્ર	-10.7499
▁બી	-10.7501
▁ढांचे	-10.7501
▁रास्ता	-10.7502
▁भाषाओं	-10.7507
▁सुक	-10.7507
▁લાગુ	-10.7509
▁उनमें	-10.7511
ᱡᱚᱱ	-10.7515
▁विचारों	-10.7517
▁ᱟᱠᱚ	-10.7517
▁सिंचन	-10.7518
र्द	-10.752
▁उभर	-10.752
▁निपटा	-10.752
ंप	-10.7524
▁ଲା	-10.7525
्यात	-10.7526
▁સત્તા	-10.7528
▁दिल्‍ली	-10.7528
्वे	-10.7531
▁शु	-10.7534
▁पहाड़	-10.7537
▁विद्रोह	-10.7537
▁ᱠᱮᱫᱟᱭ	-10.7538
▁उत्पादक	-10.7538
▁आन्ता	-10.7538
ୁ	-10.7538
▁गेंदबाज	-10.7546
▁महासागर	-10.7547
▁ᱜᱷᱚᱴᱚᱱ	-10.7547
ତାରା	-10.7548
▁रेखा	-10.7549
▁ᱟᱜᱟᱢ	-10.755
▁अको	-10.7551
पिता	-10.7551
▁નેતાઓ	-10.7555
▁ᱯᱷᱤ	-10.7557
િટ	-10.7559
िना	-10.7559
▁वणा	-10.756
▁उद्योगों	-10.7566
▁तिनानी	-10.7566
ᱠᱷᱟ	-10.7573
▁सिम	-10.7573
▁हॉ	-10.7576
ंदी	-10.7576
▁देत	-10.7577
▁जल्द	-10.7578
▁कास	-10.7581
▁V	-10.7584
ंसाठी	-10.7585
▁कार्रवाई	-10.7586
▁ᱥᱟᱥᱚᱱ	-10.7587
▁ଗ	-10.759
ત્ત	-10.7591
▁सिटी	-10.7591
▁पंजाबी	-10.7596
▁शौचालय	-10.7596
ରୀ	-10.7599
▁नङ	-10.7602
▁मुलाखतीत	-10.7605
▁ᱮᱠᱟᱣᱩᱱᱴ	-10.7605
▁कपूर	-10.7607
▁ᱵᱷᱮᱡᱟ	-10.7609
▁યાદી	-10.7613
▁અનુ	-10.7614
▁गठबंधन	-10.7615
▁जोखिम	-10.7615
र्रा	-10.7616
▁मिठाई	-10.7616
ીન	-10.7617
▁सिंग	-10.7619
▁લાવવા	-10.7623
ड्	-10.7624
▁औसत	-10.7625
ाड़वा	-10.7627
ᱴᱮ	-10.7628
काळ	-10.7633
▁मेडिकल	-10.7635
▁ᱨᱟᱹᱥᱤᱭᱟᱹ	-10.7635
▁विद्यापीठ	-10.7635
▁जुना	-10.7635
▁गड़ा	-10.764
▁बुरा	-10.7644
▁कीटनाशक	-10.7645
િયમ	-10.7652
▁ᱥᱟᱬᱮᱥ	-10.7653
▁भेजा	-10.7655
▁असामान्य	-10.7656
ନାରି	-10.7657
शक्ति	-10.7657
▁तत्व	-10.7659
શી	-10.7659
▁वद	-10.766
ल्हा	-10.7661
બલ	-10.7662
▁बन्द	-10.7662
▁गरीबों	-10.7662
ସେଞ୍ଜୁ	-10.7664
▁हरेक	-10.7664
▁ᱥᱚᱞᱦᱮ	-10.7664
▁ᱵᱟᱦᱨᱮ	-10.7664
▁माहौल	-10.7664
▁ओला	-10.7666
મન	-10.7668
▁બંગાળ	-10.7674
▁संगि	-10.7676
क्‍ट	-10.7683
▁हिस्से	-10.7683
क्टर	-10.7684
बॉल	-10.7684
▁ઓછી	-10.7684
खेत	-10.7684
▁महत्त्वाच	-10.7687
અ	-10.7688
▁આઝાદી	-10.7695
▁वताडी	-10.77
ᱢᱟᱨ	-10.7702
દાન	-10.7703
▁खरपतवार	-10.7703
▁गाँधी	-10.7703
▁કરાર	-10.7704
▁ડી	-10.7706
▁ઇન્	-10.7708
▁कार्यकारी	-10.7711
यला	-10.7712
ᱣᱟᱜ	-10.7712
हट	-10.7713
▁मिस	-10.7714
▁बण	-10.7715
તું	-10.7717
जाना	-10.7717
▁दादा	-10.7718
▁पहनना	-10.7721
▁अड़	-10.7725
▁तिनां	-10.7726
ᱠᱷᱚᱱ	-10.7728
▁राग	-10.7731
▁भाळ	-10.7732
▁2021	-10.7733
▁ઉલ્લેખ	-10.7733
▁आदमियों	-10.7733
▁mala	-10.7733
▁त्यानंतर	-10.7735
▁अगली	-10.7737
्‍त	-10.7742
▁मार्गदर्शन	-10.7743
▁जीएसटी	-10.7749
▁दिसंबर	-10.7753
ईन	-10.7755
▁मोटर	-10.7756
▁नामक	-10.7765
▁आदान	-10.7769
▁ᱠᱷᱚᱸᱫᱽᱨᱚᱸᱫᱽ	-10.7773
▁जुताई	-10.7773
▁શાસન	-10.7773
▁संवर्धन	-10.7774
▁કરું	-10.7775
ર્થ	-10.7776
पक्ष	-10.7778
▁ᱧᱟᱢᱚᱜ	-10.7778
शाला	-10.7781
▁एकूण	-10.7783
્રી	-10.7785
▁ᱛᱷᱤᱨ	-10.7794
▁સફળતા	-10.7795
▁सर्वाधिक	-10.7797
▁સ્થાન	-10.7798
र्ति	-10.7799
कट	-10.7805
▁नमा	-10.7806
▁સ્પષ્ટ	-10.7812
रियल	-10.7815
ंध	-10.7822
▁સમિતિ	-10.7822
sh	-10.7823
id	-10.7823
▁યોગ	-10.7823
▁ᱨᱩᱯ	-10.7826
▁મૂ	-10.7829
▁बणा	-10.7831
▁વર્તમાન	-10.7832
▁ᱦᱚᱯᱚᱱ	-10.7832
▁समूहों	-10.7837
▁ચા	-10.7839
▁उपलब्धता	-10.7842
▁मागणी	-10.7842
▁ચાલી	-10.7844
▁ᱵᱟᱸᱫᱮ	-10.7852
▁પ્રોજેક્ટ્સ	-10.7853
टेल	-10.7857
▁चासा	-10.7857
सुर	-10.786
▁જિલ્લામાં	-10.7862
ચિ	-10.7862
▁अभिनंदन	-10.7862
▁ट्वीट	-10.7862
ाबद्दल	-10.7862
खेतों	-10.7863
▁ओन	-10.7867
रियों	-10.7869
▁संप	-10.7872
▁कळ	-10.7872
▁पड़ी	-10.7873
▁ટી	-10.7877
▁आपलोग	-10.7879
▁वस्तू	-10.788
▁सूक्ष्म	-10.7882
▁प्राप्‍त	-10.7882
▁स्थिती	-10.7884
▁U	-10.7888
रोम	-10.7892
▁ᱨᱮᱸᱜᱮᱡ	-10.7892
▁मंत्रिमंडल	-10.7892
थील	-10.7893
▁સમાન	-10.7895
दूसरे	-10.7897
▁रकम	-10.7898
वर्धन	-10.7898
ᱤᱭᱩ	-10.7899
▁नमस्कार	-10.7902
▁दुःख	-10.7903
▁हवे	-10.7903
▁लक	-10.7904
▁જતા	-10.7905
▁डाक	-10.7907
▁आपसे	-10.7911
રિ	-10.7912
▁ᱢᱚᱱᱫᱤᱨ	-10.7912
▁करावा	-10.7913
▁ᱟᱹᱱᱟᱹᱨᱤ	-10.7913
▁शुरूआत	-10.7913
ाड़	-10.7914
ᱴᱷ	-10.7914
▁बढ़ने	-10.7914
▁अंग्रेज	-10.7916
न्दुर	-10.7918
▁પ્રવાસન	-10.7918
▁फळ	-10.7918
▁आखरी	-10.792
▁कोलकाता	-10.7922
▁ᱛᱤᱡᱩ	-10.7923
▁રાજા	-10.7923
काम	-10.7924
▁सिक	-10.7927
▁રાખ	-10.7929
यूं	-10.7929
▁जेवा	-10.7932
जिन	-10.7932
▁प्राधिकरण	-10.7933
▁ᱟᱹᱭᱫᱟᱹᱨ	-10.7933
▁असहज	-10.7933
▁जिम	-10.7934
ँग	-10.7936
▁᱖	-10.7938
दाय	-10.7942
ियम	-10.7942
▁BHI	-10.7943
▁नेहरू	-10.7943
▁आदत	-10.7944
ક્રમ	-10.7945
▁ऑफिस	-10.7946
▁ᱨᱟᱡᱟ	-10.7947
▁दिसू	-10.7948
ᱥᱟᱨ	-10.7949
विद	-10.7949
थि	-10.7953
▁પરિવહન	-10.7953
▁गेली	-10.7955
▁2000	-10.7955
▁छाप	-10.7956
▁नियमों	-10.7958
▁આર	-10.7962
▁st	-10.7965
ર્શ	-10.7965
▁कहां	-10.7966
▁पाने	-10.7966
▁ᱥᱚᱨᱠᱟᱨᱤ	-10.7971
▁व्यवस्थापन	-10.7972
▁क्रांति	-10.7972
▁ᱡᱤᱛᱠᱟᱹᱨ	-10.7973
▁चीज़	-10.7974
▁कही	-10.7974
▁साहस	-10.7975
▁नंतर	-10.7982
ନେଞ୍ଜୁ	-10.7983
▁गणतंत्र	-10.7983
▁अगळ	-10.7986
▁निधि	-10.7987
▁तीव्रता	-10.7989
▁गणित	-10.799
▁चलने	-10.7993
▁फर	-10.7995
▁જય	-10.7995
ong	-10.7996
▁लगाड	-10.7997
▁न्यायाधीश	-10.8003
▁संभाल	-10.8004
▁नाग	-10.8005
▁उच	-10.8006
▁मुद्दा	-10.8006
▁પદ	-10.801
▁गीतों	-10.8011
▁आयतंग	-10.8013
▁મહારાષ્ટ્ર	-10.8013
अम	-10.8014
▁लीग	-10.8015
▁दाड़ि	-10.8019
▁पूछे	-10.802
ઠા	-10.8022
▁कॉल	-10.8023
▁સૂત્રો	-10.8024
त्स	-10.8024
▁पहुंचे	-10.8026
▁ᱞᱮᱠᱷᱟ	-10.8029
▁केयाते	-10.803
▁ᱦᱩ	-10.8031
▁સંભાળ	-10.8034
▁दस्तावेज	-10.8034
▁प्रकोप	-10.8034
▁ᱩᱫᱩᱜᱟ	-10.8041
▁धर	-10.8044
पान	-10.8044
ᱡᱮ	-10.8046
ᱯᱟᱞ	-10.8049
▁सन्	-10.805
▁पीठ	-10.8054
▁ओकोअः	-10.8054
▁ᱟᱱᱟᱡᱽ	-10.8054
▁વર્ષમાં	-10.8056
▁हिंद	-10.806
▁सादर	-10.8062
▁प्रतिबद्धता	-10.8063
▁સામનો	-10.8064
ᱞᱟᱭ	-10.8067
▁होणार	-10.8069
▁बनाएं	-10.807
mo	-10.8071
▁ᱥᱟᱯᱷᱟᱼᱥᱟᱯᱷᱤ	-10.8075
▁घेतली	-10.8075
ांक	-10.8077
▁करीयो	-10.808
▁अल्	-10.8084
▁જાહેરાત	-10.8085
▁ખાતર	-10.8086
▁તક	-10.8086
कोट	-10.8086
ज्ञा	-10.8086
▁दारा	-10.809
▁राज्यात	-10.8091
▁300	-10.8096
▁आणखी	-10.8096
▁अमा	-10.8097
ତେକା	-10.8099
▁थोड़ी	-10.81
▁बनवा	-10.8101
▁फुट	-10.8105
ઓએ	-10.8105
▁निकु	-10.8109
पीएस	-10.8111
▁દે	-10.8117
aren	-10.8117
AN	-10.8118
▁सेवाएं	-10.8119
केन	-10.8123
▁આપણને	-10.8126
▁ᱵᱮᱼᱵᱟᱹᱲᱤᱡ	-10.8126
▁आञाः	-10.8127
▁कामु	-10.8131
▁લોકપ્રિય	-10.8136
▁आमदनी	-10.8136
▁आव्हान	-10.8136
▁सर्	-10.8142
िक्स	-10.8143
▁જોડાયેલા	-10.8144
એચ	-10.8146
▁तिहु	-10.8146
▁ध्‍यान	-10.8146
▁औ	-10.8147
▁सिख	-10.8149
▁भारताने	-10.815
▁द्वार	-10.8151
▁गार	-10.8153
▁ᱟᱹᱭᱠᱟᱹᱣ	-10.8157
▁बल्लेबाज	-10.8157
▁नह	-10.8157
▁मृत्यू	-10.8158
ુક	-10.8163
▁આભાર	-10.8164
▁सामुदायिक	-10.8167
▁खनिज	-10.8167
▁दाह	-10.8168
▁स्थलों	-10.8171
ूम	-10.8172
▁बहनों	-10.8173
▁सरू	-10.8175
▁वरसा	-10.8175
▁स्थिरता	-10.8177
▁જંગલ	-10.8178
▁ᱱᱟᱥᱮ	-10.8178
त्ति	-10.8179
▁जबर	-10.8186
▁पोल्‍लो	-10.8188
▁सुपर	-10.8195
▁ᱛᱩ	-10.8197
▁हथियार	-10.8198
▁मायता	-10.8198
▁साक्ष	-10.8199
ેશન	-10.82
▁માનવા	-10.82
न्ह	-10.82
▁ᱫᱩᱨᱡᱚᱝ	-10.8201
સુ	-10.8203
▁पेरे	-10.8204
▁सुविधाओं	-10.8205
▁મિ	-10.8206
▁नियंत्रित	-10.8208
▁बुद्ध	-10.8212
▁केमकि	-10.8215
▁योजनां	-10.8217
▁જા	-10.8217
▁ᱨᱚᱦᱚᱲ	-10.8219
ᱚᱥ	-10.8222
ᱝᱜᱚ	-10.8222
▁भात	-10.8226
▁નંબર	-10.8229
ट्री	-10.8229
▁नदियों	-10.8229
▁मुण्डारी	-10.823
gr	-10.8235
▁पट्ट	-10.8235
▁जागरूक	-10.8235
बाल	-10.8236
▁विषयों	-10.8237
▁दुब	-10.8238
▁ᱫᱷᱩᱨᱭᱟᱹ	-10.8239
ଟୁ	-10.824
▁અર્થ	-10.8242
II	-10.8245
▁मोने	-10.8247
▁दहशतवाद	-10.8249
▁ᱯᱚᱛᱚᱵ	-10.825
▁वर्षात	-10.825
▁जोड़ने	-10.8253
▁ᱯᱳᱞ	-10.8258
▁ᱚᱥᱩᱵᱤᱫᱷᱟ	-10.826
▁ᱯᱷᱟᱹᱫᱽ	-10.8261
▁जितना	-10.8261
᱑᱗	-10.8262
▁ट्रा	-10.8264
▁अपेअः	-10.8267
▁खुले	-10.8267
ूँगा	-10.8268
▁sentences	-10.8268
▁ᱱᱮ	-10.827
▁निधी	-10.827
▁પ્રસંગે	-10.8271
▁વિષય	-10.8271
स्‍थ	-10.8272
▁तमुन	-10.8274
▁खूब	-10.8275
▁मेळा	-10.8276
ॉं	-10.8285
▁नानी	-10.8285
▁नंग	-10.8287
्दी	-10.8288
▁महिलाएँ	-10.8288
▁शुभेच्छा	-10.8292
▁पाँच	-10.8292
ક્ટર	-10.8292
▁तरुण	-10.83
▁पाटा	-10.8302
▁प्रदूषण	-10.8302
▁પર્યાવરણ	-10.8302
▁ક્યાં	-10.8302
ᱯᱳ	-10.8304
▁लक्षात	-10.8304
▁for	-10.8305
सीसी	-10.8311
▁सच्च	-10.8311
▁आज़ादी	-10.8311
▁કિ	-10.8312
▁પ્રધાન	-10.8312
▁कागद	-10.8313
ard	-10.8314
▁क्रम	-10.8314
्हे	-10.832
▁असतो	-10.8322
ᱣᱟᱱ	-10.8323
▁दोहरा	-10.8324
▁महाराज	-10.8326
▁हिल	-10.8329
▁हाथी	-10.8332
▁मानना	-10.8332
▁नाअः	-10.8333
▁કિંમત	-10.8333
▁ब्लॉक	-10.8334
▁હવામાન	-10.8334
▁પર્વત	-10.8334
્ચ	-10.8336
▁કહે	-10.8336
▁᱑᱕	-10.8336
▁गावात	-10.8338
शाली	-10.8339
ᱸᱰ	-10.8341
रानी	-10.8342
▁મીડિયા	-10.8344
▁कयो	-10.8345
cs	-10.8351
▁वैज्ञानिकों	-10.8352
▁ᱡᱚᱱ	-10.8354
▁ᱢᱟᱨ	-10.8354
अते	-10.8355
▁राजवंश	-10.8356
▁केदुं	-10.8357
▁कड़ी	-10.8358
▁દેવ	-10.8363
▁स्कूलों	-10.8365
▁કલ્યાણ	-10.8365
▁વસ્તુઓ	-10.837
▁विरोधी	-10.8374
▁અભ્યાસ	-10.8375
▁दारू	-10.8376
ज्ञान	-10.8377
▁ભાવ	-10.838
▁ᱟᱯ	-10.8381
▁વખત	-10.8381
जीत	-10.8383
▁સમયમાં	-10.8384
▁मंगल	-10.8385
▁15.08.201	-10.8386
▁हजु	-10.8386
▁चारों	-10.8393
▁झु	-10.8393
ટલું	-10.8397
▁यशस्वी	-10.8397
▁दर्शाता	-10.8397
▁मूड़	-10.8397
▁एक्स	-10.84
▁प्रकाशित	-10.8402
▁सुनकर	-10.8403
डीए	-10.8406
▁लाया	-10.8406
▁किलो	-10.8407
▁प्रशंसा	-10.8407
बीर	-10.8408
▁''	-10.8408
▁बर्तन	-10.8409
▁तुमलोग	-10.8409
तोना	-10.8418
▁दिरि	-10.8418
▁कमाई	-10.8425
▁ᱟᱠᱟᱫ	-10.8426
▁ᱯ	-10.8428
▁देशवासी	-10.8428
▁ᱵᱷᱩ	-10.843
ou	-10.8431
▁पहाड़ी	-10.8431
▁माकुन	-10.8433
सिक	-10.8438
▁જનતા	-10.8444
▁᱗	-10.8446
▁ᱡᱚᱛᱚᱱ	-10.8456
▁कानूनी	-10.8458
▁અભિનંદન	-10.846
▁MP	-10.8462
▁बीजों	-10.8463
▁નજીક	-10.8465
▁मद्य	-10.8466
▁लेता	-10.8467
▁ᱟᱹᱱ	-10.847
છ	-10.8471
મંડ	-10.8472
▁कसे	-10.8473
्‍म	-10.8474
▁मुख	-10.8474
▁हदार	-10.8475
L	-10.8479
▁बाबू	-10.848
▁जिंदगी	-10.8481
▁दोपहर	-10.8481
लाइन	-10.8482
▁साकार	-10.8483
▁उड	-10.8484
ગે	-10.8484
▁रियो	-10.8484
प्रदान	-10.8486
▁ᱰᱷᱮᱨᱚᱜᱼᱟ	-10.8492
▁उन्	-10.8495
▁ढांचा	-10.8495
▁᱑᱐	-10.8497
ᱨᱟᱹ	-10.8498
▁शुभकामना	-10.85
▁मेट्रो	-10.8505
▁જીવ	-10.8514
वासियों	-10.8518
स्टर	-10.852
नीय	-10.8521
▁રાજ્યના	-10.8523
▁પ્રખ્યાત	-10.8524
▁રચના	-10.8524
▁दिव्यांग	-10.8524
पूर्व	-10.8524
▁बइआ	-10.8526
एसटी	-10.8527
न्द्र	-10.8527
▁अति	-10.8528
▁छूट	-10.8531
ावे	-10.8533
▁ᱰᱟᱹᱝᱜᱽᱨᱤ	-10.8535
▁अनुरोध	-10.8535
▁पत्रकार	-10.8535
▁यंत्र	-10.854
▁लाड	-10.8544
आमतौर	-10.8546
–	-10.8547
▁तुर	-10.8549
▁ᱥᱟᱵ	-10.8554
न्दु	-10.8554
▁समर्पण	-10.8556
▁समाविष्ट	-10.8556
▁ଜା	-10.8558
गान	-10.8558
▁दीप	-10.8559
लिङ	-10.8561
▁करयू	-10.8562
ल्प	-10.8563
▁लडाई	-10.8568
▁बितर	-10.857
ल्फ	-10.8572
दोनों	-10.8572
▁श्	-10.8573
▁ᱟᱞᱩ	-10.8573
थु	-10.8574
मिक	-10.8574
श्री	-10.8576
▁दृश्य	-10.8578
▁અનુસાર	-10.8578
▁परम्परा	-10.8578
▁हाई	-10.8584
टिव	-10.8584
▁देदो	-10.8586
▁तैर	-10.8587
▁साथी	-10.8588
▁जगातील	-10.859
हुं	-10.8592
▁ମେ	-10.8593
▁वस्तुओं	-10.8595
▁આધુનિક	-10.8599
▁मोठे	-10.86
ऱ्या	-10.8601
▁सब्जी	-10.8601
कश्मीर	-10.8601
▁टीवी	-10.8605
▁गारो	-10.8606
▁लढ	-10.8606
▁प्रवाह	-10.8607
પો	-10.8607
▁ફરી	-10.8609
▁सिस्टम	-10.861
▁ᱡᱤᱣᱤ	-10.861
▁स्वर्ण	-10.8611
▁आपुन	-10.8614
▁ତାନି	-10.8614
ેલા	-10.8615
▁परिषदे	-10.8615
▁बनो	-10.8616
▁ᱠᱟᱹᱨᱩᱲ	-10.8621
▁मातृ	-10.8621
▁आकाश	-10.8621
▁ᱯᱟᱲᱟᱜᱼᱟ	-10.8621
▁આરોપ	-10.8622
▁तनको	-10.8623
▁स्टेट	-10.8625
यि	-10.863
im	-10.8631
ᱤᱛ	-10.8631
▁हमुने	-10.8631
▁दिखाया	-10.8638
▁प्रार्थना	-10.8642
▁રહેશે	-10.8644
▁म्हणूनच	-10.8646
▁मानले	-10.8648
▁આપતા	-10.8649
▁મી	-10.8651
▁શાંતિ	-10.8653
▁ᱠᱟᱹᱦᱱᱤ	-10.8653
▁झटका	-10.8653
gipa	-10.8654
ଆନା	-10.8656
▁ऐवी	-10.8659
णां	-10.866
▁देखें	-10.866
▁लेखक	-10.8666
▁हड़	-10.8666
▁थि	-10.8669
▁भागीदार	-10.867
▁टुक	-10.8672
જેવી	-10.8672
▁ફે	-10.8672
South	-10.8675
▁प्रत्यक्ष	-10.8675
▁भार	-10.868
▁मिळाले	-10.8682
▁સ્પ	-10.8684
▁ᱮᱢᱼᱟ	-10.8685
▁ખાદ્ય	-10.8686
▁लेकागे	-10.8686
▁મધ્ય	-10.8687
▁जिनके	-10.8688
▁दादी	-10.869
▁फेंक	-10.8691
स्तरीय	-10.8691
ियू	-10.8696
▁યુનિવર્સિટી	-10.8696
▁इंडियन	-10.8697
ᱵᱟᱨ	-10.87
᱕᱐	-10.8703
▁ठहर	-10.8704
᱑᱔	-10.8707
▁संग्राम	-10.8709
▁तमारा	-10.8711
▁मिन	-10.8712
▁जोनोम	-10.872
▁ભાવના	-10.8724
िने	-10.8724
▁ફોન	-10.8726
बाई	-10.8726
▁देदी	-10.8727
▁फंड	-10.8727
▁त्याग	-10.8728
▁ઇન	-10.8729
▁टाक	-10.8729
▁संवेदनशील	-10.8729
▁रखी	-10.8731
ᱨᱤᱛ	-10.8733
▁राखे	-10.8734
▁महल	-10.8736
▁चेन्नई	-10.874
▁પ્રશંસા	-10.874
▁યુદ્ધ	-10.874
▁ન્યાય	-10.874
▁ભાષા	-10.874
▁कहानि	-10.8741
ઝા	-10.8744
▁नार्र	-10.875
▁પ્રિય	-10.8751
▁रखवाळी	-10.8751
▁उल्लेखनीय	-10.8752
▁ग्यु	-10.8756
ाइज	-10.8759
▁प्रकारे	-10.876
▁जेम	-10.8761
▁कारखाना	-10.8762
▁पाट	-10.8763
्ना	-10.8764
▁ડો	-10.8771
▁भो	-10.8772
▁ᱫᱟᱹᱵᱤ	-10.8773
▁कायद्या	-10.8774
▁वास्तविक	-10.878
ક્ક	-10.878
▁कर्रिय	-10.8782
▁रासिका	-10.8784
ᱪᱚ	-10.8784
▁માર	-10.879
▁યુવાનો	-10.8791
▁मिळते	-10.8794
▁પરિષદ	-10.8795
धीरे	-10.8796
▁पक्क	-10.8797
▁ᱯᱩᱱ	-10.8798
પુ	-10.8799
▁गुफा	-10.8802
डिंग	-10.8804
▁सपा	-10.8806
▁વિજ્ઞાન	-10.8806
▁ᱦᱮᱲᱮᱢ	-10.8806
▁ᱟᱫ	-10.8806
▁ᱡᱟᱦᱟ	-10.8807
▁फु	-10.8809
▁सिं	-10.8814
ૂર	-10.8817
▁નુકસાન	-10.8817
▁तमार	-10.8819
▁बीमार	-10.882
▁2024	-10.8839
▁ᱢᱟᱨᱥᱟᱞ	-10.8839
प्रमाणे	-10.8839
Ba	-10.8841
ण्यापूर्वी	-10.8845
▁घणीं	-10.8845
▁गयो	-10.8846
▁हिया	-10.8847
▁પ્રતિ	-10.8849
▁ᱥᱩᱱᱩᱢ	-10.885
▁नीतियों	-10.885
▁કલા	-10.8853
▁ᱪᱷᱚᱛᱛᱤᱥᱜᱚᱲ	-10.8861
लोग	-10.8861
▁लोकांच्या	-10.8865
▁विवेकानंद	-10.8872
▁भक्ति	-10.8875
▁ᱡᱤᱵ	-10.8876
▁ᱜᱮᱫ	-10.8877
ᱛᱚᱨ	-10.8877
▁ଆଜା	-10.8881
ect	-10.8882
▁ᱦᱚᱨ	-10.8883
▁જવાબદારી	-10.8883
▁હર	-10.8885
▁सेंटर	-10.8886
म्‍	-10.8886
ଃଇ	-10.8891
▁जिल्ह्यात	-10.8892
▁मालम	-10.8896
▁दंगड़ा	-10.8896
▁કેસ	-10.8899
▁पका	-10.8903
▁ᱛᱚ	-10.8903
ᱶ	-10.8904
क्‍क	-10.8906
ृत	-10.8907
वर्ती	-10.891
▁रूस	-10.8916
▁भग	-10.8916
▁ᱵᱚᱨᱱᱚᱱ	-10.8916
▁वृक्ष	-10.8918
्द	-10.8921
પૂર્વક	-10.8922
▁ᱩᱪᱷᱟᱹᱱ	-10.8928
▁जावे	-10.893
તે	-10.8931
▁निकट	-10.8932
वोर	-10.8934
वेन	-10.8934
▁चीजें	-10.8935
आज	-10.8936
▁1842	-10.8937
▁जॉ	-10.8938
ᱡᱟᱨ	-10.8941
▁मेनअ	-10.8942
ᱱᱟᱨ	-10.8943
▁ईसाई	-10.8944
શું	-10.8948
પાલ	-10.8949
खंड	-10.8949
▁प्रसंस्करण	-10.895
टल	-10.895
▁जनते	-10.8951
ેડ	-10.8954
▁નાગરિક	-10.8955
▁ᱠᱚᱭ	-10.8958
▁ખો	-10.8961
▁आमंत्रित	-10.8961
▁सोचा	-10.8962
▁कठोर	-10.8962
▁फ़ोन	-10.8962
▁ચાલુ	-10.8965
▁रणनीति	-10.8967
W	-10.8967
वर्ष	-10.8972
▁साधारण	-10.8974
▁ᱢᱮᱞᱟ	-10.8976
ાસ	-10.8976
▁टयद	-10.8976
बाजी	-10.8979
▁बर्फ	-10.8979
▁मृदा	-10.8983
ଞ୍ଜି	-10.8984
▁येईल	-10.8984
▁ક્ષેત્રોમાં	-10.8984
गुन	-10.8985
▁मानी	-10.8991
▁इनाम	-10.8992
▁त्यों	-10.8992
▁સુધીમાં	-10.8993
▁ગતિ	-10.8996
ग्रामीण	-10.9001
▁आपसी	-10.9002
▁ᱚᱯᱷ	-10.9002
▁दुर्गा	-10.9002
्ते	-10.9003
▁गोयल	-10.9004
▁କାତା	-10.9004
ॉक	-10.9004
रेओ	-10.9005
▁नका	-10.9006
▁लड़का	-10.9007
▁विकासासाठी	-10.901
▁तमुने	-10.9015
▁सोन	-10.9016
नेट	-10.9017
भू	-10.9019
▁बनता	-10.902
▁अनी	-10.902
▁इलि	-10.9021
▁हड़ु	-10.9023
▁अटक	-10.9023
▁रोम	-10.9024
ଉ	-10.9024
▁दुसऱ्या	-10.9028
▁सर्वेक्षण	-10.9028
▁वेगाने	-10.9028
▁चुनौतियों	-10.9029
▁दंड	-10.9033
▁વધ	-10.9037
▁वदारवा	-10.9037
▁व्‍यवस्‍था	-10.9039
▁स्वदेशी	-10.904
▁સાથીઓ	-10.904
ब्ब	-10.9047
िप	-10.9051
▁विद्यार्थी	-10.9051
▁આસપાસ	-10.9051
▁ᱧᱟᱯᱟᱢ	-10.9051
▁जपअः	-10.9051
nt	-10.9051
▁कोयला	-10.9052
▁देगा	-10.9054
▁बेगर	-10.9056
▁प्राण	-10.9056
▁અન	-10.906
▁वाढत	-10.9061
▁ઉત્પાદનો	-10.9062
▁परिश्रम	-10.9062
▁ᱨᱤᱛᱩ	-10.9063
▁K	-10.9064
▁સ્તર	-10.9065
▁प्रकट	-10.9066
star	-10.9068
▁मील	-10.9073
समोर	-10.9081
▁ᱠᱟᱨ	-10.9084
▁किस्म	-10.9084
▁ᱯᱮᱭᱟ	-10.9086
▁घायल	-10.9087
▁वायर	-10.9089
▁शाखा	-10.9091
ara	-10.9092
ेलु	-10.9093
ग्राम	-10.9094
▁આશા	-10.9095
▁baat	-10.9096
▁चोल	-10.9098
वात	-10.91
लोक	-10.9101
ᱵᱷᱚ	-10.9103
▁यूरोप	-10.9105
तेक	-10.9106
▁ગુણવત્તા	-10.9107
तुन	-10.9108
वानो	-10.911
▁लड़के	-10.9111
▁दूसरों	-10.9112
ᱱᱳ	-10.9115
▁आपु	-10.9116
▁कोणी	-10.9118
▁પાછ	-10.9118
रङ	-10.9118
▁પૂછવામાં	-10.9119
▁चांगली	-10.9119
રામ	-10.912
▁पहा	-10.912
▁आयात	-10.9122
▁પુત્ર	-10.9127
▁गं	-10.9129
तेगे	-10.9129
▁ᱵᱮᱵᱚᱥᱛᱟ	-10.913
▁କି	-10.9131
▁ᱵᱟᱛᱟᱱ	-10.9131
tala	-10.9133
▁Mp	-10.9134
▁बेट	-10.9136
▁मांस	-10.9139
▁ડોલર	-10.9141
▁ट्रैक्टर	-10.9141
▁कोण	-10.9142
mp	-10.9143
▁चली	-10.9145
▁शाळा	-10.9146
ହେ	-10.9153
▁कटा	-10.9155
▁निशान	-10.9155
▁n	-10.9159
ર્જ	-10.916
▁दुकु	-10.9163
▁फार्म	-10.9163
▁तईकेना	-10.9164
▁आक्रमण	-10.9164
▁ठोस	-10.9164
rang	-10.9164
तिया	-10.9166
▁बोने	-10.9167
मिल	-10.9168
▁ब्याज	-10.9176
रक्षक	-10.9176
▁सन्मान	-10.9177
▁गुजर	-10.9179
▁अदेन	-10.9183
▁ᱠᱟᱭᱛᱮ	-10.9187
▁ᱠᱮᱫᱮᱭᱟ	-10.9187
▁ᱮᱴᱠᱮᱴᱚᱲᱮ	-10.9187
ᱚᱛ	-10.9187
▁खि	-10.9188
▁एप	-10.9189
▁लेक	-10.9194
ti	-10.9196
▁बजार	-10.9197
▁अइड	-10.92
▁जिनथी	-10.9201
▁तिर	-10.9203
िटी	-10.9203
▁1842)_	-10.9205
ᱵᱷᱟᱨ	-10.9206
हां	-10.9207
▁फीसदी	-10.921
▁વિરુદ્ધ	-10.921
▁પ્રમાણ	-10.921
Var	-10.9213
▁प्ल	-10.9215
▁बैक	-10.9219
जवळ	-10.9219
▁मीले	-10.9221
▁फुटबॉल	-10.9221
▁अभिनेता	-10.9221
▁મહ	-10.9222
▁ᱟᱭᱢᱟᱜᱟᱱ	-10.9224
▁फूलों	-10.9228
▁करावे	-10.9228
▁टाटा	-10.923
▁चिमतङ	-10.9233
▁વીજળી	-10.9233
▁हरका	-10.9236
ᱮᱴ	-10.9236
▁जमिनी	-10.9237
▁v	-10.9237
थो	-10.9237
ांपासून	-10.9239
▁સરકારના	-10.9239
त्र्प्रो	-10.9241
▁स्मारक	-10.9244
▁चनअः	-10.9244
▁बुमकाल	-10.9245
▁2008	-10.9248
વાન	-10.9249
▁સાંભળ	-10.9256
▁मिळाली	-10.9256
▁लंबी	-10.9256
़ा	-10.9256
▁मानवता	-10.9258
▁बढा	-10.9258
किसानों	-10.926
▁कोरट	-10.9265
ga	-10.9266
▁દિલ્હીમાં	-10.9269
▁नवीनतम	-10.927
▁तल	-10.927
કુ	-10.9272
▁छाया	-10.9273
मेट	-10.9276
▁સમૃદ્ધ	-10.9277
ବି	-10.9278
▁छि	-10.9278
▁स्‍वास्‍थ्‍य	-10.9279
્રા	-10.9281
ानंतर	-10.9282
▁तमू	-10.9285
▁तारा	-10.9287
▁પરિ	-10.9288
▁रासायनिक	-10.929
▁વારસા	-10.929
▁सिनेमा	-10.929
तेको	-10.9292
ર્ન	-10.9296
સન	-10.9298
बाद	-10.93
▁माजी	-10.93
▁રાજકીય	-10.9302
▁खाद्यपदार्थ	-10.9302
▁म्हणतात	-10.9303
▁पद्धतीने	-10.9307
ᱥᱟᱹ	-10.9307
▁નેતા	-10.9307
▁ᱡᱟᱣᱨᱟ	-10.9311
▁""	-10.9312
▁रसायन	-10.9313
▁Epis	-10.9314
▁छत	-10.9316
▁आंगन	-10.9318
▁सबके	-10.9318
▁અધિકાર	-10.9325
▁गिरफ्तार	-10.9325
▁ᱧᱤᱫᱟᱹ	-10.9325
▁दीवार	-10.9325
▁᱘	-10.9325
▁प्रारंभिक	-10.9327
મ્બ	-10.9332
▁बंदर	-10.9337
▁नायक	-10.9341
▁બજાર	-10.9342
▁जाअः	-10.9345
▁पंजीकृत	-10.9348
▁ᱵᱟᱪᱷᱟᱣ	-10.9348
▁इमारत	-10.9349
▁उत्तरी	-10.9355
▁ᱡᱟᱹ	-10.9358
▁तिनाना	-10.9358
▁उघड	-10.936
▁by	-10.9363
▁ᱜᱷᱟ	-10.9366
▁શાળા	-10.9366
▁स्टार्टअप	-10.9369
▁रहेंगे	-10.9369
▁अफ्रीका	-10.9371
▁કૃપા	-10.9371
▁ᱤᱥᱤᱱ	-10.9371
▁हवाएँ	-10.9378
ମାସେ	-10.938
▁चोट	-10.9381
लेन	-10.9382
▁वेर	-10.9382
▁बइओ	-10.9382
▁ત્યારબાદ	-10.9383
▁आरंभ	-10.9383
ानुर	-10.9383
ᱛᱷᱤ	-10.9383
▁निर्माता	-10.9383
▁होई	-10.9384
▁વહે	-10.9384
▁આપવું	-10.9385
▁किययतोर	-10.9386
▁घ्या	-10.9386
▁दोस्तों	-10.9386
▁घटनाओं	-10.9387
▁साजरा	-10.939
▁સુવિધા	-10.9393
▁वेपार	-10.9394
▁મૃત્યુ	-10.9395
▁जं	-10.9397
▁बट	-10.94
▁નાગરિકો	-10.9401
▁ᱯᱷᱮ	-10.9401
▁अजय	-10.9402
▁टिक	-10.9403
▁तूफ़ान	-10.9406
▁સંકલ્પ	-10.9406
▁ભી	-10.9408
▁मतदान	-10.9409
▁दरबार	-10.9411
▁करूँगा	-10.9411
एसपी	-10.9415
▁મૂળ	-10.9419
▁ᱦᱟᱛᱟᱣᱟ	-10.9422
ान्त	-10.9423
▁जिंक	-10.9427
सिया	-10.9427
form	-10.9429
▁हृदय	-10.943
▁फार	-10.943
▁મોટો	-10.943
▁अवसरों	-10.9432
▁गुलाम	-10.9434
▁दास	-10.9436
▁हेरे	-10.9436
▁लाभकार	-10.9437
▁बोस	-10.9438
▁आपला	-10.9441
▁ESIC	-10.9441
▁उद्दिष्ट	-10.9441
केना	-10.9441
▁अनुरूप	-10.9442
▁बेचते	-10.9443
ત્વ	-10.9449
▁ᱱᱟᱜᱟᱢ	-10.9452
▁फॉर	-10.9452
▁ᱱᱚᱨᱮᱱᱫᱨᱚ	-10.9453
▁ᱦᱩᱭᱞᱮᱱᱟ	-10.9453
▁विक्री	-10.9456
▁कामगार	-10.9458
▁नितिन	-10.9461
ᱴᱨᱤ	-10.9461
▁आहात	-10.9464
▁ગયું	-10.9465
▁સુરક્ષિત	-10.9465
ry	-10.9465
લ્ડ	-10.9466
▁જોકે	-10.9468
▁केन्‍द्र	-10.9469
कून	-10.9472
▁मक	-10.9475
▁युं	-10.9475
▁अंमलबजावणी	-10.9477
▁કૌશલ્ય	-10.9477
▁શાકભાજી	-10.9477
▁पेंशन	-10.9477
▁શો	-10.9477
▁लागी	-10.9478
▁ब्रा	-10.9481
ot	-10.9481
▁सम्मानित	-10.9482
▁हस्ताक्षर	-10.9488
▁लुतुम	-10.9489
▁सृजन	-10.9496
ण्य	-10.9496
▁भरोसा	-10.95
▁अभिनय	-10.95
थे	-10.9506
▁खिल	-10.9508
▁sentence	-10.9508
▁सूत्र	-10.9511
फू	-10.9523
▁अद्वितीय	-10.9524
▁महामहिम	-10.9524
▁जरिये	-10.9526
इया	-10.9529
▁बुद्धि	-10.9532
मेक	-10.9532
▁अधिकतर	-10.9535
▁आशीर्वाद	-10.9536
▁ભગવાન	-10.9536
▁મેળવી	-10.9536
▁ᱚᱞᱟᱦᱮᱫ	-10.9536
▁समझौते	-10.9536
▁बाज़ार	-10.9536
▁एकजुट	-10.9536
▁शुद्ध	-10.9537
▁एजे	-10.954
▁हुडि	-10.9541
ચાર	-10.9542
વ્ય	-10.9546
▁यांच्यात	-10.9547
ચર	-10.9547
▁छोट्या	-10.9547
▁ରଣ୍ଡେ	-10.9548
▁चंद	-10.9549
▁उतना	-10.955
हीं	-10.9551
▁साली	-10.9559
▁વસ્તી	-10.9559
▁कुर्ता	-10.9559
▁कॉफी	-10.956
▁ᱢᱮᱱᱮᱫ	-10.9562
▁સંબંધ	-10.9562
महा	-10.9563
▁मौजूदा	-10.9567
न्ट	-10.9569
▁यूपी	-10.9569
▁ભાઈઓ	-10.957
तोरोम	-10.957
▁ᱜᱩᱦᱩᱢ	-10.9571
▁होबाओःअ	-10.9572
▁ᱯᱷᱟ	-10.9572
▁बाई	-10.9574
▁जकेद	-10.9575
▁भरे	-10.9575
ᱟᱱᱟᱜ	-10.9575
अःइअ	-10.9577
▁मिजोरम	-10.9583
▁छठ	-10.9586
▁गोएः	-10.9587
ટલી	-10.9587
▁प्रथा	-10.9589
वेद	-10.9605
▁कवि	-10.9606
▁ᱛᱷᱟᱹᱱᱤᱛ	-10.9607
▁मोहिमे	-10.9607
र्त	-10.9608
प्रदेश	-10.9612
▁ᱥᱟᱣ	-10.9614
▁सोना	-10.9615
▁बैठे	-10.9616
▁सपनों	-10.9619
शासित	-10.9621
▁ᱮᱱᱛᱮ	-10.9621
▁उपयोगी	-10.9621
▁व्यापारी	-10.9623
▁सोरां	-10.9624
▁करवो	-10.9626
देस	-10.9628
▁गिड़ि	-10.9629
▁ଗ୍ରା	-10.9631
▁ᱴᱮᱠᱟᱣ	-10.9631
▁कारीगर	-10.9631
▁व्यक्तियों	-10.9631
▁ᱨᱚᱲᱟ	-10.9632
▁કંપનીઓ	-10.9634
▁दिये	-10.9634
▁जायेगा	-10.9635
યર	-10.9635
ज़ी	-10.9635
▁વ્યાપક	-10.9643
▁मिआद	-10.9643
de	-10.9646
▁तिनमा	-10.9649
᱓᱐	-10.965
▁संपत्ति	-10.9651
▁प्रांत	-10.9653
ણે	-10.9653
▁प्रमाणपत्र	-10.9655
▁सदन	-10.9656
▁उठाया	-10.9662
▁गाने	-10.9663
▁ᱜᱟᱱᱫᱷᱤ	-10.9668
▁यानि	-10.9669
डुम	-10.9672
▁पद्म	-10.9678
शू	-10.9679
▁ᱫᱤᱥᱟᱹ	-10.9679
▁सपने	-10.9679
▁अला	-10.9688
▁पुढील	-10.969
▁ᱠᱷᱮᱞ	-10.969
▁द्वितीय	-10.969
▁भलाई	-10.9691
▁?’’	-10.9691
▁दाखल	-10.9692
▁तिनथी	-10.9693
▁ઘટાડો	-10.9696
पैकी	-10.9701
▁शुभ	-10.9702
▁ᱪᱚᱞᱚᱛ	-10.9715
ᱠᱮᱴ	-10.9716
▁हालत	-10.9717
▁लॉग	-10.972
▁प्रसारण	-10.9721
▁पेहली	-10.9723
▁कजिअ	-10.9723
▁उम्मीदवार	-10.9724
गड़ा	-10.9724
શન	-10.9726
▁पुणे	-10.9726
▁लखनऊ	-10.9727
▁જરૂરિયાત	-10.9735
▁हसा	-10.9737
▁ᱟᱶᱛᱟ	-10.9739
▁ᱰᱤᱡᱤᱴᱟᱞ	-10.9739
▁पूंजी	-10.9739
▁समेत	-10.9739
▁उज	-10.9742
▁સ્તરે	-10.9744
टिया	-10.975
▁જમ્મુ	-10.9751
▁अचानक	-10.9751
▁पतंग	-10.9753
ᱵᱟᱹᱫᱽ	-10.9754
to	-10.9755
जय	-10.9756
▁वेद	-10.9757
▁प्रारंभ	-10.976
प्ट	-10.9761
▁AICTE	-10.9763
▁इन्हें	-10.9763
▁बरोबर	-10.9764
▁तरीकों	-10.9766
▁मक्का	-10.9769
▁तिहुनी	-10.977
શીલ	-10.9772
port	-10.9774
▁समन्वय	-10.9775
ଟ୍	-10.9776
▁બિલ	-10.9776
▁सडक	-10.9776
▁रवि	-10.9777
▁महीना	-10.9778
▁प्रतिबंध	-10.978
▁1947	-10.9784
કરણ	-10.9785
▁अहमद	-10.9785
▁OTP	-10.9787
ःए	-10.9789
▁पोर	-10.9796
‘‘	-10.9796
▁ઇતિહાસ	-10.9799
▁સંભાવના	-10.9799
▁ᱡᱚᱯᱲᱟᱣ	-10.9799
▁ᱩᱪᱟᱹᱲ	-10.9799
▁दिशुम	-10.9799
▁સ્વાદ	-10.98
▁मात्र	-10.9803
▁बहुतेक	-10.9803
▁अगल	-10.9804
▁अर्ध	-10.9804
▁स्वा	-10.9806
टरी	-10.9808
▁छु	-10.9809
▁सितंबर	-10.9811
ंनें	-10.9812
बाज	-10.9812
▁परंपरागत	-10.9814
▁होवा	-10.9818
▁हामे	-10.9818
ᱚᱵ	-10.9818
▁पाक	-10.982
क्ट	-10.9821
▁માંગુ	-10.9823
▁ᱠᱤᱞᱳᱢᱤᱴᱟᱨ	-10.9823
ᱴᱮᱞ	-10.9826
▁खुल	-10.9827
▁ईरान	-10.9829
▁बानी	-10.983
▁देतो	-10.9831
▁बँके	-10.9832
▁સભ્ય	-10.9833
▁વિદેશ	-10.9834
▁જન્મ	-10.9836
▁2006	-10.9838
▁सेक्टर	-10.9839
▁खड़े	-10.984
લેન્ડ	-10.9843
▁घेतले	-10.9853
▁નવ	-10.9854
ेक्ट	-10.9857
स्य	-10.9857
ନାରା	-10.9859
▁झारखण्ड	-10.986
▁खरी	-10.986
▁सई	-10.9862
▁ᱱᱮᱛᱟ	-10.9866
क्‍स	-10.987
▁गाटो	-10.987
ᱫᱟᱹ	-10.9871
प्पा	-10.9871
ᱨᱚᱢ	-10.9871
▁मैन	-10.9872
▁ᱯᱚᱪᱷᱤᱢ	-10.9872
પર	-10.9873
વન	-10.9878
▁पिका	-10.9882
▁करीने	-10.9882
मेल	-10.9886
▁एटे	-10.9886
▁तीर्थ	-10.9888
▁होड़ोकोअः	-10.9889
▁जोमेआ	-10.9891
ᱟ᱾	-10.9894
▁प्रतिनिधी	-10.9897
▁ᱥᱟᱨᱵᱷᱟᱨ	-10.9898
▁फक्त	-10.9899
ko	-10.9899
▁बढ़ाव	-10.9899
▁ᱟᱨᱮ	-10.99
▁पाय	-10.9901
▁थक	-10.9901
▁गोंडी	-10.9902
वानुं	-10.9902
▁गहन	-10.9903
▁दिल्लीत	-10.9908
▁लोकतांत्रिक	-10.9909
▁વગેરે	-10.9909
▁હંમેશા	-10.9909
▁લીધી	-10.9909
▁रसीद	-10.991
▁घणों	-10.991
ᱤᱢ	-10.992
▁बीजी	-10.9921
▁विकराल	-10.9921
▁ᱨᱳ	-10.9927
▁जोमेआः	-10.9928
▁केल्याने	-10.9932
▁साझेदारी	-10.9932
▁बघ	-10.9936
▁खड़ा	-10.9936
▁મહાન	-10.9938
▁विक्रम	-10.994
ल्क	-10.9942
ण्डा	-10.9943
▁हिक	-10.9944
▁भेल	-10.9944
पीसी	-10.9945
▁बीजेपी	-10.9946
▁પૂ	-10.9947
gat	-10.9948
▁मेहमान	-10.9948
रअः	-10.9952
बिर	-10.9958
▁મળ્યો	-10.9958
▁વિવિધતા	-10.9961
▁गुड	-10.9961
▁देखे	-10.9962
र्ष	-10.9962
▁अर्	-10.9963
▁तप	-10.9963
▁देऊ	-10.9964
▁અમાર	-10.997
▁ᱡᱚᱭ	-10.997
▁मुद्दे	-10.9972
▁पुग	-10.9973
▁આધાર	-10.9975
᱐᱐᱐	-10.9976
▁पाते	-10.9977
▁जंगलों	-10.998
▁ᱡᱟᱹᱯᱩᱫ	-10.9983
▁केटेः	-10.9984
▁ki	-10.9986
᱒᱕	-10.9987
▁मंजूर	-10.9991
▁लिखी	-10.9992
િર	-10.9995
लॉ	-10.9996
▁जाम	-10.9996
डोर	-10.9997
▁जगत	-10.9997
▁भैंस	-10.9997
▁MA	-10.9997
िकल	-10.9999
▁जोडले	-11
▁दङ	-11.0001
▁काळजी	-11.0001
▁अधि	-11.0002
▁अबुआ	-11.0008
▁બોર્ડ	-11.0008
▁વિના	-11.0011
ᱟᱛ	-11.0013
▁हुतो	-11.0018
▁स्मरण	-11.002
▁ᱨᱮᱭᱟᱲ	-11.002
▁જુઓ	-11.002
▁કાળ	-11.002
▁સહકાર	-11.0021
▁અમેરિકા	-11.0033
▁પરીક્ષા	-11.0033
▁લોકોના	-11.0037
▁सण	-11.0042
▁कर्र	-11.0042
▁इतुअना	-11.0044
▁લાંબા	-11.0045
ष्‍	-11.0049
▁ग्रह	-11.0052
किर	-11.0053
हमदोनों	-11.0053
▁પ્રેરણા	-11.0054
पै	-11.0056
▁पुराना	-11.0059
▁ମାନେ	-11.0065
▁पेड	-11.0068
તિહાસિક	-11.007
▁મોબાઇલ	-11.007
▁ᱞᱩᱜᱽᱲᱤ	-11.007
▁एजेंसी	-11.007
▁सहाय्य	-11.007
ओआ	-11.0073
pa	-11.0075
▁त्यां	-11.0075
▁मोयोद	-11.0078
▁विस्तृत	-11.0082
▁स्मार्ट	-11.0082
▁છતાં	-11.0082
▁वाढवण्यासाठी	-11.0084
ᱛᱨᱤ	-11.0087
▁ᱵᱚᱞ	-11.0087
▁स्‍तर	-11.0088
▁भंडार	-11.009
▁काठा	-11.009
▁बढ़ी	-11.0091
▁विमा	-11.0094
▁प्याज	-11.0095
भार	-11.0097
445	-11.0101
▁जोडा	-11.0107
▁सोने	-11.0107
कृषक	-11.0107
▁આધારે	-11.0113
ᱟᱠ	-11.0115
▁सलाहकार	-11.0116
▁मुद	-11.0118
▁बाजारों	-11.013
▁પ્રમુખ	-11.0133
▁सेकेड़ा	-11.0133
▁जिदन	-11.0135
ଃପା	-11.0136
▁मंडल	-11.0137
पाद	-11.0137
▁मिअद	-11.0139
▁સારા	-11.0139
▁कने	-11.014
▁પડી	-11.014
▁લાવ	-11.0143
▁शक्यता	-11.0143
▁खरीदने	-11.0145
▁ज़िले	-11.0145
▁परंपराओं	-11.0149
▁रविवार	-11.015
▁ᱥᱟᱦ	-11.015
▁ᱮᱱᱟᱭ	-11.0151
▁चढ़ा	-11.0155
co	-11.0155
ीसाठी	-11.0162
भूमि	-11.0169
▁મુંબઈ	-11.017
▁चेनअः	-11.017
▁भिन्न	-11.0171
▁ज़रूर	-11.0173
ચૂક	-11.0176
▁इंटर	-11.0177
श्य	-11.0178
▁वैद्यकीय	-11.0183
▁एक्सप्रेस	-11.0183
જે	-11.0186
▁साय	-11.0187
▁रखता	-11.0187
▁ᱥᱮᱱᱚᱜ	-11.0189
वणे	-11.0191
ᱢᱮᱱᱴ	-11.0193
▁मरम्मत	-11.0195
▁અનાજ	-11.0196
▁आजाद	-11.0203
▁निधन	-11.0204
▁सांगा	-11.0205
▁उंच	-11.0205
▁તમાર	-11.0205
▁ᱥᱟᱨᱟ	-11.0206
▁મુશ્કેલ	-11.0208
लियों	-11.021
▁कुठे	-11.021
ᱰᱟᱨ	-11.0215
▁अयअः	-11.0217
ᱭᱤᱱ	-11.0219
माला	-11.022
ᱜᱟᱨ	-11.022
▁इंतजार	-11.0221
▁ᱯᱩᱞᱤᱥ	-11.0221
▁यावेळी	-11.0221
ᱛᱟᱨ	-11.0222
ଙ୍ଗ	-11.0227
▁ओड़	-11.0232
आधिकारिक	-11.0233
▁उदुबे	-11.0234
▁उदुबा	-11.0234
▁कोष	-11.0236
▁पीने	-11.0236
ᱡᱷᱟ	-11.0238
▁लइ	-11.0239
▁रोख	-11.0241
▁ય	-11.0241
▁छू	-11.0242
ine	-11.0245
▁डाउनलोड	-11.0246
▁सोमोए	-11.0246
▁ବେଃଏ	-11.0247
▁राजीव	-11.0248
▁विश्‍वास	-11.0248
▁ᱠᱟᱱᱟ᱾	-11.0249
ast	-11.025
▁रोकने	-11.0252
▁નોંધ	-11.0253
▁जपा	-11.0255
▁मासिक	-11.0255
સીએ	-11.0256
▁પૂરી	-11.0257
▁કિલોમીટર	-11.0259
▁ᱥᱟᱹᱢᱩᱫ	-11.0259
▁મેળા	-11.0259
▁तिहुना	-11.026
▁देखना	-11.0262
▁अजू	-11.0265
▁ᱫᱚᱠᱷᱤᱱ	-11.0272
▁᱑᱘	-11.0273
▁વેચ	-11.0274
पती	-11.0276
▁हमुन	-11.0278
▁लवकर	-11.0279
▁इनका	-11.0282
▁बंग	-11.0282
ᱢᱳ	-11.0284
▁નિર્દેશ	-11.0284
▁તરફથી	-11.0285
▁હોઈ	-11.0286
धो	-11.0289
▁આદેશ	-11.0291
▁कच्च	-11.0292
ᱹᱧ	-11.0293
▁મધ્યપ્રદેશ	-11.0297
▁छात्रवृत्ति	-11.0297
▁स्त्री	-11.03
▁मिलियन	-11.0302
▁पथ	-11.0302
▁झाड़	-11.0306
▁वसमां	-11.031
पायजामा	-11.031
▁टैक्स	-11.0311
ાઓ	-11.0311
▁सोल	-11.0313
ଡେଃଙ୍ଗି	-11.0313
ᱵᱟᱫ	-11.0316
▁शब्दों	-11.0317
▁फुल	-11.0318
मणि	-11.0319
तला	-11.0321
▁ᱥᱚᱡᱷᱮ	-11.0323
▁ᱯᱟᱧᱡᱟᱵ	-11.0323
▁जोजना	-11.0323
▁लोरा	-11.0323
CL	-11.0324
▁घन	-11.0326
નાથ	-11.0333
▁मनोरंजन	-11.0335
▁मानसून	-11.0336
▁सदस्‍य	-11.0336
ढ़ी	-11.0337
્તિ	-11.0338
स्टे	-11.0338
▁अंग्रेजों	-11.0342
▁टू	-11.0348
ᱮᱥᱚᱱ	-11.0348
▁ᱥᱚᱛᱟᱵᱫᱤ	-11.0348
▁रखवाली	-11.0348
▁मूलभूत	-11.0349
res	-11.0352
▁ओकोआ	-11.0358
▁श्रीनगर	-11.036
▁ᱥᱤᱨᱡᱟᱹᱣ	-11.0361
▁ᱯᱟᱹᱴᱷᱩᱣᱟᱹ	-11.0361
▁ᱯᱟᱞᱟᱣ	-11.0361
भु	-11.0364
▁बालक	-11.0364
▁सोमवार	-11.0365
▁લક્ષ્ય	-11.0366
तुम	-11.0367
▁जैवा	-11.0368
ઠીક	-11.0369
▁वाणिज्य	-11.0371
▁टूट	-11.0372
▁दिवशी	-11.0374
▁कप्तान	-11.0374
▁खानपान	-11.0375
▁ᱠᱷᱩᱞᱟᱹᱣ	-11.0376
▁અંદર	-11.0376
▁वेतन	-11.0377
▁ᱵᱟᱝᱞᱟ	-11.0379
ुद	-11.0386
askey	-11.0387
▁स्मृति	-11.0387
▁मुखर्जी	-11.0387
▁सैनिकों	-11.0388
नोः	-11.0393
मंत्र	-11.0397
▁तियार	-11.0398
▁पाहिले	-11.04
एसए	-11.04
▁મુક્ત	-11.04
▁साइकिल	-11.04
सिङ	-11.041
▁मोद्	-11.0412
▁ᱵᱟᱨᱮᱛᱮ	-11.0413
▁बंधू	-11.0413
▁ᱜᱤ	-11.0413
▁कहर	-11.0416
▁पेपर	-11.0418
▁अन्दर	-11.0419
▁श्रद्धांजलि	-11.0426
▁નેતૃત્વ	-11.0426
▁गाणे	-11.0426
▁ज्वार	-11.0428
ढा	-11.0428
गण	-11.0428
वेल	-11.0429
ᱝᱠ	-11.043
હી	-11.043
ical	-11.043
▁पढ़व	-11.0432
ab	-11.0432
इआ	-11.0435
ᱠᱮᱞ	-11.0435
▁साहेब	-11.0439
▁ચીન	-11.0442
▁दक्षिणी	-11.0443
ટ્ટ	-11.0446
▁छत्तीसगड	-11.0451
▁ᱩᱥᱩᱞ	-11.0451
▁ગૃહમંત્રી	-11.0451
▁ड्रिप	-11.0452
Civi	-11.0454
जोर	-11.0456
▁ᱟᱡᱛᱮ	-11.0458
▁निभाई	-11.0461
▁क्लब	-11.0461
all	-11.0463
ସୁ	-11.0464
▁विद्वान	-11.0464
प्रति	-11.0466
ᱸᱜᱟ	-11.0467
▁पौधा	-11.0473
▁दहा	-11.0473
▁સમીક્ષા	-11.0477
शिप	-11.0478
▁घेण्यासाठी	-11.0481
▁उड़ान	-11.0484
▁चुना	-11.0485
▁विशेषज्ञ	-11.0486
▁सबका	-11.0487
▁સમર્થન	-11.049
▁प्रतिनिधित्व	-11.0491
▁लगाते	-11.0494
▁बकरी	-11.0496
▁खतरा	-11.0496
ᱹᱯᱤ	-11.0497
▁उत्पादकता	-11.0498
▁राष्‍ट्र	-11.05
▁ᱫᱩᱨᱤᱵ	-11.0503
▁महाविद्यालय	-11.0503
▁हिंदुस्तान	-11.0503
▁ᱥᱚᱨ	-11.0503
▁કહી	-11.0505
▁इदेन	-11.0507
ᱣᱩ	-11.0509
मोन	-11.0513
षित	-11.0514
▁सहर	-11.0516
▁બંધારણ	-11.0516
▁वंचित	-11.0516
▁उमिअकना	-11.0517
▁मराठी	-11.0517
પણે	-11.0521
▁पिन	-11.0523
▁कोरिया	-11.0526
est	-11.0528
▁अनुमोदित	-11.0529
▁विद्यार्थियों	-11.0529
▁દૂધ	-11.0529
▁मूल्यांकन	-11.053
▁અં	-11.053
▁ᱛᱟᱥᱟᱫ	-11.053
उद	-11.053
▁ଜେ	-11.0535
आञ	-11.054
V	-11.0541
▁ᱛᱤᱠᱤᱪᱪᱷᱟ	-11.0543
▁રકમ	-11.0543
▁इकाई	-11.0543
▁કરતી	-11.0544
▁संजय	-11.0545
ᱥᱳ	-11.0545
अइङ	-11.0545
िस्तान	-11.0547
▁ऑटो	-11.0548
▁R	-11.0548
▁त्यात	-11.0549
▁રાખીને	-11.055
▁अधिकाऱ्यां	-11.0551
▁મોટાભાગના	-11.0551
ᱚᱸᱰᱮᱱᱟᱜ	-11.0552
▁રહેવા	-11.0553
इञअ	-11.0554
▁ઓડિશા	-11.0556
▁ᱢᱚᱥᱞᱟ	-11.0556
▁ताइन	-11.0556
▁लोको	-11.0559
▁लिखित	-11.0559
▁बापू	-11.0562
ંજ	-11.0562
પે	-11.0565
▁ᱟᱞ	-11.0568
▁मुझसे	-11.0569
▁ᱥᱤᱢᱟᱹ	-11.0571
ટો	-11.0573
▁ᱡᱟᱦᱟᱸᱨᱮ	-11.0576
▁सच	-11.0577
▁બિન	-11.0577
▁जिम्मेदार	-11.0578
ମାନେ	-11.0581
▁कोलोः	-11.0581
▁नायडू	-11.0582
▁NCERT	-11.0582
▁खतम	-11.0587
▁ट्रांस	-11.059
પતિ	-11.0591
▁એલ	-11.0593
▁बांस	-11.0597
▁’’	-11.0599
ଗାଲି	-11.06
ma	-11.0601
▁જણાવ્યા	-11.0609
▁पॅ	-11.0611
▁ભાઈ	-11.0613
▁बेरहा	-11.0614
म्मा	-11.0617
▁खेळाडू	-11.0617
▁प्रतिमा	-11.0619
wa	-11.062
▁सशक्तिकरण	-11.0621
▁બન્યા	-11.0621
▁વૈજ્ઞાનિક	-11.0621
▁સ્વીકાર	-11.0621
▁बांग्लादेश	-11.0622
ᱜᱟᱱ	-11.0624
▁ईस्ट	-11.0626
▁भरी	-11.0627
▁દેવા	-11.0628
▁तीनों	-11.063
▁नव्या	-11.0631
इति	-11.0631
▁સરકારની	-11.0633
▁सीधा	-11.0634
▁છત્તીસગઢ	-11.0635
▁હસ્તાક્ષર	-11.0635
▁कारवाई	-11.0636
▁रखे	-11.0637
माल	-11.0641
▁दिवा	-11.0645
▁वायना	-11.0646
स्तर	-11.0646
▁प्लास्टिक	-11.0648
▁मोबाईल	-11.0648
▁२०१	-11.0648
▁ᱦᱮᱯᱨᱟᱣ	-11.0648
▁નવીનતા	-11.0648
▁तूफान	-11.0648
▁बनते	-11.065
▁पढ़े	-11.0653
ାରତ	-11.0657
▁बनेगा	-11.0658
▁ચુકવણી	-11.0661
▁ઝડપી	-11.0661
▁નોંધપાત્ર	-11.0661
विमर्श	-11.0661
▁ᱵᱷᱤᱛᱨᱤ	-11.0661
bo	-11.0662
▁130	-11.0664
▁मिळू	-11.067
ᱠᱟᱱ	-11.0672
▁गू	-11.0675
▁विशेषता	-11.0676
▁પ્રકારના	-11.0679
▁તમારે	-11.068
ho	-11.0681
▁વન	-11.0682
▁कर्मचारियों	-11.0688
▁चालना	-11.0689
▁राज्यमंत्री	-11.069
▁जबाबदारी	-11.069
અમારી	-11.0694
▁बुम	-11.0697
जार	-11.0697
▁બીજી	-11.0699
▁400	-11.07
▁સંપર્ક	-11.0701
▁किशोर	-11.0701
▁गोत्र	-11.0701
▁લગ્ન	-11.0701
▁जॉन	-11.0701
▁यहोवा	-11.0702
▁रकब	-11.0703
▁શહેરી	-11.0704
ાલ	-11.0705
▁संसार	-11.0706
▁हिसा	-11.0707
▁आपणा	-11.071
▁कराना	-11.0714
▁મૂક્યો	-11.0714
▁बठक	-11.0714
▁प्रदर्शनी	-11.0715
दरम्यान	-11.0715
▁ખેતીમાં	-11.0716
▁પાલન	-11.0716
्ह	-11.0718
ᱥᱠ	-11.0719
मेरे	-11.072
▁प्रवासी	-11.072
▁रेहे	-11.0722
▁हमणा	-11.0723
किड	-11.0725
कड़	-11.0727
▁ଦିନା	-11.0727
▁यांच्याशी	-11.0728
ि‍	-11.0729
▁जानने	-11.0734
▁होटल	-11.0735
▁मुह	-11.0735
▁ज्	-11.0736
▁प्रेस	-11.0736
▁જાળવી	-11.0741
▁ᱜᱷᱮᱨᱟᱣ	-11.0741
▁तेलुगु	-11.0741
▁પુસ્તક	-11.0741
▁नयी	-11.0745
घा	-11.0748
▁पुजा	-11.0749
▁co	-11.0751
▁आत्मविश्वास	-11.0754
▁बुड़िअ	-11.0754
▁प्रभु	-11.0757
▁केरळ	-11.0757
▁आसोर	-11.0758
ᱦᱟᱹ	-11.0759
▁चुक	-11.076
▁વો	-11.0763
क्‍त	-11.0764
कर्ता	-11.0767
▁वास	-11.0767
▁ᱪᱷᱟᱰᱟ	-11.0767
▁કેરળ	-11.0767
▁डाला	-11.0768
▁रेयाः	-11.0768
लअः	-11.0772
▁धोती	-11.0773
ok	-11.0776
▁᱙	-11.0777
▁नेंड	-11.0778
▁ତାରି	-11.0779
▁કેન્દ્રો	-11.078
▁आगामी	-11.0781
▁ખેલાડીઓ	-11.0782
▁પાસ	-11.0783
▁सुविधाएं	-11.0783
वंत	-11.0784
▁ᱢᱟᱨᱮ	-11.0787
▁કેન્દ્રિત	-11.0788
▁गलती	-11.0791
▁खरस	-11.0793
▁भौतिक	-11.0794
▁बंदरगाह	-11.0794
म्‍म	-11.0797
▁शेष	-11.0798
ોન	-11.0799
▁संसदीय	-11.0802
▁ᱵᱷᱮ	-11.0804
▁जोमेअः	-11.0808
▁ବେସ୍	-11.0809
▁माझा	-11.0812
▁मुली	-11.0813
▁पीक	-11.082
▁सौभाग्य	-11.0821
▁ᱩᱯᱚᱡᱟᱹᱛᱤ	-11.0821
▁ᱚᱪᱚᱜ	-11.0821
▁ज्यो	-11.0822
▁जागर	-11.0825
्ला	-11.0825
▁परिस्थिती	-11.0829
▁उबर	-11.083
▁आशिया	-11.0831
▁વારસો	-11.0835
▁याचिका	-11.0835
▁एकत्रितपणे	-11.0835
᱒᱐	-11.0838
ग्रह	-11.0839
▁थाइ	-11.0839
ાળ	-11.0846
▁अमीर	-11.0846
▁नैसर्गिक	-11.0848
▁ᱠᱟᱥᱢᱤᱨ	-11.0848
▁लोओते	-11.0848
ᱮᱱᱥ	-11.085
निर्	-11.085
▁तिथि	-11.0852
ખી	-11.0854
▁मानता	-11.0854
▁मिलना	-11.0857
रियो	-11.086
▁ᱵᱟᱜᱟᱱ	-11.0862
▁ભારતને	-11.0868
ᱮᱱᱴ	-11.0869
▁कोणता	-11.0869
▁तिनाने	-11.0874
▁सिफारिश	-11.0875
▁બનાવે	-11.0875
▁दस्त	-11.0876
▁जिल्ह्यातील	-11.0877
▁हॉकी	-11.0879
▁ભૂ	-11.0879
▁कईनी	-11.088
iv	-11.0883
▁जसे	-11.0884
▁दड़िओ	-11.0885
ओगे	-11.0885
▁સમાચાર	-11.0889
▁મુદ્દાઓ	-11.0889
▁जवळपास	-11.0889
▁पंख	-11.089
▁मॅ	-11.0892
▁ज्यादातर	-11.0896
age	-11.0896
▁बनले	-11.0901
ᱢᱤᱰᱤᱭᱟ	-11.0905
▁કોર્ટ	-11.0913
▁પ્રવેશ	-11.0916
▁अड्डा	-11.0916
▁ખાનગી	-11.0916
▁इनकी	-11.0916
कृष्ण	-11.0919
▁कारेन	-11.0919
▁બાબતો	-11.0922
▁सुनाई	-11.0922
▁घुस	-11.0923
▁વિચારો	-11.0924
▁ठे	-11.0927
▁परवानगी	-11.0929
▁देखरेख	-11.0929
▁જેમણે	-11.093
▁वेसवा	-11.0931
ત્રી	-11.0931
ंटा	-11.0931
गिरी	-11.0937
▁ᱡᱤᱭᱟᱹᱞᱤᱠᱚ	-11.0937
ांसह	-11.0941
▁શકીએ	-11.0943
▁राजकुमार	-11.0944
जद्	-11.0944
▁किङ	-11.0945
▁मिळत	-11.0945
व्‍य	-11.095
▁तलाश	-11.0951
▁एकत्रित	-11.0952
ડ્ર	-11.0954
▁आध्यात्मिक	-11.0957
▁ड्रोन	-11.0958
▁टॉ	-11.0958
▁विधियों	-11.0962
▁ᱜᱟᱯᱟ	-11.0963
▁ગરીબ	-11.0964
▁स्वर	-11.0965
धारक	-11.0967
▁શીખ	-11.0968
▁सत्	-11.097
▁सशस्त्र	-11.097
▁રાજસ્થાન	-11.097
▁ઉઠાવ	-11.097
▁વિદ્યાર્થીઓ	-11.0972
▁क्रिया	-11.0974
▁ઉજવવા	-11.0976
▁ᱠᱟᱨᱰ	-11.0979
▁प्रण	-11.098
મ્પ	-11.0982
▁ᱠᱟᱹᱨᱤᱜᱚᱞ	-11.0984
▁तिहुंयी	-11.0984
▁उडुः	-11.0984
▁सीखने	-11.0985
▁स्तरावर	-11.0985
▁O	-11.0986
▁ଏଆ	-11.0988
कर्म	-11.0988
ाकन	-11.099
▁सोंगेको	-11.099
▁शेहर	-11.0991
▁मित्रांनो	-11.0998
▁વિનંતી	-11.0998
▁ज्‍यादा	-11.0998
▁होंगी	-11.0998
▁बचपन	-11.0999
▁आदिवासियों	-11.1
▁पीटि	-11.1001
▁बनाती	-11.1004
▁आंख	-11.1007
▁मोद	-11.1008
▁ગામમાં	-11.101
▁1-730_	-11.1011
▁शिलालेख	-11.1011
▁अवशेष	-11.1011
ᱱᱤᱠ	-11.1013
▁सीता	-11.1014
▁ଇଡୁ	-11.1014
मिसिको	-11.1015
▁दिखाएं	-11.102
▁बुगि	-11.1021
▁अन्त	-11.1024
ગ્રા	-11.1025
▁पाठ्यक्रम	-11.1025
▁ᱟᱹᱨᱤᱪᱟᱹᱞᱤ	-11.1025
▁ᱥᱟᱨᱮᱡ	-11.1026
▁देखता	-11.1028
▁समग्र	-11.1029
स्था	-11.1031
▁जानना	-11.1037
▁मलयालम	-11.1039
▁નિયંત્રણ	-11.1039
▁પ્રવૃત્તિઓ	-11.1039
▁लोकशाही	-11.1039
▁वचनबद्ध	-11.1039
▁पोर्रो	-11.1039
▁मुक्ति	-11.104
२०	-11.1041
▁sur	-11.1043
▁ପି	-11.1043
ଗୁ	-11.1044
ધા	-11.1044
▁मोहम्मद	-11.1052
▁चूंकि	-11.1052
H	-11.1053
संघ	-11.1054
▁ᱜᱩᱱ	-11.1054
स्कर	-11.1055
हयता	-11.1057
ha	-11.1059
▁वनस्पती	-11.106
▁असता	-11.1061
હર	-11.1061
▁मेक	-11.1064
નક	-11.1064
▁गौ	-11.1065
▁पृष्ठ	-11.1066
▁माध्‍यम	-11.1066
▁मिया	-11.1068
▁अर्थात	-11.1075
▁are	-11.1076
▁ᱠᱩᱞᱤ	-11.1077
▁माहित	-11.1078
300	-11.108
▁पहुंचने	-11.1081
▁ᱥᱟᱣᱟᱨ	-11.1082
cy	-11.1084
▁कवर	-11.1084
क्ति	-11.1085
बिनगा	-11.1085
▁करूंगा	-11.1088
ક્લ	-11.109
▁125	-11.1094
▁तपासणी	-11.1095
▁सुभाष	-11.1096
▁वीं	-11.1099
गोः	-11.11
▁गुप्त	-11.1102
ચલ	-11.1104
▁मजबूती	-11.1105
▁न्यायिक	-11.1105
परा	-11.1105
▁संचालक	-11.1108
▁बिक	-11.1108
ନ୍ଦା	-11.1108
▁चैनल	-11.1108
▁उद्यमिता	-11.1108
▁ईसा	-11.1109
ूंगा	-11.1115
▁प्राय	-11.1118
▁आम्हाला	-11.1121
▁મળ્યા	-11.1121
▁ᱯᱟᱹ	-11.1131
▁बिजी	-11.1132
▁સફળ	-11.1132
▁तनिः	-11.1132
▁જવાબ	-11.1132
▁चलाए	-11.1133
विध	-11.1137
▁સવારે	-11.1138
▁पंडित	-11.114
काश्मीर	-11.1141
▁मनखुं	-11.1142
▁बढ़ते	-11.1144
एफसी	-11.1145
▁नमन	-11.1146
▁तमुं	-11.1147
▁उपायों	-11.1148
▁चूड़ीदार	-11.1149
▁प्रशिक्षित	-11.1149
र्श	-11.1149
▁દાયકા	-11.115
▁भागों	-11.1151
▁પ્રો	-11.1151
▁com	-11.1152
ᱥᱟᱱ	-11.1153
ग्रस्त	-11.1153
▁गोद	-11.1156
▁140	-11.1157
▁ᱢᱚᱱᱮᱭᱟ	-11.116
ᱚᱯ	-11.1161
▁રોક	-11.1163
ᱛᱨᱟ	-11.1163
▁अमेरिके	-11.1163
▁તમિલનાડુ	-11.1163
▁रिकाओ	-11.1164
िंङ	-11.1165
▁बैंकों	-11.1167
▁ब्रांड	-11.1168
▁लड	-11.1168
ମି	-11.117
▁पुरअ	-11.1173
▁पाठिंबा	-11.1177
▁संस्करण	-11.1177
▁અંતિમ	-11.1177
▁वचन	-11.1178
▁सकाळी	-11.1178
▁सलवार	-11.1179
▁जिल्हा	-11.1179
डि़य	-11.118
आरए	-11.1183
▁ᱫᱩᱲᱩᱵ	-11.1191
येंगे	-11.1194
▁दह	-11.1195
▁तिला	-11.1197
▁कलम	-11.1197
कूल	-11.1202
▁झूल	-11.1203
▁आश्चर्य	-11.1205
▁ᱜᱷᱚᱴᱟᱣ	-11.1205
▁संताली	-11.1205
▁અધિકારી	-11.1209
सिस	-11.1215
▁चौधरी	-11.1219
▁यातायात	-11.1219
▁વ્યવસ્થાપન	-11.1219
▁આવેલી	-11.1223
▁नौकर	-11.1226
▁अम्	-11.1231
મુ	-11.1238
▁चिलकाते	-11.1241
▁आउट	-11.1242
▁गेम	-11.1244
▁નિયમિત	-11.1247
▁इलाके	-11.1247
ଡ୍	-11.1248
▁भोज	-11.125
नियम	-11.1252
▁हुँ	-11.1252
▁पुरूष	-11.1253
▁ᱡᱟᱹᱨᱩᱲ	-11.1254
ଗ୍	-11.1255
ાઇટ	-11.1256
▁अमरीक	-11.1257
▁हार्दिक	-11.1261
▁अहवाल	-11.1261
▁પ્રેમ	-11.1261
▁ᱡᱚᱫᱤ	-11.1262
▁मालूम	-11.1262
▁ଗିଆ	-11.1265
ᱨᱟᱡᱽ	-11.1265
હો	-11.127
▁છોડી	-11.1271
▁आल्यो	-11.1272
▁प्रसन्न	-11.1275
▁नहर	-11.1275
▁सरा	-11.1284
▁આયોગ	-11.1285
▁स्वराज	-11.1286
▁वित	-11.1288
▁पारदर्शिता	-11.1289
▁फेसबुक	-11.1289
▁संचालित	-11.1289
▁સંમેલન	-11.1289
ood	-11.129
▁जति	-11.129
▁अगाड़ी	-11.1291
▁હવા	-11.1292
ેન્દ્ર	-11.1294
▁370	-11.1296
▁लगाड़	-11.1296
क्षेत्र	-11.1297
▁हस्त	-11.1301
▁वेहट	-11.1303
▁પ્રસ્તાવ	-11.1303
▁ᱟᱹᱲᱟᱹ	-11.1303
▁કાર્ડ	-11.1309
र्च	-11.1312
▁સિદ્ધ	-11.1317
▁स्वाभाविक	-11.1317
▁ᱡᱮᱞᱮᱧ	-11.1317
▁ᱨᱟᱹᱯᱩᱫ	-11.1317
▁मुनडि	-11.1317
▁असू	-11.1319
▁क्षेत्रातील	-11.1319
म्बर	-11.1322
ᱮᱡ	-11.1322
▁हमले	-11.1325
▁जमी	-11.1325
▁चट	-11.1328
▁કાપ	-11.1335
कुछ	-11.1336
▁2005	-11.1337
▁ᱠᱮᱫ	-11.1338
▁ᱵᱮᱣᱦᱟᱨᱟ	-11.1338
▁सौंप	-11.1342
▁वदी	-11.1342
▁मेर	-11.1343
▁ખાતરી	-11.1345
▁योजनेअंतर्गत	-11.1346
▁નવેમ્બર	-11.1346
▁ᱤᱢᱮᱞ	-11.1346
▁ठाकुर	-11.1346
▁ડિ	-11.1347
ट्ठ	-11.135
▁कोसित	-11.1351
▁ᱫᱟᱹᱞ	-11.1355
▁ᱥᱤᱜᱤᱞᱟᱱ	-11.1359
▁કિલ્લા	-11.136
ऑ	-11.1367
મેન્ટ	-11.1368
▁गेआ	-11.1371
▁यात्री	-11.1372
▁बॅ	-11.1375
▁देहो	-11.1379
▁ગીતો	-11.1382
▁सुधारने	-11.1388
▁अरुणाचल	-11.1388
▁ᱠᱩᱠᱢᱩ	-11.1388
▁विभाजन	-11.1388
▁ગીત	-11.1389
▁श्रद्धा	-11.1389
▁ગુરુ	-11.1389
▁उद्देश	-11.1393
छोटे	-11.1397
▁नै	-11.1397
▁खासकर	-11.1398
बानी	-11.1398
▁चारे	-11.14
▁વિજય	-11.1403
▁बुरु	-11.1403
▁લેખ	-11.1403
▁ଗିପି	-11.1403
▁ᱨᱟᱡᱽᱟᱹᱨᱤ	-11.1404
▁तिहुन	-11.1407
▁કાશ્મીર	-11.141
▁રમતો	-11.1412
▁आन्‍द	-11.1413
ହାନା	-11.1413
▁कव	-11.1414
▁साक	-11.1421
ट्रो	-11.1431
▁लाभार्थी	-11.1431
્ધ	-11.1433
▁लिहिले	-11.1438
▁याबाबत	-11.1442
▁जुग	-11.1442
▁फिल्मों	-11.1442
100	-11.1443
▁લાલ	-11.1444
EPFO	-11.1445
▁आकर्षण	-11.1445
▁અત્યાર	-11.1445
▁रक्कम	-11.1445
▁नष्ट	-11.1452
▁भारताचे	-11.1454
आईएस	-11.1455
▁ताइना	-11.1457
बड़	-11.1459
▁बढ़ोतरी	-11.146
▁प्लेटफॉर्म	-11.146
▁नौसेना	-11.146
▁जरमे	-11.1461
દર	-11.1462
▁ग्‍यो	-11.1463
▁हेर	-11.1463
▁समझने	-11.1464
▁परोम	-11.1468
▁गोष्ट	-11.1469
▁सूखे	-11.147
▁बताते	-11.147
▁आपडो	-11.1476
▁આવા	-11.1478
केद्ते	-11.1479
▁लोकांनी	-11.1482
▁बद्	-11.1482
मूल	-11.1482
▁रीतें	-11.1484
▁नवीकरणीय	-11.1488
▁ᱥᱟᱭᱠᱟᱲᱟ	-11.1488
▁सितम्बर	-11.1488
▁घंटा	-11.149
▁होयो	-11.1491
▁झलक	-11.1491
▁આપ્યા	-11.1492
ᱨᱟᱣ	-11.1497
मृ	-11.15
▁साग	-11.1501
pm	-11.1502
▁दोकान	-11.1504
▁पढ़ने	-11.1504
▁मरीज	-11.1507
य्य	-11.1509
▁पारित	-11.1512
ng	-11.1513
▁अमेरिकन	-11.1517
▁નિવેદન	-11.1517
▁फैसले	-11.1517
शिवाय	-11.1517
▁अहमदाबाद	-11.1518
▁ᱨᱤᱠᱟᱹ	-11.1518
बरोबर	-11.1518
▁असतील	-11.152
▁सबले	-11.152
▁ફોર	-11.152
▁अंश	-11.1522
▁ବାହା	-11.1527
भूत	-11.1528
▁ᱚᱱᱞᱟᱭᱤᱱ	-11.1532
▁ᱞᱟᱜᱟᱱ	-11.1532
▁अइंञ	-11.1534
▁ᱫᱟᱲᱮᱭᱟᱱ	-11.1536
▁बढ़व	-11.1536
▁अस्के	-11.1537
ᱫᱚᱨ	-11.1538
▁डालने	-11.1538
▁शास्त्रीय	-11.1539
मुक्त	-11.154
निर्देश	-11.1542
▁बाळ	-11.1543
▁ભંડોળ	-11.1546
▁रोकवा	-11.1546
▁ᱠᱮᱜᱼᱟ	-11.1557
▁લોકોએ	-11.156
▁प्रतिस्पर्धा	-11.1561
▁ᱰᱟᱹᱦᱤ	-11.1561
आयुष्मान	-11.1561
▁अरुण	-11.1561
▁पूर्वोत्तर	-11.1561
सिन	-11.1562
▁વિદેશી	-11.1564
ies	-11.1565
▁महीन	-11.1567
▁आस्था	-11.1569
▁अधिकतम	-11.1571
ance	-11.1573
▁टै	-11.1574
▁ᱵᱤᱱ	-11.1575
ᱰᱤᱡᱤᱴᱮᱞ	-11.1575
▁પસાર	-11.1575
▁બિહાર	-11.1575
▁ᱢᱤᱫᱦᱚᱲ	-11.1577
▁पर्यटक	-11.1579
▁એવી	-11.1589
▁शतरंज	-11.159
▁દીધી	-11.159
िस्ट	-11.1594
▁चढ़	-11.1596
▁निकाय	-11.1598
▁મેચ	-11.1598
ସେରୁ	-11.16
▁सीबीआई	-11.1601
▁मनखा	-11.1601
मंद	-11.1604
▁सर्वोत्तम	-11.1604
▁વધારા	-11.1604
▁ᱥᱟᱹᱜᱤᱧ	-11.1604
▁ᱵᱤᱪᱟᱹᱨ	-11.1604
▁परस्पर	-11.1604
▁ᱱᱮᱦᱚᱨ	-11.1604
▁भव्य	-11.1605
▁शेअर	-11.1606
હિત	-11.1608
▁मिलाकर	-11.1608
परि	-11.1616
▁કરનારા	-11.1617
ल्याने	-11.1617
▁ᱨᱟᱠᱟᱵ	-11.1619
▁भेद	-11.1619
▁श्रेय	-11.1621
▁સંસાધનો	-11.1624
લુ	-11.1625
▁दसा	-11.1626
▁उपग्रह	-11.1635
▁मुर्गा	-11.1636
▁સલાહ	-11.1638
▁पौ	-11.1639
▁ᱨᱚᱲ	-11.1642
▁पड़ेगा	-11.1642
▁ଆଇନେ	-11.1643
▁जंगली	-11.1643
ᱜᱚᱲ	-11.1647
▁जंग	-11.1647
पीएल	-11.1648
▁ईश्वर	-11.1648
▁नोव्हेंबर	-11.1648
▁प्रेतात्मा	-11.1648
▁જાણકારી	-11.1648
▁ᱞᱟᱹᱭᱟᱹᱧ	-11.1648
▁आंदन	-11.1649
▁पावसा	-11.165
▁पंप	-11.1651
ᱦᱚᱞ	-11.1652
सभे	-11.1653
वीर	-11.1654
ap	-11.1654
लियो	-11.1656
▁ᱛᱮᱭ	-11.1656
▁कबीर	-11.1656
▁मनखू	-11.1659
चंद	-11.1662
▁पूर्वानुमान	-11.1663
▁सब्सिडी	-11.1663
▁કોલેજ	-11.1663
▁કી	-11.1668
▁પહોંચી	-11.1671
▁मनवालोर	-11.1671
स्‍ता	-11.1675
▁कार्यान्वयन	-11.1677
▁ᱫᱟᱹᱭᱠᱟᱹ	-11.1677
▁तिंगु	-11.1679
▁रेंगेः	-11.1683
▁अड़अः	-11.1685
▁ᱛᱟᱦᱮ	-11.1686
▁तिहार	-11.1686
▁કુદરતી	-11.1692
▁ᱪᱟᱸᱫᱳ	-11.1692
▁હિન્દુ	-11.1692
▁घूम	-11.1695
▁સાત	-11.1705
▁उपाययोजना	-11.1707
▁ᱮᱞᱟᱨᱢ	-11.1707
▁ᱵᱟᱝᱟ	-11.1709
▁चन्द्र	-11.1711
▁ᱦᱟᱛᱟᱣᱼᱟ	-11.1712
▁पुना	-11.1712
म्‍प	-11.1715
▁अदे	-11.1715
▁सकम	-11.1718
ᱛᱟᱹ	-11.1718
▁बलों	-11.1719
▁थेट	-11.1721
▁કાર્યો	-11.1722
▁ଏଆଞ୍ଜୁ	-11.1723
एनएस	-11.1725
▁श्रीमान	-11.1727
▁एनकन	-11.1734
ंबर	-11.1736
▁इंटरव्यू	-11.1736
▁ᱡᱤᱵᱟᱱᱩ	-11.1736
▁ᱦᱤᱞᱚᱜ	-11.1736
▁ᱫᱩᱯᱲᱩᱵ	-11.1736
▁संयंत्र	-11.1737
▁अगा	-11.1741
ᱠᱮᱱ	-11.1742
ંદર	-11.1747
▁भले	-11.1748
▁विशेषकर	-11.175
▁दरवर्षी	-11.1751
▁कुट	-11.1752
▁रुचि	-11.1756
▁विना	-11.1756
▁हतुरे	-11.176
ड़ियों	-11.1761
▁जुट	-11.1761
▁हालाँकि	-11.1765
▁ચિંતા	-11.1765
▁વાતાવરણ	-11.1765
▁खुला	-11.1766
▁ଆଇ	-11.1766
▁બાળ	-11.1767
ाचार्य	-11.1769
▁कोणती	-11.1775
▁व्‍यक्ति	-11.178
▁ᱛᱟᱸᱦᱮ	-11.178
षाण	-11.1781
▁जीवित	-11.1785
▁अधिकृत	-11.1786
▁सालु	-11.1794
▁શ્રેણી	-11.1795
▁पारदर्शी	-11.1795
▁ସୁ	-11.1798
▁ᱛᱮᱭᱟᱨ	-11.1798
▁चौक	-11.1802
▁प्रकारचे	-11.1802
ᱤᱭᱳ	-11.1803
▁ଗୁ	-11.1804
▁મત	-11.1805
▁नम्बर	-11.1807
▁ᱵᱚᱛᱚᱨ	-11.1807
▁त्वरित	-11.181
▁તળાવ	-11.181
▁ᱢᱮᱛᱟᱜᱼᱟ	-11.1811
वस्था	-11.1813
▁ᱢᱮᱫ	-11.1814
▁पाहत	-11.1816
▁पाळवा	-11.1816
▁રોગ	-11.1817
200	-11.1818
▁કરવાથી	-11.1818
▁स्नान	-11.1818
▁સ્થળ	-11.1823
▁संचयन	-11.1823
▁ᱠᱷᱟᱹᱞᱤ	-11.1825
▁आधी	-11.1825
▁रचा	-11.1826
▁नौजवान	-11.1829
▁ᱜᱟᱲ	-11.1831
▁जदि	-11.1834
ଦେ	-11.1836
ैया	-11.1837
▁संगिन	-11.1838
▁छोड़कर	-11.1838
▁गायक	-11.1839
▁દેશભરમાં	-11.184
▁ᱡᱚᱛᱷᱮᱥᱴᱚ	-11.184
▁ᱪᱩᱨᱤᱛ	-11.184
▁ᱵᱤᱞ	-11.184
▁દિ	-11.1843
▁बांट	-11.1846
▁दैनिक	-11.1855
▁पश्चात	-11.1855
▁ᱥᱟᱨᱵᱷᱤᱥ	-11.1855
▁બચાવ	-11.186
ᱥᱤᱭᱟ	-11.1861
▁मईना	-11.1863
▁बायो	-11.1867
ᱢᱤᱥᱤ	-11.1872
▁ᱚᱠᱟᱨᱮ	-11.1874
▁દેશને	-11.1876
▁पहुंचाने	-11.1882
▁मुफ्त	-11.1884
▁ग्राहकों	-11.1885
फॉर्म	-11.1887
▁गोनो	-11.1892
▁Ch	-11.1893
▁जेवण	-11.1897
▁तिनाये	-11.1899
▁इत्यादी	-11.1899
▁ચલાવવા	-11.1899
ंड़ां	-11.1899
▁ढूंढ	-11.19
▁जाएँ	-11.1903
▁पीड़ित	-11.1905
▁બહેનો	-11.191
સૂ	-11.1912
ᱦᱳ	-11.1914
▁ધોરણ	-11.1914
▁महि	-11.1919
▁अभिमान	-11.1919
जीवन	-11.1922
▁ᱡᱟᱣ	-11.1922
▁न्यायालयाने	-11.1923
▁न्यूनतम	-11.1929
▁नकल	-11.193
▁પ્રાણીઓ	-11.1933
▁असताना	-11.1933
▁2007	-11.1933
▁पेमेंट	-11.1937
▁ᱪᱟᱥᱟ	-11.1937
▁परंपराएं	-11.1938
▁तपास	-11.1941
▁हसु	-11.1946
क्रो	-11.1946
▁मंदिरों	-11.1947
▁किंमत	-11.1948
▁વધે	-11.1951
▁તાજેતરમાં	-11.1952
▁पेला	-11.1954
निर्माण	-11.1957
▁भेदभाव	-11.196
▁शेरवानी	-11.1961
િશ	-11.1962
▁मराठा	-11.1962
▁छिप	-11.1965
▁बेहद	-11.1965
▁रायपुर	-11.1966
▁जनजातियों	-11.1971
▁पुराः	-11.1973
▁कराई	-11.1973
▁गोंड	-11.1974
▁ग्लोबल	-11.1975
▁ખરેખર	-11.1975
▁अंडमान	-11.1975
▁कार्यकाल	-11.1975
▁कमरे	-11.1977
▁राधा	-11.1982
ᱩᱫ	-11.1983
▁बहा	-11.1985
टेक	-11.1987
▁मारो	-11.1987
▁મારો	-11.1988
પૂર્ણ	-11.1989
▁निर्मला	-11.199
▁मुनडा	-11.199
ેલી	-11.199
▁आजकल	-11.199
▁फिरन	-11.1995
फ्रे	-11.2001
ସାନା	-11.2003
फाइ	-11.2004
▁भेजे	-11.2004
्यांच्या	-11.2006
पुरम	-11.2008
▁दायना	-11.201
▁कको	-11.2012
▁ज्यामध्ये	-11.2013
▁ମାଇ	-11.2019
▁જ્ઞાન	-11.202
▁वन्यजीव	-11.2021
આઇ	-11.2023
खू	-11.2024
▁जिने	-11.2027
▁मंडियों	-11.203
▁उपलब्धि	-11.2033
Banjar	-11.2035
▁उर्दू	-11.2035
▁वाजपेयी	-11.2035
▁એટલે	-11.2035
▁उत्‍	-11.2038
वर्तन	-11.2038
▁इधर	-11.2041
▁हाइ	-11.2043
ଡ	-11.2044
▁अंध	-11.2049
▁बढ़ाना	-11.205
▁કાર્યવાહી	-11.205
▁નિયમો	-11.205
▁कीजिए	-11.2051
▁विजेता	-11.2051
▁वर्ण	-11.2053
▁कहानियों	-11.2054
▁लक्षण	-11.2054
धारी	-11.2058
श्‍या	-11.2058
▁शैल	-11.2062
▁ખબર	-11.2067
ટલો	-11.2074
किः	-11.2077
▁अजि	-11.208
▁मालदीव	-11.2081
▁जायेंगे	-11.2082
▁जेवी	-11.2085
▁कंपन्यां	-11.2088
राष्ट्रीय	-11.2089
▁बनोः	-11.2091
▁बज	-11.2091
अत्यधिक	-11.2096
▁रोशनी	-11.2096
▁झाल्यानंतर	-11.2098
▁अस्	-11.2099
रेगे	-11.2103
ᱠᱴᱚᱨ	-11.2104
▁સંખ્યા	-11.2107
▁અર્થવ્યવસ્થા	-11.2111
▁सम्राट	-11.2111
▁निम्न	-11.2112
▁લોકોની	-11.2112
▁आवडत	-11.2115
▁मन्	-11.2117
▁आकांक्षा	-11.2118
▁घटा	-11.2119
धारण	-11.212
▁मुखिया	-11.212
▁ᱦᱚᱲᱟᱜ	-11.2121
per	-11.2121
▁જૂથ	-11.2122
▁एमन	-11.2124
▁पेरेः	-11.2125
▁શબ્દ	-11.2127
▁दुनुब	-11.2127
▁સ્ટેશન	-11.2127
▁पुनः	-11.2132
▁ᱯᱷᱳᱱ	-11.2132
▁भारताची	-11.2132
▁गणेश	-11.2133
▁कय	-11.2137
▁સુધારા	-11.2142
▁पिछल	-11.2144
पश्चिम	-11.2144
न्दी	-11.2149
ᱛᱚᱱ	-11.215
▁मेद्सोबो	-11.2157
▁शिवाजी	-11.2157
▁दुसरा	-11.2158
▁झूठ	-11.2158
▁પાછળ	-11.2159
▁हगाको	-11.2159
▁Start	-11.216
▁लेनेका	-11.216
▁जर्मनी	-11.2161
▁ઘટના	-11.2168
▁સંસદ	-11.2173
▁ᱦᱟᱢᱮᱴ	-11.2173
▁ପେ	-11.2174
▁Fro	-11.2175
▁આપવાની	-11.2176
थर	-11.2178
▁ᱵᱟᱹᱭ	-11.2184
अपने	-11.2184
▁करेली	-11.2186
▁बनाता	-11.2188
▁सुप्रीम	-11.2188
▁સરહદ	-11.2188
▁ऋतु	-11.2188
▁અમિત	-11.2189
▁ᱡᱩᱜᱽ	-11.2189
ोःतना	-11.2189
स्वच्छ	-11.2192
▁हाथों	-11.2192
▁જાત	-11.2194
▁कन्नड़	-11.2195
▁भै	-11.2196
शासन	-11.2197
▁ᱫᱷᱚᱱ	-11.2202
▁आश्वासन	-11.2204
▁ઉકેલ	-11.2204
▁फ्रांस	-11.2204
▁त्यांचा	-11.2204
▁रमेश	-11.2205
▁किययता	-11.2207
▁जानकार	-11.2207
▁वाढवण्या	-11.2207
्टन	-11.2208
▁ᱳᱣᱟ	-11.2208
▁मुख्यालय	-11.2209
▁वाटते	-11.2209
मूल्य	-11.2214
▁लगती	-11.2216
▁ᱜᱩᱨᱩ	-11.2218
▁जिनका	-11.2219
▁आंतरिक	-11.222
चित्र	-11.2221
▁खेलने	-11.2221
▁सकी	-11.2221
▁फलों	-11.2223
▁तस्वीर	-11.2231
▁जरी	-11.2232
▁बेल	-11.2234
▁माझे	-11.2235
▁ટો	-11.2237
▁ᱜᱩᱴ	-11.2237
▁करयों	-11.224
▁भाल	-11.224
ill	-11.2241
▁बीमारियों	-11.2241
▁राज्‍यों	-11.2241
▁मनता	-11.2248
▁દિવસે	-11.225
▁मांसाहारी	-11.225
▁विश्लेषण	-11.225
▁અધિનિયમ	-11.225
▁સામૂહિક	-11.225
▁ᱵᱤᱦᱟᱨ	-11.2251
▁जपागर	-11.2251
▁अकबर	-11.2252
▁ତାରା	-11.2253
▁फेल	-11.2254
▁कुमु	-11.2258
▁પુરસ્કાર	-11.2266
▁माध्यमिक	-11.2267
ुत	-11.2268
धीर	-11.2271
નર	-11.2276
ly	-11.2276
▁ખેતર	-11.2277
▁आलो	-11.2279
▁रच	-11.228
▁ઓનલાઇન	-11.2281
▁गेहूं	-11.2281
ᱜᱳ	-11.2283
ᱯᱳᱨᱴ	-11.2286
एमसी	-11.2292
▁કર્મચારીઓ	-11.2294
▁औपचारिक	-11.2297
▁टमाटर	-11.2297
▁रिजर्व	-11.2297
▁ᱦᱚᱭᱦᱟᱹᱞᱤᱥ	-11.2297
▁उर्जा	-11.2297
▁कुद	-11.2299
मार्केट	-11.23
▁ᱟᱯᱚᱛ	-11.2305
▁रोज़	-11.2306
ᱱᱟᱛᱷ	-11.2308
▁ધન	-11.2309
▁अध्यक्षते	-11.231
▁होण्याची	-11.2311
▁କାବାଡ଼ି	-11.2312
▁ᱥᱤᱨᱯᱟᱹ	-11.2312
▁ᱪᱟᱪᱞᱟᱣ	-11.2312
▁भर्ती	-11.2312
▁᱑᱒	-11.2313
▁સંઘ	-11.2314
▁रिड़ु	-11.2317
▁टकरा	-11.232
▁ᱠᱚᱨᱟᱣᱟ	-11.232
▁टोला	-11.232
▁छोर	-11.232
▁सका	-11.2321
મલ	-11.2321
▁पुराण	-11.2322
ટિ	-11.2325
▁मुर्गी	-11.2328
▁ऑर्डर	-11.2328
▁एखाद्या	-11.2329
▁જાતિ	-11.233
▁पाप	-11.2333
▁ᱠᱩᱥᱤ	-11.2335
वोन	-11.2339
▁କେ	-11.2341
▁उडु	-11.2341
▁ᱞᱟᱦᱟᱱᱛᱤ	-11.2344
▁राजपूत	-11.2344
ષ્ટ	-11.2344
▁वार्ता	-11.2345
▁लुंगी	-11.2346
ન્ન	-11.2346
▁चिकन	-11.2346
▁ଏମ୍ବା	-11.2347
▁लेदा	-11.2349
▁जिनिद	-11.235
ञ्	-11.235
▁ગ્રામ	-11.2357
मूद	-11.2357
▁आंता	-11.2357
▁હરિયાણા	-11.2359
▁ᱟᱹᱢᱟᱹᱞᱤᱭᱟᱹ	-11.2359
▁ᱴᱨᱟᱠᱴᱚᱨ	-11.2359
▁ᱠᱚᱞᱮᱡᱽ	-11.2359
▁તેલ	-11.236
▁ନେଗି	-11.2361
▁રસ	-11.2362
▁तिनो	-11.2363
पुरा	-11.2364
▁पाता	-11.2364
पणा	-11.2364
▁पिकां	-11.2364
ତୁ	-11.2364
▁राजस्व	-11.2367
▁ᱡᱚᱢᱟ	-11.2368
▁मिट	-11.2373
▁પ્રસિદ્ધ	-11.2375
▁110	-11.2376
▁કંઈક	-11.2377
▁जिनमां	-11.2378
ગઢ	-11.2379
▁साद	-11.238
▁तिन्‍हुं	-11.2385
▁अपर	-11.2385
▁ᱢᱟᱭ	-11.2385
▁आवड	-11.2386
▁जांस	-11.2389
▁દુકાન	-11.2391
ऊँगा	-11.2394
▁करियों	-11.2397
▁લડ	-11.2399
बोध	-11.2401
▁कियायतोर	-11.2405
▁આબોહવા	-11.2406
▁गारंटी	-11.2406
जनरे	-11.241
▁पिकांची	-11.2411
▁गरम	-11.2412
▁उधर	-11.2414
▁वाटे	-11.2415
▁कारक	-11.2418
▁बनवले	-11.242
्थ	-11.242
▁बनवण्या	-11.2421
▁विभाजित	-11.2422
▁विभिन्‍न	-11.2422
▁व्याख्या	-11.2422
▁એકબીજા	-11.2422
▁कौतुक	-11.2422
▁ᱥᱟᱡᱟᱣ	-11.2422
▁माझी	-11.2423
▁अर्ज	-11.2423
▁बांधकाम	-11.2424
▁प्रदेशात	-11.2424
▁पुस्तकालय	-11.2424
▁देशवासियांनो	-11.2424
ts	-11.2426
▁नाअःदो	-11.2427
▁रक्षण	-11.2427
મેલ	-11.2427
▁बेटियों	-11.2428
प्‍त	-11.2428
▁ઓહ	-11.2429
▁2001	-11.243
बिल	-11.243
▁ओमे	-11.2433
▁पेड़े	-11.2433
▁चलव	-11.2438
▁ᱥᱟᱢᱵᱽᱲᱟᱣ	-11.2438
▁स्‍थान	-11.2438
विरुद्ध	-11.2438
▁अकेले	-11.2438
▁रेहवा	-11.244
सरकार	-11.2445
ସ୍ପା	-11.2447
▁बारह	-11.2447
▁पर्याय	-11.2449
▁कपड़ा	-11.2451
▁बनती	-11.2452
▁मेळ	-11.2453
▁એજન્સી	-11.2454
▁आढावा	-11.2454
▁धंधा	-11.2454
▁અમલીકરણ	-11.2454
▁उद्योजक	-11.2454
▁तुला	-11.2454
▁पोरोय	-11.2454
▁ग्‍या	-11.2456
▁प्ले	-11.2458
▁दड़िओअ	-11.2458
▁विभागों	-11.2458
સીઆઈ	-11.246
▁यासाठी	-11.2462
▁वाद्य	-11.2466
▁आइए	-11.2466
▁संघटना	-11.2468
र्ध	-11.2469
▁विपरीत	-11.247
▁થોડા	-11.247
▁तिहवार	-11.247
▁हल्की	-11.247
▁खेला	-11.247
▁आसाम	-11.2474
ड़ोः	-11.2475
સિ	-11.2478
▁गौर	-11.248
▁पद्धति	-11.2483
▁અગાઉ	-11.2486
▁ᱫᱳᱠᱟᱱ	-11.2486
▁ᱯᱟᱦᱴᱟ	-11.2486
▁बुआई	-11.2486
▁ᱡᱳᱜᱽ	-11.2488
▁बचे	-11.2489
त्‍व	-11.2492
▁उबा	-11.2493
▁बोले	-11.2494
श्त	-11.2496
ᱞᱟᱭᱤᱱ	-11.2498
ડિ	-11.2499
▁ᱠᱚᱨᱟᱣᱼᱟ	-11.2501
▁ઉદ્યોગસાહસિક	-11.2501
▁ક્રિકેટ	-11.2501
▁मजबूर	-11.2501
▁પિતા	-11.2504
▁शेख	-11.2509
▁भाइयो	-11.251
તન	-11.2514
▁ᱠᱨᱤᱥ	-11.2517
▁घाघरा	-11.2517
▁सीतारमण	-11.2517
▁બાકી	-11.2519
▁ठावा	-11.2523
▁ᱞᱮᱱ	-11.2523
▁दर्जा	-11.2526
▁बई	-11.2526
▁જણાવ	-11.2526
▁बरा	-11.2528
▁लिंक	-11.253
▁पुरू	-11.2532
▁परेशानी	-11.254
▁भेंट	-11.254
नृत्य	-11.2541
▁रोटी	-11.2541
ઊ	-11.2542
▁क्रि	-11.2545
▁વ્યવસાય	-11.2548
▁હોસ્પિટલ	-11.2549
▁जातियों	-11.2558
▁800	-11.2559
ᱡᱳ	-11.256
▁चेतना	-11.256
रोह	-11.2561
▁માધ્યમ	-11.2565
▁पेट्रोलियम	-11.2565
▁लगव	-11.2566
▁શહેરો	-11.2566
▁लगाडवा	-11.2577
▁वर्मा	-11.2578
▁स्टार	-11.2579
▁गुजराती	-11.2579
▁आजीविका	-11.2581
▁परन्तु	-11.2581
▁अस्तित्व	-11.2584
▁ઇન્ટરવ્યૂમાં	-11.2586
ક્ટ	-11.2586
▁साबडा	-11.2586
अकदा	-11.2588
▁ઘરે	-11.2591
▁અંત	-11.2592
▁समर्थक	-11.2592
▁जीवंत	-11.2594
▁चांगल्या	-11.2597
▁ᱢᱚᱦᱟᱨᱟᱥᱴᱨᱚ	-11.2597
▁અસરકારક	-11.2598
cha	-11.2598
▁पटना	-11.2598
च्‍च	-11.26
િકા	-11.2601
▁आतंकवादी	-11.2602
▁लेकान	-11.2604
▁गहरी	-11.2604
▁गुड़	-11.2607
▁ᱨᱟᱥᱟᱭᱚᱱᱤᱠ	-11.2613
▁साहिब	-11.2614
▁बबइ	-11.2614
ction	-11.2614
▁जौ	-11.2615
▁ᱫᱩᱞᱟᱹᱲ	-11.2617
▁भाज्या	-11.2617
▁साजर	-11.2619
▁न्यूज	-11.262
▁वताडवा	-11.262
ભાવ	-11.2623
▁कइनी	-11.2624
▁विषयावर	-11.2625
▁गुर	-11.2627
न्ध	-11.2628
▁येणार	-11.2629
▁प्रचलित	-11.263
▁जई	-11.2632
▁रिलीज	-11.2633
▁धान्य	-11.2634
▁क्षण	-11.2639
▁પત્ર	-11.264
▁વિસ્તારમાં	-11.264
▁एकीकृत	-11.2641
▁परमाणु	-11.2646
▁मार्क	-11.2646
▁जज	-11.2649
▁उपहार	-11.2654
કાશ્મીર	-11.2654
▁संदर्भात	-11.2656
▁So	-11.2656
▁જૂન	-11.2657
▁पांड	-11.2658
▁नकद	-11.2659
ट्रिक	-11.266
ᱠᱟᱞ	-11.266
▁कमांड	-11.2661
▁प्रोजेक्ट	-11.2662
▁संकल्‍प	-11.2663
▁नज़र	-11.2663
▁शंकर	-11.2664
▁तिरु	-11.267
▁स्ट्र	-11.267
▁ପ୍ର	-11.2676
▁पेहलो	-11.2676
▁शुक्रवार	-11.2678
▁ફરિયાદ	-11.2678
▁नैतिक	-11.2678
▁आँख	-11.2678
ᱴᱚᱱ	-11.2679
▁ᱱᱟᱜᱟᱨ	-11.268
▁ओकोअ	-11.2682
▁मळवा	-11.2684
▁ઊભ	-11.2685
▁वाई	-11.2686
▁बेड़ा	-11.2687
▁दोष	-11.269
▁पेलखां	-11.2693
▁मेड़	-11.2693
▁पंजीकरण	-11.2694
▁ᱜᱚᱲᱦᱚᱱ	-11.2694
▁नवम्बर	-11.2695
▁जाणून	-11.27
િયર	-11.2701
▁ગ્ર	-11.2703
ᱧᱪ	-11.2704
ᱟᱹᱱ	-11.2705
▁उपभोक्ता	-11.2707
▁भजन	-11.2709
▁સંપત્તિ	-11.271
▁मलवा	-11.2714
▁सारू	-11.2717
▁इच्छितो	-11.2719
્લે	-11.2721
▁गती	-11.2721
▁केजरीवाल	-11.2727
▁મેળવવા	-11.2727
▁ᱵᱚᱦᱚᱜ	-11.2727
▁महत्‍वपूर्ण	-11.2727
▁પ્રાથમિકતા	-11.2728
ta	-11.2731
▁દેશોમાં	-11.2733
वरील	-11.2737
▁अन्‍य	-11.2737
્મા	-11.2737
▁શાળાઓ	-11.2738
▁हमझ	-11.2741
▁ऑगस्ट	-11.2743
▁उपजाऊ	-11.2743
▁तांत्रिक	-11.2743
▁ઉદ્ઘાટન	-11.2743
लाभार्थियों	-11.2743
▁विमानतळ	-11.2743
▁क्षेत्रांमध्ये	-11.2743
▁ରଣ୍ଡା	-11.2744
ृष्ट	-11.2744
▁गड़	-11.2744
▁क्वा	-11.2745
ल्याबद्दल	-11.2745
▁इगा	-11.2747
▁कुड़िको	-11.2749
▁धाव	-11.2752
▁चलाया	-11.2752
▁ओड़ा	-11.2752
▁थांब	-11.2755
▁लेंग	-11.2758
▁पुष्टि	-11.2759
▁संवेदना	-11.2759
▁તાકાત	-11.2759
ટેક	-11.2759
▁ᱟᱨᱵᱟᱝ	-11.2759
▁આવતા	-11.2759
▁संयुक्‍त	-11.2761
▁जाहिर	-11.2761
▁do	-11.2764
▁ग्रहण	-11.2767
▁पाकिस्तानी	-11.2767
▁ભારે	-11.2769
▁कामकाज	-11.2769
▁मनडि	-11.277
▁इनथी	-11.2774
▁चोरी	-11.2774
ફે	-11.2775
▁प्रशासक	-11.2776
▁चांगला	-11.2776
▁क्रमांक	-11.2776
▁बइअकन	-11.2776
▁शक्तिशाली	-11.2777
▁गै	-11.2783
ᱚᱛᱟ	-11.2787
▁परिस्थिति	-11.279
▁सॉ	-11.2792
▁महासचिव	-11.2792
▁લીધા	-11.2792
▁કલાક	-11.2794
▁de	-11.2794
tic	-11.2798
▁जोहार	-11.28
▁हव	-11.2802
▁મહોત્સવ	-11.2808
▁ᱯᱷᱚᱥᱚᱞ	-11.2809
▁हटिङ	-11.2809
▁ક્યારેક	-11.281
ᱡᱟᱱ	-11.2811
ଜେ	-11.2813
ंद्र	-11.2814
▁:-	-11.2815
શુ	-11.2818
▁मंदुर	-11.2819
ଗିବା	-11.2819
रोध	-11.2821
▁भारताला	-11.2823
सेना	-11.2823
▁આતંકવાદ	-11.2824
▁दायित्व	-11.2825
▁दुर्घटना	-11.2825
▁ᱠᱚᱝᱜᱨᱮᱥ	-11.2825
सीएस	-11.2827
▁मूल्यों	-11.2827
ंतर्गत	-11.283
राज्य	-11.2836
▁भोग	-11.2838
▁लय	-11.2838
र्जी	-11.284
▁मान्य	-11.284
▁द्य	-11.284
▁કર્ણાટક	-11.2841
▁साक्षरता	-11.2841
▁ब्रह्म	-11.2841
▁हंगला	-11.2842
▁ᱦᱟᱹᱱ	-11.2843
▁जिक्र	-11.2845
▁હોવી	-11.2845
▁ᱪᱤᱱ	-11.2846
વાદી	-11.2853
▁होड़ोः	-11.2854
▁पिला	-11.2856
▁मुद्	-11.2858
▁ᱰᱷ	-11.2858
▁निवडणूक	-11.2858
▁પ્રાચીન	-11.2858
▁इथे	-11.2862
▁समाजातील	-11.2867
एमएस	-11.2873
▁बरसात	-11.2873
▁technology	-11.2874
▁वरहु	-11.2878
▁સારો	-11.2879
▁निवासी	-11.2881
ठे	-11.2882
▁મિત્ર	-11.2882
▁सलाड	-11.2883
रेअः	-11.2883
▁बलि	-11.2886
▁चिन्ह	-11.2887
▁कब्जा	-11.2887
▁इलेक्ट्रॉनिक	-11.2888
▁परामर्श	-11.2891
▁पौष्टिक	-11.2891
▁વહીવટ	-11.2891
▁पेशकश	-11.2891
▁गणराज्य	-11.2891
▁लागवड	-11.2892
▁निराशा	-11.2892
ᱯᱚᱛᱤ	-11.2892
▁नमक	-11.2894
रिवाज़	-11.2898
कल्प	-11.29
▁किताबें	-11.2901
▁जनमन	-11.2901
▁आगरा	-11.2901
▁अनुच्छेद	-11.2907
▁ब्रिटेन	-11.2907
▁ᱴᱮᱠᱱᱚᱞᱚᱡᱤ	-11.2907
▁लसीकरण	-11.2907
▁जटिल	-11.2907
▁વીમા	-11.2907
▁વજન	-11.2909
▁आरती	-11.2909
▁रूड़ा	-11.2912
▁ᱮᱢᱟᱫ	-11.2914
vi	-11.2914
▁आधा	-11.2915
▁तटीय	-11.2915
▁गन्ना	-11.2918
▁करियू	-11.2919
सभा	-11.2919
रियर	-11.2924
▁अभिषेक	-11.2924
▁એટલા	-11.2924
▁ᱫᱟᱲᱮᱭ	-11.2925
▁सामान्यतः	-11.2928
U	-11.2934
▁हुदा	-11.2939
▁જૈવિક	-11.2941
▁ᱛᱟᱵᱚᱱᱟ	-11.2941
▁असल्याने	-11.2941
▁कुपुल	-11.2942
▁मोसा	-11.2943
▁उद्या	-11.2944
▁जोअर	-11.2944
द्कोअ	-11.2947
▁मीटिंग	-11.2949
▁जाईन	-11.2949
▁ᱡᱳᱜ	-11.295
▁पक्षियों	-11.2952
्चर	-11.2954
▁बुलाया	-11.2955
▁सभ्यता	-11.2957
▁જાપાન	-11.2958
▁सनते	-11.2958
▁वताडे	-11.2959
सूर	-11.296
▁बोलाव	-11.2961
ଗେ	-11.2964
ᱢᱤᱱ	-11.2965
᱔᱐	-11.2965
▁To	-11.2969
▁પદ્ધતિઓ	-11.2971
▁એકતા	-11.2971
▁वृ	-11.2974
▁ᱛᱤᱸᱜᱩ	-11.2974
▁1950	-11.2974
▁टाका	-11.2974
▁प्रोग्राम	-11.2975
▁ज्याला	-11.2977
▁कैद	-11.2978
▁मरी	-11.2983
▁शांतता	-11.2984
▁देशवासियां	-11.2989
▁सोंकोटो	-11.2991
▁मजदूरी	-11.2994
▁दंग	-11.2996
▁ઉપજ	-11.2999
▁पिताजी	-11.3003
▁સંદેશ	-11.3004
▁ᱚᱨ	-11.3005
▁रइगड़ा	-11.3007
▁ᱥᱤᱸᱜᱟᱹᱲ	-11.3007
▁વ્યવહાર	-11.3007
▁બનવા	-11.3007
▁नींद	-11.3009
ତିନି	-11.301
▁250	-11.3012
ᱷ	-11.3014
ବ୍	-11.3016
्दा	-11.3016
▁ग्ल	-11.3018
લાઇન	-11.302
▁किंमती	-11.3021
▁con	-11.3021
▁ᱠᱷᱮᱞᱳᱰ	-11.3023
▁कश्मीरी	-11.3023
▁ન્યૂ	-11.3024
▁મોટું	-11.3024
▁पेशेवर	-11.3024
▁अक्षय	-11.3024
ગુ	-11.3025
્વા	-11.3031
ल्‍ल	-11.3031
▁ᱠᱩᱞ	-11.3036
▁हुता	-11.3037
▁પરિવારો	-11.3037
▁प्राण्यां	-11.3038
बंदी	-11.3041
▁प्राधान्य	-11.3041
▁बिल्कुल	-11.3041
▁स्टेडियम	-11.3041
▁निरीक्षण	-11.3041
▁रसोई	-11.3041
▁न्‍याय	-11.3044
▁तयारी	-11.3044
▁आलेल्या	-11.3046
▁देताना	-11.3047
ફાઇ	-11.305
ଅ	-11.3053
▁निकालने	-11.3054
જીએ	-11.3054
▁अफगानिस्तान	-11.3058
▁સમારોહ	-11.3058
▁ᱱᱮᱴᱳᱣᱟᱨᱠ	-11.3058
▁ગર્વ	-11.3058
▁काटने	-11.3059
▁हुती	-11.3066
▁डूब	-11.3066
▁भूख	-11.3072
લ્સ	-11.3072
▁ᱩᱢᱮᱨ	-11.3073
▁सुटकारा	-11.3074
▁ᱱᱟᱥᱟᱣ	-11.3074
ᱱᱰᱤ	-11.3075
▁कहानियाँ	-11.3075
▁ખેતરોમાં	-11.3075
▁जिनी	-11.3078
▁अइङअः	-11.3078
IN	-11.3081
▁लगाकर	-11.3086
न्दर	-11.3089
▁इलेक्ट्र	-11.3091
▁इंदिरा	-11.3091
▁ईंधन	-11.3091
▁डेयरी	-11.3091
▁लेदी	-11.3092
▁ᱴᱩ	-11.3094
▁સમસ્યા	-11.3095
▁एवी	-11.3105
▁भूत	-11.3107
▁ᱜᱟᱞᱚᱪ	-11.3108
▁ઉજવણી	-11.3108
▁बर्बाद	-11.3109
▁कचरा	-11.3109
▁સ્વરૂપ	-11.3109
▁मुने	-11.311
▁लगते	-11.3111
▁स्टोर	-11.3116
▁संस्थाओं	-11.3117
▁बणवा	-11.3119
▁गुप्ता	-11.312
ᱯᱷᱟᱨ	-11.312
▁ᱫᱟᱲᱮᱭᱟᱜᱼᱟᱢ	-11.3125
▁મહેનત	-11.3125
▁ᱛᱩᱢᱟᱹᱞ	-11.3125
▁निर्मित	-11.313
▁परियोजनाएं	-11.3133
-26.0	-11.3135
હુ	-11.3136
▁आयुष	-11.3138
▁प्रतिष्ठा	-11.3142
▁तत्त्व	-11.3142
ुद्दीन	-11.3142
▁ᱡᱟᱹᱛ	-11.3144
▁देखिए	-11.3148
▁पतो	-11.3148
▁स्थळां	-11.3148
▁ᱛᱮᱜᱮ	-11.315
᱒᱒	-11.3152
▁देण्याचे	-11.3152
▁दर्द	-11.3153
▁थ्	-11.3154
▁જીવનમાં	-11.3158
▁उपस्थिति	-11.3159
▁મુદ્દ	-11.3159
▁ઓક્ટોબર	-11.3159
▁ᱠᱳᱢᱯᱟᱱᱤ	-11.3159
▁कथित	-11.3159
▁उडुङ	-11.3161
▁ତାଙ୍ଗି	-11.3163
ᱴᱚᱨ	-11.3164
▁दोषी	-11.3173
▁ईमानदारी	-11.3174
▁नंद	-11.3176
▁सुल्तान	-11.3176
▁સ્થિર	-11.3176
▁थायु	-11.3179
▁संतान	-11.318
▁कुटुम	-11.318
િમ	-11.3181
▁लगने	-11.3182
▁प्रतिबद्ध	-11.3183
▁निमा	-11.3183
ᱚᱭ	-11.3186
हमारे	-11.319
हाते	-11.3193
▁મુસ્લિમ	-11.3193
▁પૂજા	-11.3194
▁गणना	-11.3198
्यांना	-11.32
▁चोर	-11.3201
▁कदि	-11.3201
ल्‍ला	-11.3207
▁गज	-11.3208
▁બળ	-11.3211
▁ᱠᱩᱢᱟᱨ	-11.3211
▁ᱥᱮᱴᱮᱨᱚᱜᱼᱟ	-11.3212
▁गुलाब	-11.3214
▁बाय	-11.3218
▁ᱨᱚᱦᱚᱭᱼᱟ	-11.3218
टोर	-11.3224
▁आयुक्त	-11.3229
▁शकेल	-11.3229
▁सूख	-11.323
▁होबव	-11.323
▁બિ	-11.3231
▁वाढते	-11.3232
्वी	-11.3234
▁गोली	-11.3237
▁बैंकिंग	-11.324
▁ᱦᱟᱭ	-11.3243
▁आरोपी	-11.3243
क्री	-11.3243
▁સિસ્ટમ	-11.3244
▁शपथ	-11.3244
फिक	-11.3245
▁वारी	-11.3245
▁રસી	-11.3245
▁आईआईटी	-11.3246
▁पर्रेक	-11.3248
▁सुगड़ा	-11.3249
▁दलित	-11.3252
▁रोस	-11.3252
▁ᱵᱚᱱᱫᱮ	-11.3259
▁વાર્તા	-11.3261
▁दवाखाना	-11.3262
▁इसीलिए	-11.3262
▁पगड़ी	-11.3262
▁अंकुर	-11.3264
▁पड़ती	-11.3265
ध्	-11.3268
▁करियर	-11.3269
▁मळहे	-11.3271
▁जपान	-11.3272
▁तत्वों	-11.3272
▁खरीदार	-11.3277
▁फिट	-11.3278
▁અરજી	-11.3279
▁ताजगी	-11.3279
▁पड़ोसी	-11.3279
▁ᱥᱟᱹᱨᱤᱜᱮ	-11.328
▁केदूं	-11.3282
▁सुनने	-11.3283
▁अवि	-11.3283
▁ऐवु	-11.3286
पैमाने	-11.3287
▁ᱵᱮᱱᱟᱣᱼᱟ	-11.3289
▁लेखन	-11.329
!’’	-11.3294
दृ	-11.3295
▁अध्याय	-11.3296
▁भौगोलिक	-11.3296
▁શ્રીમતી	-11.3296
▁बाधा	-11.3298
▁सर्दियो	-11.33
वंश	-11.3301
▁जड़ी	-11.3302
▁खींच	-11.3303
▁સરકારો	-11.3304
▁गोए	-11.3307
કરા	-11.331
▁व्यायाम	-11.3313
▁स्टार्ट	-11.3314
▁મેદાન	-11.3315
▁इकिर	-11.3318
▁अयुब	-11.3318
▁कसा	-11.3323
▁हिन्द	-11.3323
▁कुंभ	-11.3326
▁ओवर	-11.3328
▁ᱵᱟᱹ	-11.333
▁व्‍यापार	-11.333
▁આંદોલન	-11.333
▁ᱨᱟᱡᱚᱥᱛᱷᱟᱱ	-11.333
▁ᱯᱟᱠᱤᱥᱛᱟᱱ	-11.333
▁उतन	-11.3332
▁इमिन	-11.3333
स्थळ	-11.3334
▁કરીશું	-11.3337
▁जलसा	-11.3341
▁पढ	-11.3341
▁पोर्ट	-11.3345
▁સંઘર્ષ	-11.3348
▁स्त्रोत	-11.3348
▁पासबुक	-11.3348
▁સંગઠન	-11.3348
टीसी	-11.3348
▁ᱢᱤᱥᱚᱱ	-11.335
▁तिहू	-11.3354
▁भेगा	-11.3363
▁एकलव्य	-11.3365
तोम	-11.3365
▁फैसलो	-11.3366
ᱞᱚᱠ	-11.3367
▁ᱥᱚᱵᱷᱟ	-11.3367
▁बीस	-11.3368
▁पहलू	-11.3371
▁अनिल	-11.3374
gi	-11.3375
ानंद	-11.3381
▁टिप्पणी	-11.3382
▁वास्तुकला	-11.3382
▁ᱠᱨᱤᱠᱮᱴ	-11.3382
▁ᱥᱟᱢᱴᱟᱣ	-11.3382
ତେଞ୍ଜୁ	-11.3384
▁मिर्च	-11.3385
▁ᱱᱤᱨ	-11.3387
ियल	-11.3389
▁पिस	-11.3392
▁आएगा	-11.3393
▁ᱥᱟᱦᱚ	-11.3397
▁प्रवक्ता	-11.34
▁व्हिडिओ	-11.34
▁दुरंङ	-11.34
ᱱᱚᱣᱟ	-11.34
▁नजदीक	-11.34
▁रस्ते	-11.3401
ᱭᱮᱞ	-11.3401
ᱪᱮ	-11.3404
▁मंजल	-11.3408
▁आञके	-11.3408
▁પહેલાં	-11.3409
▁સમાજમાં	-11.3409
▁साइट	-11.341
▁होनोर	-11.3413
ᱚᱝ	-11.3414
▁तिन्	-11.3416
▁ऑक्टोबर	-11.3417
▁तिथे	-11.3419
▁કેટલીક	-11.342
▁સત્ર	-11.3422
ीकृत	-11.3423
▁ᱟᱢᱮᱢ	-11.3423
ଆଞ୍ଜୁ	-11.3427
भाष	-11.3432
ग्रो	-11.3433
▁चलेह	-11.3434
▁સમર્પિત	-11.3435
▁शनिवार	-11.3435
બ્	-11.3435
▁आपूना	-11.3436
▁ᱯᱟᱨᱚᱢ	-11.3436
ନ୍ଦାରା	-11.3436
▁કરાવ	-11.3441
▁ᱪᱮᱠ	-11.3444
▁देदा	-11.3445
▁वक्त	-11.3448
᱒᱔	-11.3449
▁फरवा	-11.345
▁ᱠᱟᱹᱢᱤᱭᱟ	-11.3451
▁दृढ़	-11.3453
▁अरजि	-11.346
▁બજારમાં	-11.3461
▁तेयार	-11.3463
ଦ୍	-11.3466
▁રેકોર્ડ	-11.347
▁કપ	-11.347
▁एशियाई	-11.3472
▁बहुमत	-11.3472
▁दरू	-11.3474
▁करारावर	-11.3476
बिया	-11.3476
▁2004	-11.3476
▁सर्विस	-11.3482
▁साई	-11.3483
ual	-11.3486
▁अर्पित	-11.3487
▁पृथ्वीराज	-11.349
▁ᱯᱟᱱ	-11.3495
▁काश्मीर	-11.3497
▁करसाणों	-11.3503
▁संभावित	-11.3505
▁હુમલા	-11.3505
▁મંચ	-11.3509
▁तीसरे	-11.3511
▁आईटी	-11.3515
ચંદ	-11.3515
▁बैठा	-11.3519
▁डिसेंबर	-11.3522
▁ᱠᱩᱠᱞᱤ	-11.3522
▁टिकाऊ	-11.3522
▁बेरगा	-11.3523
▁मार्गदर्शक	-11.3523
▁जिल्ह्या	-11.3523
▁પાઠવ	-11.3524
▁दाड़िओ	-11.3526
▁दड़	-11.3527
ge	-11.3533
કારક	-11.3533
▁उत्‍तर	-11.3535
▁जुड	-11.3536
▁विष	-11.3537
▁मनमोहन	-11.354
▁દર્શાવે	-11.354
▁ᱯᱚᱨᱟᱢᱚᱥ	-11.354
▁रुग्णालय	-11.354
▁સુંદર	-11.3541
▁ᱪᱳ	-11.3541
▁देण्याची	-11.3544
▁उदार	-11.3549
चोर	-11.3552
▁मुड़	-11.3555
▁कर्यो	-11.3555
os	-11.3555
▁થયેલા	-11.3558
▁ᱴᱮᱸᱦᱟᱴ	-11.3558
वडिलां	-11.3559
▁विचारला	-11.3561
बेट	-11.3561
धनुष	-11.3562
▁સંદર્ભમાં	-11.3562
▁मतोना	-11.3563
एँगे	-11.3566
ᱨᱤᱱ	-11.3568
▁लेंगे	-11.3569
▁ફિ	-11.3569
▁मास्टर	-11.3571
▁जाणी	-11.3571
br	-11.3571
▁એર	-11.3575
▁हाऊ	-11.3576
▁શુભેચ્છાઓ	-11.3577
▁बॉक्स	-11.3577
▁नातिन	-11.3578
▁दंड़ा	-11.3581
▁सहभाग	-11.3583
▁ଗୁଲେଃ	-11.3583
▁बणांवा	-11.3585
ᱦᱟᱨ	-11.3585
▁ફરીથી	-11.3586
▁लक्ष्‍य	-11.3588
▁उज्ज्वल	-11.3593
▁બજેટ	-11.3593
▁ᱫᱷᱟᱨᱮ	-11.3593
▁सटीक	-11.3594
▁મંત્રાલયના	-11.3594
▁दाना	-11.3597
▁भाईयों	-11.3597
▁मनाने	-11.3598
▁कन्	-11.3599
▁ତିନି	-11.36
ᱞᱮᱱᱰ	-11.3605
▁टाइम	-11.3608
इञ्	-11.3611
▁प्रादेशिक	-11.3611
▁આત્મનિર્ભર	-11.3611
▁વિકસિત	-11.3611
▁ओलंपिक	-11.3611
▁શિક્ષક	-11.3611
▁धुन	-11.3611
▁ᱠᱮᱫᱼᱟ	-11.3613
▁चलती	-11.3617
▁नौका	-11.3617
ture	-11.3619
्‍ट	-11.3627
▁ચાલો	-11.3628
▁दिवसीय	-11.3628
▁સામ્રાજ્ય	-11.3629
▁ᱛᱟᱞᱟᱢᱟᱞᱟ	-11.3629
▁ब्रिक्स	-11.3629
ଡ଼ାଃଇ	-11.363
▁આપશે	-11.363
▁पॉल	-11.363
▁ओकोनिः	-11.3631
▁ᱡᱩᱞ	-11.3633
નુ	-11.3633
▁एकमेकां	-11.3636
▁સંસાધન	-11.364
▁ઉદ્દેશ	-11.3641
▁मंत्रियों	-11.3641
▁लंग	-11.3642
▁अभिनेत्री	-11.3646
▁વાર્ષિક	-11.3646
▁परिचय	-11.3647
▁પેઢી	-11.3647
▁માર્ચ	-11.3647
वतात	-11.3648
▁ᱠᱟᱛᱷᱟᱭ	-11.3649
▁माँग	-11.365
દીપ	-11.3656
▁be	-11.3656
▁खेलते	-11.3657
વાય	-11.3664
▁कनेक्टिविटी	-11.3664
▁ઓગસ્ટ	-11.3664
▁पिनकोड	-11.3664
▁ટ્રેન	-11.3664
▁देऊन	-11.3664
▁निम्नलिखि	-11.3665
▁ᱟᱞᱚᱢ	-11.3665
▁नस्ल	-11.3666
▁अवश्य	-11.3666
ତାକା	-11.3668
▁कोटुम	-11.3668
▁प्राणी	-11.3668
▁तीसरी	-11.367
▁કરતાં	-11.3672
▁लेखा	-11.3673
ॉप	-11.3674
केआते	-11.3681
▁बैग	-11.3684
▁ᱵᱟᱥ	-11.3686
▁બાળક	-11.3692
लिस	-11.3696
▁अखिल	-11.37
▁तक्रार	-11.37
▁यात्रियों	-11.37
▁सरोवर	-11.37
▁पुरअःगे	-11.3701
▁ᱱᱟᱜᱟᱢᱤᱭᱟᱹ	-11.3702
क्षेप	-11.3702
▁मोनिका	-11.3703
▁अटके	-11.3703
▁ओकतअ	-11.3706
▁छुट	-11.3706
▁रंगीन	-11.3707
one	-11.3717
▁संस्थे	-11.3718
શ્વર	-11.3718
▁अफसर	-11.3721
▁ᱚᱱᱩ	-11.3728
▁ᱡᱤᱞ	-11.373
नूर	-11.373
गृह	-11.373
▁चतुर	-11.3735
▁ଇସେକା	-11.3736
▁वैयक्तिक	-11.3736
▁आलोचना	-11.3736
▁कनेक्शन	-11.3736
▁शराब	-11.3737
▁रांची	-11.3737
▁स्‍कूल	-11.3737
િયો	-11.3738
▁करवानो	-11.3739
▁तलवार	-11.374
▁लगाव	-11.3744
▁खरीदी	-11.3747
ᱜᱷᱚ	-11.3748
▁ᱤᱧᱤᱧ	-11.3748
ᱥᱟᱭ	-11.375
▁कोणत्या	-11.375
▁दबा	-11.3753
▁करीयु	-11.3753
▁घड़ी	-11.3754
▁અમૃત	-11.3754
▁दिलचस्प	-11.3754
▁સમુદ્ર	-11.3754
▁ᱪᱚᱨᱚᱠ	-11.3754
▁ᱱᱤᱭᱟᱹ	-11.3755
ᱥᱟᱢᱟᱱᱭᱚ	-11.3755
▁ग्रे	-11.3759
▁J	-11.3759
▁રાખે	-11.3767
▁शुभारंभ	-11.3772
▁ફક્ત	-11.3772
▁संथाली	-11.3772
▁ગંભીર	-11.3772
▁सुश्र	-11.3772
ଟେ	-11.3773
ग्गा	-11.3773
▁सांगू	-11.3775
▁ᱮᱯᱷ	-11.3777
सीएल	-11.3779
▁ज्यांनी	-11.378
▁बदलवा	-11.3782
▁नींव	-11.379
▁उपलब्‍ध	-11.379
▁મંત્રીમંડળ	-11.379
▁ᱠᱟᱶᱰᱤ	-11.379
▁वैदिक	-11.379
▁चाँद	-11.379
▁तड़य	-11.3791
▁स्टार्टअप्स	-11.3795
ଙ୍ଗାନି	-11.3797
▁मुलांना	-11.3802
▁लगाडी	-11.3803
▁ગંગા	-11.3809
મેર	-11.3815
ᱩᱢ	-11.3818
ᱠᱟᱥ	-11.3822
▁ᱵᱟᱢ	-11.3824
᱗᱕	-11.3825
᱑᱘	-11.3826
▁ᱦᱤᱱᱫᱩ	-11.3827
▁डिजाइन	-11.3827
▁ઉત્સાહ	-11.3827
▁ᱡᱟᱹᱯᱤᱫ	-11.3827
▁આપવાનો	-11.3827
▁मैसूर	-11.3827
▁તકો	-11.3829
▁शर्त	-11.3829
▁तुमको	-11.3831
▁सअःते	-11.3832
स्को	-11.3833
ैट	-11.3834
▁जुक्स	-11.3835
एसएस	-11.3835
▁सुधर	-11.3837
ᱨᱤᱥ	-11.3837
▁दांड़ा	-11.3839
▁थोडा	-11.3842
▁टाड	-11.3843
▁गवर्नर	-11.3845
▁શકું	-11.3845
▁परिचित	-11.3847
▁२००	-11.3847
ᱴᱤᱝ	-11.3847
▁ᱥᱮᱞᱮᱫᱚᱜᱼᱟ	-11.3848
▁વિવાદ	-11.3851
▁किदू	-11.3851
▁लगाई	-11.3854
▁स्रोतों	-11.3854
▁विदा	-11.3856
▁ᱢᱚᱱᱛᱨᱟᱲᱚᱭ	-11.3863
▁पैकेज	-11.3863
▁मसाले	-11.3863
ଣ୍ଡୁ	-11.3863
▁1980	-11.3863
પીએ	-11.3867
ज्‍ज	-11.3867
▁शीत	-11.387
▁खाड़ी	-11.3871
▁हज़ार	-11.3874
▁राहू	-11.3875
आईआर	-11.3879
▁ᱜᱤᱨᱟᱹᱵᱟᱥ	-11.3881
▁सफेद	-11.3881
▁रेड्डी	-11.3881
▁આવવા	-11.3882
दर्शन	-11.3882
आईसी	-11.3882
▁देशांमध्ये	-11.3884
▁ज्योति	-11.3885
वर्ग	-11.3886
કાલ	-11.3887
▁रेंगे	-11.3888
▁लक्ष्यों	-11.389
ᱟᱹᱛ	-11.3896
▁कालावधी	-11.3899
▁मुहम्मद	-11.3899
▁પોષણ	-11.3899
▁માન્યતા	-11.3899
▁ᱪᱚᱠᱨᱚ	-11.3899
▁ᱡᱟᱨᱯᱟ	-11.3899
▁લગાવવા	-11.39
▁मंदानुर	-11.3901
▁शुरु	-11.3901
▁नोंदणी	-11.3901
▁पेहर	-11.3902
▁ᱠᱤᱱ	-11.3903
ᱫᱮᱥ	-11.3904
▁थाये	-11.391
खण्ड	-11.391
▁लग्न	-11.3911
▁हदारवा	-11.3911
▁मस्त	-11.3913
▁बरे	-11.3914
र्फ	-11.3915
▁ट्रैक	-11.3915
▁ग़रीब	-11.3918
▁ग्रुप	-11.3918
▁संसकिर	-11.3918
▁दीर्घ	-11.3918
▁बणांवी	-11.3918
▁गन्ने	-11.3918
▁बनचव	-11.392
▁जोड़ी	-11.3921
▁સમુદાયો	-11.3928
▁600	-11.3931
▁ᱦᱮᱸ	-11.3932
▁तीस	-11.3935
ध्व	-11.3935
▁2003	-11.3935
▁अतिरिक्‍त	-11.3936
▁मते	-11.3938
▁ओकोतअः	-11.3939
▁पोलो	-11.3942
▁विद्या	-11.3942
દુ	-11.3951
▁पडहे	-11.3953
▁કૂ	-11.3953
ध्द	-11.3954
▁गुवाहाटी	-11.3954
▁અનન્ય	-11.3955
▁दिखाओ	-11.3955
▁ᱨᱚᱲᱼᱟ	-11.3956
▁मंगलवार	-11.3957
▁लेती	-11.3957
ᱡᱚᱨ	-11.3967
सफाई	-11.397
▁इहुन	-11.397
▁वनस्पति	-11.3973
▁ચંદ્ર	-11.3973
▁तायोम	-11.3974
▁ᱠᱷᱟᱞ	-11.3975
▁लगवा	-11.3977
▁तथापि	-11.3979
▁यंत्रों	-11.398
▁किमत	-11.3981
▁पण्ड	-11.3982
म्बु	-11.3982
▁लिपि	-11.3983
एससी	-11.3984
▁लतर	-11.3985
▁हफ्ते	-11.3991
▁સપ્ટેમ્બર	-11.3991
▁ᱛᱩᱨᱩᱭ	-11.3991
▁ᱢᱩᱴᱷᱟᱹᱱ	-11.3991
▁ᱵᱤᱱᱤᱭᱳᱜ	-11.3991
▁युरोप	-11.3991
▁सरसों	-11.3992
▁बलिराम	-11.3992
▁बुजव	-11.3995
▁प्रतिनिधियों	-11.3996
▁पहम	-11.3998
▁વૃદ્ધિ	-11.3999
ावली	-11.4001
ᱰᱤᱭᱟ	-11.4002
587	-11.4009
▁ओळखले	-11.4009
▁मुर्गियों	-11.401
▁सूचीबद्ध	-11.4012
ଜାନେ	-11.4013
इये	-11.4014
▁you	-11.4018
▁करणारे	-11.4022
▁जागी	-11.4023
यदि	-11.4027
▁ᱜᱩᱡᱽᱨᱟᱴ	-11.4028
▁જોખમ	-11.4029
▁भ्रम	-11.4029
▁ᱵᱟᱹᱜᱤ	-11.4029
▁मंतंग	-11.403
▁રહેતા	-11.4031
▁टाइम्स	-11.4032
▁वसे	-11.4035
▁રેલ	-11.4035
▁કરનાર	-11.4036
ᱵᱨᱟ	-11.4038
▁पावले	-11.4041
भो	-11.4043
▁अप्र	-11.4044
बरोबरच	-11.4044
ᱥᱴᱟᱨ	-11.4045
▁संक्रमण	-11.4047
▁ᱫᱷᱟᱹᱨᱛᱤ	-11.4047
▁नागालैंड	-11.4047
▁विनोद	-11.4047
▁उपलब्धियों	-11.4052
▁350	-11.4053
▁ᱢᱟᱦᱟᱸ	-11.4054
▁किकम	-11.4055
▁પ્રવાસ	-11.4056
▁मकान	-11.4056
▁मदन	-11.4057
▁गोला	-11.4059
▁चहा	-11.406
▁कद्	-11.4065
▁મળ્યું	-11.4066
▁અવાજ	-11.4066
▁कैमरा	-11.4066
▁सोमाए	-11.4066
▁पूर्ति	-11.4067
▁चौकशी	-11.4068
▁अल्प	-11.4071
▁हाती	-11.4075
▁असं	-11.4076
▁चुने	-11.4077
ભૂમિ	-11.4078
▁बंधन	-11.4079
▁लौ	-11.408
▁लिजा	-11.4081
ંસ	-11.4081
ଣ୍ଡ	-11.4081
▁એશિયા	-11.4084
પ્રારંભિક	-11.4084
▁इकट्ठा	-11.4084
▁કોઈપણ	-11.4084
▁ચિત્ર	-11.4084
▁ଏସ୍ତା	-11.4085
▁ᱪᱟᱸᱜᱟ	-11.4085
▁हमुये	-11.4087
▁अर्थव्यवस्थे	-11.409
▁मधु	-11.4095
▁बनाये	-11.41
▁आरबीआई	-11.4103
▁કદાચ	-11.4103
▁ᱰᱨᱤᱯ	-11.4103
▁ᱮᱭᱟᱭ	-11.4103
▁लिदे	-11.4106
▁सरते	-11.4107
भ्र	-11.4108
▁પાણીની	-11.411
ᱥᱴᱤ	-11.4115
▁जरिया	-11.4116
▁ᱰᱚ	-11.4117
▁बाजारात	-11.4119
ᱴᱤᱠ	-11.4121
▁क्षैत्र	-11.4121
▁ᱦᱟᱦᱟᱲᱟ	-11.4121
▁शून्य	-11.4121
▁वेळा	-11.4122
▁ᱩᱢᱮᱨᱟᱱ	-11.4123
▁होणाऱ्या	-11.4125
तनको	-11.4127
▁रहेगी	-11.4128
▁વર્	-11.4129
▁ᱠᱳᱴᱤ	-11.413
▁अतः	-11.4133
▁हजू	-11.4135
▁पशुपालक	-11.4137
▁ચોક્કસ	-11.414
▁ᱡᱟᱸᱦᱟ	-11.414
▁हतों	-11.4143
▁शकतील	-11.4144
▁जाणार	-11.4145
ांपैकी	-11.4147
▁सूट	-11.4148
▁159	-11.415
▁मुख्‍य	-11.4153
▁दीदी	-11.4154
▁हला	-11.4154
▁साहित्यिक	-11.4156
▁ખાન	-11.4157
▁નિકાસ	-11.4159
▁રાજધાની	-11.4159
▁बियाणे	-11.4159
▁ᱫᱟᱭᱟ	-11.416
▁स्वतःच	-11.416
▁स्वभाव	-11.4161
▁120	-11.4163
▁पत्रिका	-11.4165
▁દળ	-11.4166
ᱩᱥ	-11.4168
▁जिलु	-11.4171
▁कामगिरी	-11.4171
▁ઉપર	-11.4175
▁ᱥᱟᱸ	-11.4176
▁बताएं	-11.4178
▁મોકલવા	-11.4178
▁हर्षवर्धन	-11.4178
▁निकटतम	-11.4178
वधू	-11.418
▁गांम	-11.4181
▁रात्री	-11.4186
द्रा	-11.4186
रुप	-11.4188
▁ખુશી	-11.419
▁मुसिङ	-11.4191
▁मलिक	-11.4195
ᱩᱛ	-11.4196
▁राजनैतिक	-11.4197
▁ᱯᱨᱚᱥᱮᱥᱤᱝ	-11.4197
▁मूळ	-11.4199
▁સ્થિતિમાં	-11.4201
▁वायरस	-11.4205
▁मित्रों	-11.4208
▁जळ	-11.421
ांकडून	-11.4214
घात	-11.4214
▁भिलाला	-11.4216
ᱱᱚᱜᱚᱨ	-11.4216
▁પક્ષો	-11.4219
▁हुकुम	-11.4221
▁સંખ્યામાં	-11.4222
▁કોણ	-11.4222
▁बिग	-11.4222
ks	-11.4223
ष्ण	-11.4229
▁विद्यार्थ्यांना	-11.4231
▁थोडाक	-11.4233
▁सब्	-11.4234
▁પશુપાલનમાં	-11.4234
▁चरित्र	-11.4234
▁ରେହା	-11.4234
▁जवाहर	-11.4234
᱒᱓	-11.4235
▁वड़िय	-11.4237
▁केमकी	-11.4237
▁योद्धा	-11.425
▁झोप	-11.4251
▁सगा	-11.4252
▁उपाध्यक्ष	-11.4253
▁व्‍यक्‍त	-11.4253
᱗᱐	-11.4254
▁निर्देशक	-11.4256
▁मातीच	-11.4257
ᱦᱚᱨ	-11.4259
▁नौजवानों	-11.4267
▁गवाह	-11.4267
रित्या	-11.4269
▁मंत्रिमंडळा	-11.4272
▁श्रेष्ठ	-11.4272
▁થયેલી	-11.4272
▁बिसवास	-11.4272
▁पसंदीदा	-11.4272
▁ᱵᱚᱱᱫᱚᱭ	-11.428
▁गुरूजी	-11.4281
▁ककला	-11.4282
▁मसला	-11.4282
▁उद्यमियों	-11.4282
▁रुपयांची	-11.4284
▁ᱴᱮᱥᱴ	-11.4286
▁मंत्रि	-11.429
▁उल्लंघन	-11.4291
▁ખરાબ	-11.4291
▁ᱢᱚᱦᱚᱛ	-11.4291
▁शिवसेना	-11.4292
▁किल्ल्या	-11.4292
▁हंगाम	-11.4293
▁सुन्दर	-11.4295
▁कार्यशाला	-11.4298
ja	-11.4299
▁कॉम	-11.4302
▁ବୁ	-11.4303
▁જાળવવા	-11.431
▁ᱪᱮᱬᱮ	-11.431
▁संबोधन	-11.431
▁ग्रीन	-11.431
▁ईलाका	-11.4311
▁स्वरोजगार	-11.4311
िनुंग	-11.4312
▁खोजने	-11.4312
▁ᱟᱲᱮ	-11.4312
ᱵᱤᱱ	-11.4313
▁ᱢᱮᱨᱚᱢ	-11.4316
▁એન્ડ	-11.4317
द्योगिक	-11.4321
▁સમસ્યાઓ	-11.4325
ᱣᱟᱞ	-11.4329
▁मिश्रण	-11.4329
▁સમાધાન	-11.4329
▁बोरे	-11.433
▁दिसम्बर	-11.433
ବେଲା	-11.433
▁યુવાનોને	-11.4331
▁જેટલી	-11.4334
▁टेलि	-11.4339
▁शास्त्री	-11.434
᱑᱙	-11.4344
▁बागे	-11.4347
ag	-11.4348
▁कैलेंडर	-11.4349
▁नेतृत्वाखाली	-11.4349
▁दररोज	-11.4349
▁ख़ास	-11.435
▁पाहिजेत	-11.4353
▁वराह	-11.4354
▁ᱯᱷᱳ	-11.4354
▁परराष्ट्र	-11.4359
▁जोशी	-11.4363
▁राजाओं	-11.4364
▁वरहुं	-11.4365
▁फाउंडेशन	-11.4368
▁કોવિડ	-11.4368
▁ᱠᱷᱟᱸᱰᱟᱣ	-11.4368
▁पहिला	-11.4368
▁પક્ષ	-11.4368
▁हल्ला	-11.4369
▁प्रस्तावित	-11.4369
ᱱᱤᱭᱟ	-11.437
ᱹᱮᱥᱹ	-11.437
▁दरिया	-11.4374
▁लोकू	-11.4376
▁ᱟᱰᱟ	-11.4383
▁मधुर	-11.4385
પ્લ	-11.4385
▁निकाला	-11.4386
▁कठ	-11.4386
▁ગૃહ	-11.4387
▁सुगंध	-11.4387
▁अखबार	-11.4387
▁भेजें	-11.4387
▁युनिट	-11.4387
ᱜᱤᱧ	-11.4388
▁રાખવું	-11.4389
▁आत्मनिर्भरता	-11.4389
मांन	-11.4391
▁जअः	-11.4393
▁तै	-11.4394
▁गाडी	-11.4397
▁ગેસ	-11.4399
▁मुले	-11.4399
ᱛᱤᱥ	-11.44
▁जादू	-11.4403
▁जोरदार	-11.4403
▁तइनो	-11.4403
▁निर्भरता	-11.4405
▁इंड	-11.4405
▁गाड़ा	-11.4406
▁સંચાલન	-11.4406
▁સમાપ્ત	-11.4406
▁खुराक	-11.4406
કાળ	-11.4411
▁ᱠᱟᱴᱷ	-11.4413
▁परिस्थितीत	-11.4413
▁तेथे	-11.4422
▁दूरसंचार	-11.4425
▁અમને	-11.4425
▁पीलंग	-11.4426
▁हाटुम	-11.4427
▁फरक	-11.4428
▁मंदना	-11.4429
લિંગ	-11.443
▁जानकर	-11.443
▁ᱟᱠᱚᱣᱟ	-11.4432
▁ફ્લ	-11.4435
न्ज	-11.4435
कॉमर्स	-11.4441
દેવ	-11.4443
▁बदलते	-11.4444
▁मस्जिद	-11.4445
▁सप्टेंबर	-11.4445
▁ᱱᱟᱦᱮᱞ	-11.4445
ight	-11.4445
▁चट्टान	-11.4445
દેશ	-11.4448
▁विपक्ष	-11.4451
▁हॉल	-11.4459
▁उतु	-11.4462
▁ब्राह्मण	-11.4464
▁मेतअइतना	-11.4464
▁सर्वश्रेष्ठ	-11.4464
▁ડિસેમ્બર	-11.4464
▁સૈનિકો	-11.4464
▁प्रतिदिन	-11.4464
▁રસીકરણ	-11.4464
ऐवजी	-11.4464
▁कोलान	-11.4466
▁नेपाली	-11.4471
▁लक्ष्मी	-11.4472
▁भावनाओं	-11.4473
▁रजा	-11.4473
दिवस	-11.4473
▁चलाओ	-11.4475
▁कालेज	-11.4475
▁बाजू	-11.4476
▁સક્રિય	-11.4483
▁कबड्डी	-11.4483
▁ᱛᱟᱲᱟᱢ	-11.4483
▁धेयान	-11.4483
▁फ्री	-11.4485
बन्ध	-11.4488
▁ᱢᱟᱱᱚᱛ	-11.4488
▁ᱜᱚᱲᱚᱭ	-11.4493
ᱜᱨᱟ	-11.4493
▁सिकल	-11.4494
લેટ	-11.4495
▁डिस	-11.4499
▁પ્રાદેશિક	-11.4503
▁સરખામણી	-11.4503
▁ᱠᱮᱨᱟᱞᱟ	-11.4503
▁दिमाग	-11.4503
ત્મક	-11.4503
▁રક્ષા	-11.4504
मीटर	-11.4504
▁बटु	-11.4504
▁इकाइयों	-11.4504
ज्जा	-11.4505
▁ढो	-11.4506
▁खात्री	-11.4508
▁याबद्दल	-11.451
▁हालात	-11.4511
▁खाई	-11.452
વિદ	-11.4521
▁पिट्टे	-11.4522
▁ओडोः	-11.4522
▁एकमात्र	-11.4522
▁चनाः	-11.4523
▁दृष्टिकोन	-11.4523
▁દળો	-11.4524
▁ᱴᱨᱮᱱ	-11.4524
▁ठेवले	-11.4525
▁કલમ	-11.4525
ᱴᱮᱠ	-11.4529
▁मिळाला	-11.4531
▁असुल	-11.4532
▁દેખરેખ	-11.4542
▁ᱪᱩᱠᱛᱤ	-11.4542
▁અપનાવવા	-11.4543
mar	-11.4543
▁चटनी	-11.455
हाँ	-11.4555
▁फीट	-11.4557
यंत्र	-11.4558
ᱴᱩ	-11.4561
▁एनेटेः	-11.4561
▁संक्षिप्त	-11.4561
▁गिरावट	-11.4561
▁ᱛᱟᱢᱟ	-11.4563
▁सूत्रांनी	-11.4563
▁प्रयोगशाला	-11.4563
▁ઘટાડવા	-11.4564
ᱤᱴ	-11.4565
तुंग	-11.4567
▁ᱯᱩᱱᱭᱟ	-11.457
▁अबुअ	-11.457
स्तु	-11.4576
ant	-11.4577
ान्वित	-11.4579
गीत	-11.458
षि	-11.458
▁ऑपरेशन	-11.4581
▁જનરલ	-11.4581
▁સંગ્રહ	-11.4581
▁ज्‍यो	-11.4584
▁वन्य	-11.4585
ᱱᱟᱞ	-11.4585
▁अनूठ	-11.4589
▁देतात	-11.4589
स्‍व	-11.459
▁इम्	-11.4592
ખંડ	-11.4593
᱖᱐	-11.4593
▁दुबई	-11.4594
▁बोझ	-11.4595
Up	-11.4597
▁वादा	-11.4597
᱑᱕	-11.4598
▁रिकार्ड	-11.4599
▁गल्ला	-11.4599
▁ᱵᱮᱼ	-11.4599
▁વિધાનસભા	-11.46
▁હસ્તકલા	-11.46
▁संहिता	-11.4601
▁सेवक	-11.4603
▁माननीय	-11.4603
▁ફિલ્મો	-11.4605
▁कराए	-11.4606
ैक्ट	-11.461
ᱨᱩᱢ	-11.461
▁शतकात	-11.4612
▁ᱚᱠᱛᱚᱨᱮ	-11.4612
▁યુગ	-11.4613
▁कच्छ	-11.4613
▁એરપોર્ટ	-11.462
▁દરરોજ	-11.462
▁ᱛᱚᱛᱛᱷᱚ	-11.462
▁ᱢᱟᱹᱦᱤᱛ	-11.462
ନେ୍ଦ	-11.462
▁असाधारण	-11.4621
▁પ્રતિબદ્ધતા	-11.4622
▁बइओः	-11.4626
▁ନାଇ	-11.4626
▁बस्तर	-11.4626
▁आतापर्यंत	-11.4627
ાર્થ	-11.4628
▁ᱟᱹᱠᱷᱨᱤᱧᱟ	-11.463
our	-11.4633
▁बर्स	-11.4634
▁ᱥᱟᱶᱦᱮᱫ	-11.464
▁સ્વસ્થ	-11.4641
▁कदाचित	-11.4643
▁ᱜᱮᱭᱟᱱ	-11.4643
▁खेळाडूं	-11.4646
▁चांद	-11.4652
▁येतो	-11.4654
▁तोड़िय	-11.4656
▁सल्तनत	-11.466
▁विज्ञापन	-11.466
▁ᱞᱚᱦᱚᱫ	-11.466
▁अरविंद	-11.466
▁मुंडि	-11.4662
▁પિ	-11.4663
▁उपभोक्ताओं	-11.4664
PM	-11.4665
▁જોતા	-11.4668
▁सल्ला	-11.4668
आरसी	-11.4668
योजक	-11.4669
▁जयपुर	-11.4672
▁બાત	-11.4676
▁રસ્તા	-11.4677
▁दड़िया	-11.4679
▁अल्पसंख्यक	-11.4679
▁चण्डुः	-11.4679
▁2030	-11.468
▁ᱦᱚᱦᱚ	-11.4682
▁शरू	-11.4682
▁ᱡᱷ	-11.4683
▁બેઠકો	-11.4688
▁ᱳᱦ	-11.469
▁आठवड्यात	-11.4691
▁ઓળખવા	-11.4694
▁हमारो	-11.4695
▁સરકારને	-11.4698
▁PRAN	-11.4699
▁हिन्‍दुस्‍तान	-11.4699
▁ᱢᱟᱦᱟᱵᱤᱨᱫᱟᱹᱜᱟᱲ	-11.4699
▁ᱯᱚᱧᱪᱟᱭᱮᱛ	-11.4699
▁ᱯᱤᱲᱦᱤ	-11.4699
▁इस्पात	-11.4699
▁ખુલ્લ	-11.4699
▁इमिनङ	-11.4702
▁खोजें	-11.4711
▁सुरेश	-11.4714
આઈએ	-11.4714
ન્જ	-11.4717
▁तुलनेत	-11.4719
▁शैक्षिक	-11.4719
▁धैर्य	-11.4719
▁भोजपुरी	-11.4719
▁पेलखी	-11.4719
▁ઉત્સવ	-11.4719
▁अंतराळ	-11.4719
▁तुलसी	-11.4719
▁ᱰᱚᱞᱟᱨ	-11.4719
▁जोड़व	-11.4721
▁ભારતનું	-11.4722
▁ᱢᱟᱞ	-11.4723
▁विद्यार्थ्यां	-11.4723
▁જગ્યાએ	-11.4724
દિ	-11.4724
ᱼ᱒᱐	-11.4725
▁સુખ	-11.4727
▁जुदि	-11.4731
ᱛᱟᱱ	-11.4732
▁काठो	-11.4732
ᱛᱛᱚ	-11.4733
▁ज़रूरत	-11.4735
▁ᱡᱟᱶᱟᱭ	-11.4739
▁ᱡᱳᱭᱵᱚ	-11.4739
▁थोडी	-11.4739
▁लंदन	-11.4739
▁छुट्टी	-11.474
▁अवलंबून	-11.474
ाकडे	-11.4742
▁तमुयी	-11.4743
▁एनाको	-11.4751
▁नाहक	-11.4753
▁जितनी	-11.4755
▁पूस	-11.4755
▁भेळां	-11.4755
▁मंडळा	-11.4755
▁ऊंचाई	-11.4759
▁નેટવર્ક	-11.4759
▁રમતગમત	-11.4759
▁मत्स्य	-11.4759
▁साढ़े	-11.4759
▁मुख्‍यमंत्री	-11.4759
▁દસ	-11.476
▁पिड़ि	-11.4761
▁ᱚᱡᱚᱱ	-11.4761
▁उन्नति	-11.4762
ᱜᱚᱱ	-11.4763
▁ओमेआ	-11.4765
▁त्ये	-11.4767
▁देणार	-11.4768
ᱫᱮᱵ	-11.4777
▁ગૌરવ	-11.4779
▁તબીબી	-11.4779
▁પ્રશ્ન	-11.4779
▁સાબિત	-11.4779
▁ᱢᱟᱨᱠᱤᱱ	-11.4779
▁निकोबार	-11.4779
▁सजावट	-11.478
▁तुम्हारी	-11.4781
▁प्‍यार	-11.4784
▁माफी	-11.4785
▁संस्‍थान	-11.4788
▁भट्ट	-11.4791
J	-11.4793
▁अभूतपूर्व	-11.4799
▁आश्रम	-11.4799
▁तथ्य	-11.4799
▁छोड	-11.4799
▁लाभदायक	-11.48
▁પોસ્ટ	-11.48
▁आठवण	-11.4803
ip	-11.4806
▁समितियों	-11.4809
▁अर्जी	-11.4812
લ્ટ	-11.4814
▁घेऊ	-11.4814
▁सोनिया	-11.4817
▁ᱨᱤᱡᱷᱟᱹᱣ	-11.4819
જ્ઞ	-11.4819
▁पुरातत्व	-11.4819
▁साउथ	-11.4819
▁ઉદ્યોગો	-11.482
नहीं	-11.482
▁भक्त	-11.4821
▁अगला	-11.4821
▁जगभरात	-11.4822
छु	-11.4827
▁चालु	-11.4836
▁बराबरी	-11.4837
वहार	-11.4838
▁रुग्ण	-11.4838
▁ઝારખંડ	-11.4839
▁મસાલા	-11.4839
▁बुधवार	-11.4839
▁लड़कियों	-11.4839
▁नव्हते	-11.4839
▁UAN	-11.4839
▁पुरवठा	-11.4839
▁ᱟᱵᱚᱨᱮᱱ	-11.4846
▁आजार	-11.4847
▁ᱢᱤᱞ	-11.485
▁समर्थ	-11.4854
▁पावर	-11.4857
मैन	-11.4859
▁ᱠᱚᱨᱱᱟᱴᱚᱠ	-11.4859
ᱯᱨᱚᱫᱷᱟᱱ	-11.4859
ᱡᱤᱛ	-11.4859
▁ᱟᱣᱛᱟᱨᱮ	-11.486
▁જાગૃતિ	-11.486
▁कौर	-11.4861
▁नानक	-11.4862
▁રસ્તાઓ	-11.4862
ost	-11.4864
▁राज्यसभा	-11.4865
हमने	-11.4868
▁मरवा	-11.4873
▁सावधानी	-11.4874
▁बेरस	-11.4875
▁झुक	-11.4878
▁ᱟᱹᱭᱩᱨ	-11.4878
ऋ	-11.4879
▁उर्वरित	-11.4879
▁दुराङ	-11.4879
▁मिज़ोरम	-11.4879
▁जाणे	-11.488
▁भाग्य	-11.4881
▁ᱞᱮᱠᱟᱱᱟᱜ	-11.4883
▁ᱟᱫᱷᱟ	-11.4887
▁ક્ષેત્રો	-11.4889
▁मुंह	-11.4893
▁ऐवो	-11.4894
▁मोड	-11.4895
▁જાન્યુઆરી	-11.4899
▁ટૂંક	-11.4899
▁તારીખ	-11.4899
▁સારવાર	-11.4899
▁सौंदर्य	-11.4899
▁બચત	-11.4899
ક્ષા	-11.49
▁पशुधन	-11.4901
▁बनारस	-11.491
▁चर्च	-11.4911
▁बेपार	-11.4912
▁हियाना	-11.4912
▁મધ્યમ	-11.4917
▁ऋषि	-11.492
▁ᱦᱤᱱᱫᱤ	-11.492
▁आन्दोलन	-11.492
▁Anima	-11.492
ᱞᱟᱱ	-11.4925
ડુ	-11.4925
ધી	-11.4929
▁रखती	-11.4933
ांमधील	-11.4934
▁बटन	-11.4936
▁वृद्ध	-11.4938
▁प्रतीक्षा	-11.494
▁डगरी	-11.494
▁शौक	-11.494
▁मेनजदा	-11.4942
▁निकले	-11.4942
▁असलेले	-11.4949
▁शक्य	-11.4949
▁सलाडवा	-11.4953
ᱴᱚᱢ	-11.4954
▁લોકસભા	-11.496
▁App	-11.496
▁हस्तशिल्प	-11.496
▁ઉત્પાદક	-11.496
▁कठीण	-11.496
▁સૂર્ય	-11.496
▁આસામ	-11.4961
▁ᱵᱤᱫᱮᱥ	-11.4962
▁ᱡᱷᱩᱠᱤ	-11.4962
▁सलमान	-11.4963
▁ᱥᱮᱪᱮᱫᱤᱭᱟᱹ	-11.4964
▁Ther	-11.4964
ऊँ	-11.4965
▁जानेवारी	-11.4966
▁तिहूये	-11.4967
read	-11.4967
▁प्रभारी	-11.4969
▁इन्‍	-11.4979
કૃષ્ણ	-11.4981
▁विनंती	-11.4981
▁શૈક્ષણિક	-11.4981
▁सिन्हा	-11.4981
▁जाणकार	-11.4981
शंकर	-11.4982
ांसोबत	-11.4986
ᱯᱷᱮ	-11.4987
▁पवन	-11.4988
व्यतिरिक्त	-11.4989
▁बढ़कर	-11.4993
▁आबुअः	-11.4999
एसडी	-11.5
UPI	-11.5001
▁अयोध्या	-11.5001
▁ᱫᱷᱤᱨᱤ	-11.5001
▁क्षमा	-11.5002
▁नाह्क	-11.5002
▁शस्त्र	-11.5005
▁यूरोपीय	-11.5006
▁જરૂરિયાતો	-11.5006
▁जरवत	-11.5007
▁डोडा	-11.5007
्बे	-11.5008
▁वनस्पतीं	-11.501
᱘᱐	-11.5012
▁शिक्षकों	-11.5013
▁चढ	-11.5015
▁अकल	-11.5016
▁मिटा	-11.5019
▁दृढ	-11.502
▁एजेंसियों	-11.5021
▁जागृत	-11.5021
▁कलाकारों	-11.5026
▁ओड़अ	-11.5029
▁औषधीय	-11.503
ાત્મક	-11.5033
▁पाळ	-11.5034
▁होबाओअ	-11.5036
▁पसर	-11.5037
▁नोंद	-11.5037
मुझे	-11.5039
▁अरजी	-11.5041
▁ध्वनि	-11.5042
▁પસંદગી	-11.5043
▁पोड़द	-11.5043
▁બધી	-11.5043
▁आईडी	-11.5046
▁लई	-11.5047
▁स्वांग	-11.5048
▁असले	-11.5048
▁કયા	-11.5052
▁दिवाली	-11.5053
▁पुगी	-11.5059
▁बेचकर	-11.5059
ᱚᱲ	-11.5061
▁हस्तक्षेप	-11.5063
▁પ્રદેશના	-11.5065
▁चलिए	-11.5069
शान	-11.5072
स्‍क	-11.5074
▁सुखा	-11.5077
ᱞᱮᱴ	-11.5078
▁आवश्यकताओं	-11.508
▁વિદ્યાર્થીઓને	-11.5081
▁प्रचारक	-11.5082
▁तरीको	-11.5083
▁एसोसिएशन	-11.5083
▁પૃથ્વી	-11.5083
▁મામલા	-11.5083
▁ᱩᱱᱟᱹᱜ	-11.5083
▁सफलतापूर्वक	-11.5084
▁झगड़ा	-11.5085
▁ઉદ્દેશ્ય	-11.5089
▁सिंध	-11.5091
▁सोनोः	-11.5092
ence	-11.5094
▁ओड़अःरे	-11.5099
उन्होंने	-11.5101
▁संख्‍या	-11.5104
▁सामर्थ्‍य	-11.5104
▁અહેવાલ	-11.5104
▁મામલે	-11.5104
▁ᱞᱚᱞᱚᱥᱚᱝ	-11.5104
▁उत्सुक	-11.5104
▁मोफत	-11.5104
▁होड़मो	-11.5104
▁IIT	-11.5104
▁सम्बन्ध	-11.5104
▁पूल	-11.5105
▁चाहिये	-11.5105
▁समझते	-11.5106
▁नियुक्ति	-11.5106
▁पिट	-11.5107
▁पसी	-11.511
▁तिच्या	-11.5111
▁आतंक	-11.5113
▁ગરીબો	-11.5113
▁ढेर	-11.5113
▁रथ	-11.5117
▁ᱨᱟᱡ	-11.5119
▁શિવ	-11.5121
▁अॅ	-11.5123
▁प्रक्रिये	-11.5124
▁व्यवस्थे	-11.5124
▁टेक्नोलॉजी	-11.5124
▁दुग्ध	-11.5124
▁દ્વિપક્ષીય	-11.5124
▁ધાર્મિક	-11.5124
▁कम्पनी	-11.5124
चंद्र	-11.5124
▁मदेद	-11.5125
▁પાત્ર	-11.5127
▁જોડાયેલી	-11.5128
▁નવો	-11.5132
▁दत्त	-11.5138
▁બચાવવા	-11.5138
▁बचने	-11.5142
▁सांस	-11.5143
▁क्यू	-11.5146
डे़	-11.5146
▁વ્યક્તિગત	-11.5146
▁सम्‍मान	-11.5146
▁बहस	-11.515
શાસ્ત્ર	-11.5155
▁નોટ	-11.5155
ढे	-11.5157
▁बिरिद	-11.5157
▁खाण	-11.5157
▁ᱜᱚᱯᱚᱲᱚ	-11.5166
▁पहिले	-11.5166
▁दीजिए	-11.5166
ᱲᱮ	-11.5168
▁उठाड	-11.5171
▁हर्ष	-11.5172
▁અંતર	-11.5174
▁टोळी	-11.5174
▁अंतर्	-11.5175
ओड़ोः	-11.5176
▁अलोम	-11.5178
▁पवार	-11.5179
करीब	-11.518
ᱫᱷᱚᱱ	-11.518
▁धड़ि	-11.5183
▁आवाज़	-11.5183
प्रभा	-11.5184
चुर	-11.5185
▁कर्मचाऱ्यां	-11.5187
▁ᱢᱩᱱᱰᱟ	-11.5187
▁ᱵᱩᱱᱤᱭᱟᱹᱫ	-11.5187
▁दुलाड़	-11.5187
▁बगा	-11.5188
▁येतात	-11.519
▁सिरि	-11.5193
▁सम्‍	-11.5194
ᱹᱟᱭᱹ	-11.5197
००	-11.5198
▁हिन्दु	-11.5199
▁પાર	-11.5199
▁सर्वांना	-11.5202
▁ତାଡ଼ା	-11.5203
▁हमाळ	-11.5203
ᱰᱚ	-11.5206
▁ᱡᱚᱱᱰᱨᱟ	-11.5207
▁मुयतह	-11.5207
▁कोंकणी	-11.5207
▁अगुवाई	-11.5208
▁तैवार	-11.5209
▁हामळ	-11.5212
▁पोरिया	-11.5223
घाट	-11.5227
▁जिमा	-11.5227
▁પુરુષ	-11.5228
▁ભેજ	-11.5228
▁તાજા	-11.5231
Dor	-11.5232
▁સંદેશમાં	-11.5233
ᱢᱚᱱᱛᱨᱤ	-11.5233
▁निंदा	-11.5234
▁કાર્યક્રમમાં	-11.5235
▁विश्वविद्यालयों	-11.5235
▁तीसरा	-11.5237
▁પડકાર	-11.5239
▁प्रभार	-11.5245
▁होत्या	-11.5247
▁बांग्ला	-11.5249
▁सचमुच	-11.5249
▁ईस्वी	-11.5249
▁दरवाजे	-11.5249
▁ᱢᱮᱥᱤᱱ	-11.525
બંધ	-11.5251
▁इंसान	-11.5252
▁શીખવ	-11.5253
▁छपा	-11.5253
▁वैध	-11.5254
▁बणायो	-11.5254
▁एआय	-11.5268
▁જાણો	-11.527
दृष्ट्या	-11.527
▁अभयारण्य	-11.527
▁अलाउद्दीन	-11.527
▁રક્ષણ	-11.527
▁ᱢᱩᱢᱵᱟᱭ	-11.527
▁મશીન	-11.5271
▁गूगल	-11.5271
▁जिलिङ	-11.5273
▁પરિણામે	-11.5275
▁पलटन	-11.5276
▁बेहरा	-11.5277
▁पूरो	-11.5278
▁सबूत	-11.5281
ᱛᱤᱨ	-11.5283
▁कबु	-11.5284
▁चुनौति	-11.5289
▁Festival	-11.5291
▁स्तंभ	-11.5291
hra	-11.5292
ᱠᱟᱣ	-11.5295
▁असणे	-11.5296
▁લગાવ	-11.53
फील्ड	-11.5301
▁रखकर	-11.5302
▁ट्विटर	-11.5303
▁सुकुअः	-11.5306
▁खुली	-11.5306
▁1990	-11.5306
▁આકર્ષ	-11.5308
▁फायदेमंद	-11.5312
▁(2)	-11.5313
▁ᱵᱟᱛᱟᱣ	-11.5313
▁हुनर	-11.5316
▁जोड़कर	-11.5318
ड्रो	-11.5319
▁भणतर	-11.532
▁નીતિઓ	-11.5321
દય	-11.5326
प्‍प	-11.5327
યોજિત	-11.5333
▁सम्‍मेलन	-11.5333
▁શ્રમ	-11.5333
▁पहलुओं	-11.5333
▁उरिः	-11.5333
▁पसाडी	-11.5333
▁रचनात्मक	-11.5334
▁एटाः	-11.5334
ગ્રે	-11.5342
▁पुरो	-11.5346
ડવા	-11.535
▁ᱪᱮᱸᱜᱷᱟᱣ	-11.5352
▁ક્ષેત્રના	-11.5352
▁English	-11.5354
▁बन्डुआ	-11.5354
▁શકતો	-11.5354
▁ᱯᱚᱨᱤᱠᱚᱞᱯᱚᱱᱟ	-11.5354
▁दुरङको	-11.5358
▁वताडो	-11.5359
▁पूर्णपणे	-11.536
▁आठवड्या	-11.5363
▁दवाई	-11.5363
▁ᱛᱮᱥᱟᱨ	-11.5367
▁मठ	-11.5369
▁मिसाल	-11.537
▁सफा	-11.5372
▁कनाडा	-11.5373
▁आभूषण	-11.5376
▁उन्‍हें	-11.5376
▁आढळ	-11.5376
▁स्क्रीन	-11.5376
▁नामांकन	-11.5376
▁कापणी	-11.5377
▁આપવી	-11.5379
▁अकाल	-11.5382
▁ଇଟା	-11.5383
▁ढोल	-11.5384
ନୀ	-11.5391
▁De	-11.5392
गेङ	-11.5394
जातीय	-11.5396
▁વિશાળ	-11.5397
▁बहुतांश	-11.5397
▁प्रियंका	-11.5397
▁जण	-11.5399
▁महुआ	-11.5399
▁વિરોધ	-11.5399
▁आवश्‍यकता	-11.54
▁આવાસ	-11.54
▁આપો	-11.5401
▁बोट	-11.5404
▁इसकुल	-11.5409
गिरि	-11.541
▁उत्‍पाद	-11.5412
▁मेटाइ	-11.5418
▁ᱠᱟᱛᱮᱜ	-11.5419
▁सतह	-11.542
ुअल	-11.5422
▁मारवा	-11.5424
ांतर्गत	-11.5425
ଞ୍ଜ	-11.5425
▁मंडि	-11.5426
▁ᱰᱨ	-11.5427
▁टुङ	-11.5427
▁साध्य	-11.5428
▁પડકારો	-11.5428
▁दुध	-11.5428
ଃଏ	-11.543
▁वसाडवा	-11.5431
▁રાહ	-11.5433
▁ᱜᱮᱥ	-11.5435
▁ओपन	-11.5435
▁રાજ્યોમાં	-11.5437
▁महापुरुष	-11.5439
▁शेवटी	-11.5439
▁જશે	-11.5439
▁कालखंड	-11.5441
▁પંચ	-11.5444
▁अर्जित	-11.5446
▁पोंग	-11.5447
▁बुदु	-11.5447
▁कीटों	-11.5449
▁ᱚᱱᱠᱟ	-11.545
शेखर	-11.5451
▁महिन्यात	-11.5454
▁दिसत	-11.5456
▁कंप्यूटर	-11.5461
▁सद्भाव	-11.5461
▁વેચાણ	-11.5461
▁दक्षता	-11.5461
▁पोलीस	-11.5461
▁રાજ્યમંત્રી	-11.5461
▁महामार्ग	-11.5462
▁ठेवा	-11.5462
▁लटक	-11.5463
▁सतर्क	-11.5463
▁ᱤᱭᱩᱱᱤᱴ	-11.5465
राष्ट्र	-11.5469
▁रणनीतिक	-11.5471
▁बेहतरीन	-11.5473
▁રન	-11.548
▁ᱥᱴᱮ	-11.5481
ory	-11.5481
▁ᱯᱷᱟᱹᱫ	-11.5482
▁मुयतड़	-11.5482
▁लोकसंख्या	-11.5482
▁વિતરણ	-11.5482
▁प्रसंगी	-11.5482
▁संस्थापक	-11.5483
ૌર	-11.5483
ીકરણ	-11.5483
▁મળવા	-11.5484
▁पायदा	-11.5492
▁सूचित	-11.5494
▁પ્રતિનિધિઓ	-11.5501
▁इंजीनियर	-11.5501
ᱮᱯᱷ	-11.5502
▁निमिनङ	-11.5504
▁महानिदेशक	-11.5504
▁मुकाबला	-11.5504
▁કપડાં	-11.5504
▁પ્રતિબંધ	-11.5504
▁सल्लागार	-11.5504
▁अर्पण	-11.5505
▁अभाव	-11.5506
▁इंजीनियरिंग	-11.5506
▁ફળ	-11.5507
▁फूट	-11.5507
▁ᱜᱩᱨ	-11.5507
▁डॉट	-11.5508
▁लेदे	-11.5509
▁बर्रस	-11.5509
▁ᱪᱟᱵᱟ	-11.5509
▁we	-11.551
▁हटाने	-11.5513
▁देदु	-11.5513
▁विनाश	-11.5517
▁બાળકોને	-11.5518
▁दीपक	-11.5521
गिड़ि	-11.5521
▁खरीदते	-11.5521
▁ᱛᱚᱞᱟᱥ	-11.5525
▁सोंगड़ा	-11.5525
▁यावर्षी	-11.5525
▁हिन्दू	-11.5526
▁बुकिला	-11.5526
▁हिमा	-11.5526
▁ᱢᱮᱪ	-11.5533
▁असि	-11.5538
▁रानु	-11.5538
▁संधि	-11.5544
▁सामायिक	-11.5547
▁ભજવી	-11.5547
કર્તા	-11.5547
▁ᱫᱩᱞᱟᱹᱲᱤᱭᱟᱹ	-11.5549
▁અમલ	-11.555
▁2002	-11.5551
▁ᱥᱩᱯᱩᱨ	-11.5555
▁मेद्	-11.5559
▁चिल्ला	-11.5567
▁विष्णु	-11.5568
▁ખોરાક	-11.5568
▁ᱵᱩᱡᱩᱱ	-11.5568
▁अवैध	-11.5568
▁चाचा	-11.5569
▁ᱵᱷᱤᱛᱤᱨ	-11.5569
▁राजकारण	-11.5569
ଙ୍ଗ୍	-11.5569
▁सामान्‍य	-11.5571
लियन	-11.5571
ᱛᱷᱩ	-11.5574
ब्बा	-11.5576
▁स्‍प	-11.5576
᱑᱐	-11.5578
▁मनतिङ	-11.5578
▁लिहि	-11.5581
ᱡᱩᱠ	-11.5584
कर्ताओं	-11.5587
▁इंद	-11.5589
ᱴᱷᱟ	-11.5589
▁दृष्टीने	-11.559
▁राँची	-11.559
▁स्टोरेज	-11.5591
▁लूट	-11.5592
▁ᱯᱨᱟ	-11.5592
▁ଇଦେ	-11.5592
ह्च	-11.5595
▁टेबल	-11.5599
▁व्यापारिक	-11.5601
▁पालक	-11.5602
▁जनुम	-11.5603
▁मिलेंगे	-11.5604
▁आमात	-11.5608
▁टउका	-11.5612
▁वितरित	-11.5612
ગુપ્ત	-11.5612
▁रितें	-11.5612
▁वर्ल्ड	-11.5613
▁ᱯᱮᱢᱮᱱᱴ	-11.5614
▁अनंत	-11.5618
▁मसाला	-11.5618
▁સહાયક	-11.5618
▁ताकद	-11.5619
▁मोकली	-11.562
ोःआ	-11.5626
▁ᱠᱷᱚᱡ	-11.5632
▁तामिळनाडू	-11.5633
▁भगिनींनो	-11.5633
▁સાંસદ	-11.5633
▁शेवटच	-11.5633
▁स्कैन	-11.5634
gen	-11.5638
पीढ़ियों	-11.5638
તથા	-11.5638
▁जनतेला	-11.564
चौ	-11.5642
▁त्याच	-11.5647
▁पांडे	-11.5652
▁સંગઠનો	-11.5655
▁इंग्लैंड	-11.5655
▁સપના	-11.5655
▁बबा	-11.5656
ତେରୁ	-11.5658
▁सहारा	-11.5658
▁हाजर	-11.566
▁अनुवाद	-11.566
▁ખાતા	-11.5661
▁वैसा	-11.5661
▁निराई	-11.5663
▁मोड़	-11.5664
▁सयोब	-11.5665
▁અધ્યક્ષતામાં	-11.5672
વતી	-11.5673
▁ખાવા	-11.5675
▁अमानत	-11.5678
अगर	-11.5678
▁આતંકવાદી	-11.5679
▁त्यापैकी	-11.568
▁आयुष्य	-11.5682
ग्राफ	-11.5684
▁रबल	-11.569
▁પરિણામ	-11.569
▁राज्यांमध्ये	-11.569
▁हमुयी	-11.5691
बोंगा	-11.5692
ᱯᱚᱱ	-11.5695
जिनकी	-11.5696
▁पाठवले	-11.5697
મેન	-11.5698
▁एपिसोड	-11.5699
▁જોડાણ	-11.5699
▁વાસ્તવિક	-11.5699
▁ᱵᱨᱤᱴᱤᱥ	-11.5699
▁प्रभावशाली	-11.5702
▁फेक	-11.5705
▁इनितु	-11.5706
ଜୀ	-11.5708
▁उन्‍द	-11.5712
▁સેટ	-11.5713
▁જગ્યા	-11.5716
▁પાર્ટીના	-11.572
▁Proof	-11.5721
▁कायदेशीर	-11.5721
▁ᱡᱤᱨᱟᱹᱣ	-11.5721
▁अवधारणा	-11.5721
▁ᱩᱫᱩᱜᱟᱹᱧ	-11.5721
▁रत्न	-11.5724
▁एअर	-11.5724
▁तुम्हारा	-11.5725
श्च	-11.5738
▁चाहती	-11.5738
▁મિત્રો	-11.5739
▁ठंडा	-11.574
ᱳᱭᱮ	-11.5742
▁कैंसर	-11.5743
▁कन्या	-11.5743
▁जोगाव	-11.5743
▁पीलानुंग	-11.5745
▁मैत्री	-11.5746
▁प्रतिरोध	-11.5746
▁पांड्य	-11.5747
युक्‍त	-11.575
▁વસ્તુ	-11.5753
▁ઉત્	-11.5759
▁अॅप	-11.5761
▁જોગવાઈ	-11.5765
▁મુંડા	-11.5765
▁સાહિત્ય	-11.5765
▁पोशाख	-11.5765
▁ᱡᱚᱢᱢᱩ	-11.5766
▁बैट	-11.5767
▁प्रताप	-11.5767
ମ୍ବ	-11.5772
▁મોટાભાગ	-11.5773
▁लेलोः	-11.5775
▁व्याज	-11.5775
वेगरो	-11.578
▁રોકવા	-11.5784
▁प्रमाणित	-11.5786
▁पेट्रोल	-11.5787
▁कैबिनेट	-11.5787
▁रामायण	-11.5787
▁नर्मदा	-11.5787
▁ᱢᱟᱢᱞᱟ	-11.5787
▁गोदाम	-11.5788
▁पुगाड	-11.5789
▁रहस्य	-11.5789
▁ᱯᱨᱚᱛᱤ	-11.5789
▁आरक्षण	-11.579
▁ठेवणे	-11.5792
बड़े	-11.5799
▁फंस	-11.5801
▁जाइन	-11.5801
ue	-11.5803
▁તૈયારી	-11.5807
▁ᱥᱚᱝ	-11.5807
▁हरियाली	-11.5809
▁वचमा	-11.581
▁ममता	-11.581
▁ऊँचाई	-11.5816
▁कपडे	-11.5818
▁ᱵᱟᱛ	-11.5819
▁જાણવા	-11.5826
▁फॉ	-11.5828
ᱫᱳ	-11.5831
▁छिड़काव	-11.5831
▁जलप्रपात	-11.5831
▁फ़िल्म	-11.5831
able	-11.5833
▁પકડ	-11.5834
लेकिन	-11.5834
भाई	-11.5838
▁मनखां	-11.584
▁આવતી	-11.5842
▁नेहमीच	-11.5848
▁પરંપરા	-11.5849
▁थंड	-11.5851
▁કરાવવા	-11.5851
ଜାନା	-11.5852
▁रमत	-11.5852
▁इत्यादि	-11.5853
▁भरपाई	-11.5853
ᱛᱚᱢ	-11.5856
▁वाढविण्या	-11.5858
ड्रा	-11.586
▁᱑᱑	-11.5865
ર્પ	-11.5867
▁ᱫᱩᱠ	-11.5873
बहन	-11.5874
▁દિલ્હીના	-11.5875
▁ᱯᱟᱹᱣᱲᱤ	-11.5876
▁ᱵᱷᱟᱹᱜᱤ	-11.5876
▁सिंगापुर	-11.5876
▁शिक्षित	-11.5877
▁એઆઈ	-11.5877
▁टपक	-11.5878
▁जेतए	-11.5878
▁લેશે	-11.5879
▁ट्रस्ट	-11.5879
▁झो	-11.5883
▁तर्क	-11.5886
▁सितरा	-11.5891
▁ᱜᱳᱣᱟ	-11.5892
▁अकादमी	-11.5898
▁ᱵᱤᱞᱟᱹᱛᱤ	-11.5898
▁पसरव	-11.5899
▁यूनिट	-11.5899
▁ᱨᱮᱠᱚᱨᱰ	-11.5899
▁बाँट	-11.59
▁ᱯᱮᱲᱟ	-11.5901
▁कमीज़	-11.5902
▁विवेक	-11.5903
▁संदेह	-11.5905
▁ટોચ	-11.591
▁आसमान	-11.5911
▁१०	-11.5912
▁पर्यटकों	-11.5915
▁अनिश्चित	-11.592
▁મહાત્મા	-11.592
▁ᱵᱤᱛᱠᱤᱞ	-11.592
▁उजागर	-11.592
▁वर्र	-11.592
▁जाहीर	-11.5921
▁સંમત	-11.5923
▁बढ़ाई	-11.5924
▁ઇચ્છ	-11.5924
▁આકર્ષક	-11.5925
▁ભૂલ	-11.5926
नेवाले	-11.5929
▁तुसिङएअ	-11.5939
▁ᱜᱟᱹᱠᱷᱩᱲ	-11.5941
▁तेंदुलकर	-11.5943
▁આશરે	-11.5943
▁चउलि	-11.5943
▁बिंदु	-11.5943
▁खासदार	-11.5943
▁वाजता	-11.5943
▁ᱜᱟᱰᱟ	-11.5944
▁પ્રચાર	-11.5944
▁આપું	-11.5949
▁वक्तव्य	-11.5951
▁લગાવી	-11.5955
▁सदियो	-11.5959
▁कक्ष	-11.5962
ᱞᱟᱢ	-11.5966
▁सफर	-11.5966
▁जुन्या	-11.5968
▁महाभारत	-11.5969
▁गांधीजी	-11.5984
vakya	-11.5988
▁તબક્કા	-11.5988
▁पीयूष	-11.5988
▁અભિગમ	-11.5988
▁વિકલ્પ	-11.5988
▁गेहूँ	-11.5988
▁यमुना	-11.5988
▁लीजिए	-11.5988
▁मुहैया	-11.5988
▁मकसद	-11.5989
▁वर्षांच्या	-11.5992
▁पर्वतीय	-11.5995
▁घडवू	-11.5995
▁तअःरे	-11.5995
▁बरिया	-11.6003
▁સર્વ	-11.6005
▁વૃક્ષ	-11.6007
फोर	-11.6009
▁विशेषज्ञों	-11.601
▁पाये	-11.601
▁पुर्तगाल	-11.601
▁ઓછો	-11.601
▁निराकरण	-11.601
Chapter	-11.601
▁कमान	-11.6011
▁स्टॉक	-11.6011
▁ફેલાવ	-11.6013
▁हल्ल्या	-11.6017
वर्त	-11.602
▁तकिन	-11.602
▁નજીકના	-11.6022
▁ᱥᱮᱞᱮᱫᱚᱜ	-11.6029
▁आवहे	-11.6031
સ્વતંત્ર	-11.6033
▁मधुमक्खी	-11.6033
▁घेणे	-11.6033
▁उभे	-11.6033
▁नव्हे	-11.6034
▁ઘરમાં	-11.6035
▁भेळी	-11.6036
हमारी	-11.6042
▁महिन्यां	-11.6044
▁कहलात	-11.6054
-5-8_	-11.6054
्सोर	-11.6055
▁सम्मिलित	-11.6056
▁शाळेत	-11.6056
▁तिब्बत	-11.6056
▁किस्मों	-11.6062
નિયા	-11.6073
▁કન્	-11.6075
▁પ્રેરિત	-11.6078
▁બનશે	-11.6078
▁ᱟᱫᱟᱞᱚᱛ	-11.6078
▁भाषे	-11.6079
▁ट्रक	-11.6083
▁धातु	-11.6083
▁वित्‍त	-11.6086
ᱵᱮᱞ	-11.6088
▁सांप	-11.6088
▁પશુઓ	-11.6089
▁हानि	-11.6089
▁सीमाओं	-11.6089
ᱢᱤᱨ	-11.609
▁St	-11.6098
बीसी	-11.6098
ઘાટ	-11.6099
▁मुरलीधरन	-11.6101
▁મંડળી	-11.6101
▁अग्रणी	-11.6101
▁માણસ	-11.6101
▁डोगरी	-11.6101
▁क्लास	-11.6104
▁कोहली	-11.6107
▁जरुरी	-11.6107
▁मानवीय	-11.6108
▁દિવસોમાં	-11.6109
ବୁ	-11.6111
chi	-11.6112
▁फाइल	-11.6115
▁सेलेद	-11.6117
ᱠᱠᱷᱚ	-11.6121
▁ᱞᱤᱸᱜᱤᱱ	-11.6124
▁टैगोर	-11.6124
▁संघटने	-11.6124
▁ओड़ओ	-11.6129
ାନ	-11.6138
▁સલાહકાર	-11.6139
▁म्हणजेच	-11.6141
▁योजनेच्या	-11.6144
ART	-11.6147
▁वैकल्पिक	-11.6147
▁ઉદ્યાન	-11.6147
▁સક્ષમ	-11.6147
▁સપ્તાહ	-11.6147
▁बच्‍चे	-11.6147
▁खारिज	-11.6147
▁वेगवेगळ्या	-11.6148
▁विकासशील	-11.6148
▁रतन	-11.615
ज्यांना	-11.6151
᱙᱐	-11.616
▁नागरी	-11.6161
▁स्‍वच्‍छता	-11.6163
यनुर	-11.6167
▁ᱱᱩᱱᱟᱹᱜ	-11.617
▁अग्नि	-11.617
▁પ્રકૃતિ	-11.617
▁अतिथि	-11.6171
▁शुक्ल	-11.6171
▁જૂથો	-11.6177
ᱱᱫᱨᱚ	-11.6178
▁खोद	-11.618
▁ᱠᱷᱚᱨᱟ	-11.6181
▁ᱯᱟᱴᱷ	-11.6183
वाळां	-11.619
▁અધિકારીઓએ	-11.6191
▁exam	-11.6193
▁विश्वसनीय	-11.6193
▁દીકરી	-11.6193
▁ધારાસભ્ય	-11.6193
▁શર્મા	-11.6193
▁बच्चन	-11.6193
▁तेहवार	-11.6193
▁पूर्वजों	-11.6193
▁चित्रकला	-11.6195
▁काहटी	-11.6195
▁सचिन	-11.6196
▁ठेवण्यासाठी	-11.6197
▁राहील	-11.6197
▁पारंपारिकपणे	-11.6198
▁जनजाती	-11.6201
▁हूॅ	-11.6203
▁बणाया	-11.6206
▁અધ્યક્ષતા	-11.6211
▁અદાલત	-11.6216
▁મીઠાઈઓ	-11.6216
▁बच्‍चों	-11.6216
▁लाकडी	-11.6216
ᱩᱵ	-11.6216
▁अड़चेन	-11.6219
भांति	-11.6219
▁झेल	-11.6221
▁ᱧᱮᱞᱚᱜ	-11.6224
▁पंडाना	-11.6225
▁घटने	-11.6225
-7-	-11.6225
स्वामी	-11.6226
▁રાખો	-11.6232
▁बैंड	-11.6237
▁उमेदवार	-11.6239
▁प्रासंगिक	-11.6239
▁ઉંમર	-11.6239
▁જુલાઈ	-11.6239
▁जुलै	-11.6239
▁મિશ્ર	-11.6239
▁शहद	-11.6239
▁ᱫᱮᱞᱟ	-11.624
▁दस्तुर	-11.624
▁પરિણામો	-11.6243
▁तलाव	-11.6247
▁परिषदेत	-11.6248
ମାନି	-11.6248
▁ᱯᱨᱤ	-11.6251
बर्ग	-11.6252
▁खड़ी	-11.6255
ન્ના	-11.6258
आईटी	-11.6259
▁पातळीवर	-11.6262
▁ᱩᱭᱠᱮᱴ	-11.6262
▁खाजगी	-11.6262
▁દાખલ	-11.6262
▁ᱯᱩᱡᱟᱹ	-11.6262
▁जताई	-11.6263
▁वैपार	-11.6264
▁नतिन	-11.6264
▁ᱥᱟᱢᱟᱱ	-11.6265
▁ᱢᱟᱱᱣᱟ	-11.6265
▁एसकर	-11.6265
▁इदेना	-11.6271
▁मार्गावर	-11.6276
▁लागु	-11.6278
▁सीएम	-11.6285
▁कंपनि	-11.6286
▁धोरोम	-11.6287
▁પ્રભાવિત	-11.6287
▁दुरंग	-11.6291
્ડ	-11.6291
▁पुट्ट	-11.6291
▁कुटुंबातील	-11.6293
▁કઈ	-11.6299
▁समक्ष	-11.63
▁रोहित	-11.6305
▁रिकाओः	-11.6306
▁आधारावर	-11.6307
▁सॉफ्टवेयर	-11.6309
▁જોયું	-11.6309
▁खूबसूरत	-11.6309
▁Tr	-11.6311
▁हँस	-11.6312
▁માંગે	-11.6313
न्‍ह	-11.6314
▁बदम	-11.6318
▁सकेंगे	-11.6322
▁ᱪᱤᱱᱦᱟᱹᱣ	-11.6324
▁સંબોધ	-11.6328
▁तुरि	-11.633
▁ᱞᱟᱹᱠᱛᱤᱜ	-11.6331
▁अकादंदा	-11.6332
▁ᱟᱢᱮᱨᱤᱠᱟ	-11.6332
▁एप्रिल	-11.6332
▁ᱫᱟᱹᱲ	-11.6333
▁घेता	-11.6333
▁येणाऱ्या	-11.6336
▁પદ્ધતિ	-11.6336
▁गंध	-11.6338
▁ખેલાડી	-11.6353
▁ᱯᱟᱲᱟᱜ	-11.6354
▁प्रतिष्ठित	-11.6355
▁બધું	-11.6355
प्रीत	-11.6355
▁असके	-11.6355
▁महत्‍व	-11.6356
▁परदेशी	-11.6357
ગમ	-11.6358
▁सुनील	-11.6362
▁વીર	-11.6363
▁જૂની	-11.6363
▁ᱦᱚᱞᱟ	-11.6366
▁पकड	-11.637
ᱮᱠᱴ	-11.6371
▁तिहुई	-11.6371
କୁରି	-11.6373
▁असुर	-11.6375
▁ફેરફાર	-11.6379
▁सदैव	-11.6379
▁नगालैंड	-11.6379
▁મૂળભૂત	-11.6379
▁सिविल	-11.6379
हारू	-11.6379
▁चौहान	-11.638
ोत्सव	-11.6381
▁आगमन	-11.6386
▁आयुर्वेदिक	-11.6386
▁मेनः	-11.6386
▁ᱥᱟᱸᱜᱷᱟᱨᱤᱭᱟᱹ	-11.6387
▁પુલ	-11.6387
भगिनी	-11.6394
▁मुंडारी	-11.64
▁संवैधानिक	-11.6402
▁क्रियाकलाप	-11.6402
▁पुर्	-11.6404
शोध	-11.6404
▁ओहनह	-11.6404
▁પ્રતિનિધિ	-11.6405
▁द्वि	-11.6408
▁आस्क	-11.6411
▁ત્રિ	-11.6411
▁પુન	-11.6411
▁तीव्र	-11.6411
समूह	-11.6415
▁इतिहासकार	-11.6424
▁ᱜᱟᱞᱢᱟᱨᱟᱣ	-11.6426
▁પત્ની	-11.6426
▁पाऊस	-11.6426
▁जलाशय	-11.6426
▁पेड़ेए	-11.6427
▁खून	-11.6428
▁मनोहर	-11.6433
મુખ	-11.6436
▁मगर	-11.6438
cr	-11.644
▁ᱟᱹᱥᱩᱞᱤᱭᱟᱹ	-11.6441
_856	-11.6443
▁ᱩᱯᱚ	-11.6443
ବେଃ	-11.6446
▁अवलंब	-11.6448
▁जेरा	-11.6448
▁फायदेशीर	-11.6449
▁ઉમેદવાર	-11.6449
▁સશક્ત	-11.6449
▁ᱫᱟᱯᱨᱟᱢ	-11.6449
▁सुषमा	-11.6449
▁त्याचप्रमाणे	-11.6449
▁कोळसा	-11.645
▁छवि	-11.6451
▁बळ	-11.6454
▁विनिर्माण	-11.6454
▁आर्य	-11.6458
ᱵᱤᱨ	-11.6464
▁फुले	-11.6464
▁इद्द	-11.6471
▁बारीक	-11.6472
▁मल्चिंग	-11.6473
▁સ્વાગત	-11.6473
▁स्वायत्त	-11.6473
▁ᱨᱟᱡᱽᱜᱟᱲ	-11.6473
▁दड़िओःअ	-11.6475
▁सूसी	-11.6479
▁કોર્ટે	-11.6482
▁धोनी	-11.6482
ાયેલા	-11.6487
ध्यक्ष	-11.6493
▁टक्क्यां	-11.6497
▁हिस्‍सा	-11.6497
▁ᱦᱩᱭᱫᱟᱲᱮᱭᱟᱜ	-11.6497
▁संगठित	-11.6497
▁रघु	-11.6497
स्थानांतरित	-11.6497
કારો	-11.6498
▁बुतो	-11.6503
▁चुप	-11.6503
▁राट्र	-11.6509
▁सुशील	-11.6514
▁दौरे	-11.6515
▁घेरू	-11.6516
▁प्रजासत्ताक	-11.652
▁विफल	-11.6521
▁નાણાં	-11.6521
▁ᱜᱟᱭᱟᱱ	-11.6522
▁हिरण	-11.6527
ᱯᱩᱨᱤ	-11.6528
▁छुट्टिय	-11.6533
ᱡᱟᱦᱟᱸ	-11.6534
▁लगेगा	-11.6542
▁પરિસ્થિતિ	-11.6544
▁15-17	-11.6544
▁सुरुवातीला	-11.6544
▁ᱜᱟᱹᱭ	-11.6546
▁गर्मियो	-11.6546
▁રાખવી	-11.6547
▁1857	-11.655
▁मदर	-11.6555
▁ᱯᱷᱩᱴ	-11.6555
▁ऑफ़	-11.6561
▁ગુમ	-11.6563
▁अतोम	-11.6563
▁બૌદ્ધ	-11.6568
▁विराट	-11.6568
▁हपता	-11.6568
▁રાજનાથ	-11.6569
▁ᱵᱷᱟᱲᱟ	-11.6569
▁स्टील	-11.6572
▁मलहे	-11.6573
▁ओमाइ	-11.6573
▁अमृतसर	-11.6573
▁साठ	-11.6574
▁पहाड़ियों	-11.6578
રેટ	-11.6578
▁ભાગોમાં	-11.6579
विषयी	-11.6582
▁बढावो	-11.6583
▁लुट	-11.6583
स्टिक	-11.6584
▁अवस्था	-11.6585
▁आञअः	-11.6588
▁योजनाएँ	-11.6588
▁સિંહે	-11.6589
▁हॅ	-11.6591
▁ગરીબી	-11.6592
▁ડિરેક્ટર	-11.6592
▁હૃદય	-11.6592
▁શકતા	-11.6592
▁दुलाड़ा	-11.6592
▁दोरला	-11.6594
▁बनर्जी	-11.6596
ऊंगा	-11.6596
▁बरिअ	-11.6601
▁सोपडी	-11.6602
▁મૂકવામાં	-11.6603
▁રાખી	-11.6606
▁सुधारण्यासाठी	-11.6606
▁पैरा	-11.661
इ्र	-11.6613
▁યોજવા	-11.6616
▁product	-11.6616
▁કાર્યકારી	-11.6616
▁વિસ્તૃત	-11.6616
भाषा	-11.6618
▁आर्ट	-11.6618
ᱠᱷᱚᱨ	-11.6619
▁वंदन	-11.662
ધુ	-11.6621
▁ଇମ୍ବା	-11.6623
▁अंतरावर	-11.6624
▁रवाना	-11.6625
▁अन्तर	-11.6626
▁दिकु	-11.6632
▁ऊँचा	-11.6633
ᱱᱰᱟᱨ	-11.6636
▁એન્	-11.6638
▁तत्काल	-11.6639
▁टवकय	-11.664
▁કુશળ	-11.664
▁ભ્રષ્ટાચાર	-11.664
▁હત્યા	-11.664
▁कोट्टुम	-11.664
▁किन्तु	-11.664
▁કિમી	-11.6642
▁संजो	-11.6646
▁संडक	-11.665
▁જિલ્લાના	-11.6654
▁દેવી	-11.6656
▁आधीच	-11.6658
▁पोटो	-11.6662
▁એપ્રિલ	-11.6664
▁निर्वाचन	-11.6664
▁पीवीटीजी	-11.6664
▁मैथिली	-11.6664
▁विनिमय	-11.6664
▁स्‍थापना	-11.6664
▁ᱛᱷᱟᱭᱤ	-11.6664
▁ᱥᱚᱲᱚᱠ	-11.6664
▁ᱫᱩᱨᱡᱳᱜ	-11.6664
work	-11.6664
▁गॉंव	-11.6664
▁चिल्का	-11.6664
▁सेनानियों	-11.6664
▁लेलेपे	-11.6664
ᱵᱳ	-11.6667
▁उद्देशाने	-11.6668
▁लड़ई	-11.6669
▁રવિ	-11.6669
▁जयपाल	-11.667
▁उत्‍पादन	-11.6671
▁तिनु	-11.6674
▁ખાતામાં	-11.6678
▁ᱥᱟᱭᱦᱤᱸᱥ	-11.6688
▁ઇમેઇલ	-11.6688
▁प्रचंड	-11.6688
▁उड़ीसा	-11.6688
▁ज़मीन	-11.6688
कीर्तन	-11.669
▁નદીઓ	-11.669
▁સંબોધન	-11.6692
दायक	-11.6693
▁કરાયેલ	-11.6693
ᱠᱚᱣᱟᱜ	-11.6694
शियन	-11.6695
ସ୍କା	-11.6697
▁दल्ली	-11.6698
ંગા	-11.6701
जैसे	-11.6704
▁इंद्र	-11.6705
▁कूद	-11.6708
▁आएगी	-11.6709
▁Ra	-11.6709
.10.201	-11.6712
▁શૈલી	-11.6712
▁पूज्य	-11.6712
▁लष्कर	-11.6713
મારે	-11.6713
▁લડાઈ	-11.6713
▁ᱛᱚᱵᱮ	-11.6713
▁जिसक	-11.6713
▁मामलो	-11.6714
પૂર્વ	-11.6725
ન્દ્ર	-11.6727
▁ᱛᱚᱞ	-11.6729
हतुर	-11.673
ᱩᱜ	-11.6732
▁नद्या	-11.6735
▁उपमहाद्वीप	-11.6737
▁નિષ્ણાત	-11.6737
▁trans	-11.6737
▁विक्रेता	-11.6737
▁आकलन	-11.6737
▁પાડવા	-11.6738
▁समुन्द	-11.674
▁नेत्यांनी	-11.6742
▁ખુશ	-11.6745
▁डेढ़	-11.6747
ग्रेस	-11.6748
▁विभ	-11.6753
computer	-11.6761
▁जावड़ेकर	-11.6761
▁સૂચિ	-11.6761
▁ᱵᱤᱡᱮᱯᱤ	-11.6761
▁नियामक	-11.6761
▁વધારી	-11.6761
शक्ती	-11.6762
▁मौलिक	-11.6764
ोत्तर	-11.6766
▁हिन्‍द	-11.6768
▁स्‍वच्‍छ	-11.6769
▁डिस्	-11.6776
▁कधीही	-11.6777
हायता	-11.6777
▁GST	-11.6785
▁World	-11.6785
▁बहती	-11.6792
▁अधिसूचना	-11.681
▁આંકડા	-11.681
▁ઉત્તમ	-11.681
▁મહિને	-11.681
▁સિદ્ધાંત	-11.681
▁आचार्य	-11.681
लिटी	-11.681
▁સૌર	-11.6811
બ્લ	-11.6813
▁ଗାମେ	-11.6813
▁बोलताना	-11.6815
▁हथ	-11.682
▁दीक्षित	-11.682
▁ट्रेनिंग	-11.6821
▁मिसि	-11.6823
1.2020	-11.6824
▁ᱮᱥᱤᱭᱟ	-11.6824
▁ओराम	-11.6826
▁जिनगी	-11.6827
dr	-11.6828
▁ᱤᱼ	-11.6828
▁टेली	-11.6828
▁गोतियालोरिट	-11.6834
▁अनायुम	-11.6834
▁टुनडु	-11.6834
▁સાહસ	-11.6834
▁राक्षस	-11.6835
▁माणसा	-11.6837
▁सूप	-11.6838
▁थै	-11.6838
ગ્રહ	-11.6839
▁उच्‍च	-11.6839
▁अडचणी	-11.6844
▁कोणते	-11.6845
भद्र	-11.6846
▁बनवत	-11.6846
ᱪᱷᱩ	-11.6847
▁दुकानदार	-11.685
K	-11.6852
▁हियना	-11.6859
▁दौऱ्या	-11.6859
▁એકત્રિત	-11.6859
▁પહોંચાડવા	-11.6859
▁सिपाही	-11.6859
▁लोचोन	-11.6859
▁अनुपात	-11.6859
▁आरामदायक	-11.6859
▁तिहुये	-11.6859
▁पारदर्शक	-11.686
▁વાહન	-11.6861
▁बरनिका	-11.6861
फिल	-11.6862
▁સ્ટે	-11.6864
▁जुटे	-11.6866
▁एनकागे	-11.687
▁नागरिकांना	-11.6877
tri	-11.6878
▁પવિત્ર	-11.6884
▁जनगणना	-11.6884
▁ᱟᱹᱠᱤᱞ	-11.6884
▁जन्मदिन	-11.6884
▁पाऊल	-11.6884
▁गिनती	-11.6884
▁चाहूँगा	-11.6884
▁सुनवाई	-11.6886
ओःतना	-11.6889
ᱮᱱᱫᱨᱚ	-11.6891
▁मतोन	-11.6893
▁देखेंगे	-11.6903
ांबद्दल	-11.6903
ᱛᱤᱠ	-11.6906
▁मुकाबले	-11.6908
▁ઉત્તરાખંડ	-11.6908
▁પ્રણાલી	-11.6908
▁निरोगी	-11.6908
▁પીએમ	-11.691
प्रिंट	-11.6911
▁વિમાન	-11.6913
▁उच्चतम	-11.6913
▁जेथे	-11.6913
▁खातों	-11.6915
▁रबी	-11.6919
▁शरण	-11.6921
▁रण्ड	-11.6921
ાબાદ	-11.6923
▁કેટલા	-11.6929
▁नमोःअ	-11.6931
▁યુરોપ	-11.6933
▁औरंगजेब	-11.6933
▁टूर्नामेंट	-11.6933
▁આમંત્રણ	-11.6933
▁ધરપકડ	-11.6933
▁टप्प्या	-11.6933
▁ᱯᱷᱩᱰ	-11.6935
▁રાજ્યપાલ	-11.6935
▁तत्कालीन	-11.6936
▁वाणिज्यिक	-11.6938
▁यांच्यासह	-11.6941
▁aro	-11.6941
▁तमांर	-11.6941
▁इतुअन	-11.6945
▁जेटे	-11.6951
સ્તા	-11.6957
▁હુમલો	-11.6958
▁स्नातक	-11.6958
▁ᱠᱚᱢᱤᱥᱚᱱ	-11.6958
▁સૂચના	-11.6962
▁नागपुर	-11.6962
▁પુનર્	-11.6963
▁प्राग	-11.6964
▁थू	-11.6964
पीएफ	-11.6973
▁महाजन	-11.6979
गर्भवती	-11.6983
▁National	-11.6983
▁ᱠᱷᱚᱨᱪᱟ	-11.6983
▁अत्याचार	-11.6983
▁उचुय	-11.6983
▁पुस्य	-11.6983
▁पुरव	-11.6988
▁જણાવો	-11.6994
▁वर्क	-11.7
▁खात्यात	-11.7001
▁બદલે	-11.7005
▁વસ્ત્રો	-11.7008
▁ᱧᱮᱧᱮᱞ	-11.7008
▁खिलौने	-11.7008
▁शूटिंग	-11.7008
▁वातसीत	-11.7008
▁ᱠᱷᱮᱛ	-11.7009
ᱫᱽᱫᱷᱚ	-11.7012
▁यूरिया	-11.702
bas	-11.7021
▁भविष्‍य	-11.7033
▁यूनिवर्सिटी	-11.7033
▁ધીમે	-11.7033
▁लॉन्च	-11.7033
▁ᱵᱟᱹᱦᱩ	-11.7033
▁लेनदेन	-11.7034
▁उलट	-11.7036
▁સમૃદ્ધિ	-11.7036
▁चिमनङ	-11.7037
▁રાહત	-11.7039
▁सपो	-11.7045
▁मेजर	-11.7047
न्‍द्र	-11.7051
▁मन्तोर	-11.7053
▁ढक	-11.7054
▁વિરોધી	-11.7055
▁स्वाक्षरी	-11.7058
▁ᱵᱮᱲᱟ	-11.706
▁शिशु	-11.706
▁પરંપરાઓ	-11.7063
▁ᱵᱚᱥ	-11.7068
▁जुड़अः	-11.7068
▁खीर	-11.7071
▁घूमने	-11.7081
▁निर्णायक	-11.7083
▁सब्ज़ियाँ	-11.7083
▁ᱠᱤᱥᱟᱹᱬ	-11.7083
लैंगिक	-11.7083
▁शिल्पकला	-11.7084
▁अनुशासन	-11.7084
▁जबाब	-11.7085
▁pro	-11.7086
▁महिना	-11.7087
▁मेरोम	-11.7092
▁कहेंगे	-11.7093
▁ᱨᱟᱦᱟ	-11.7094
▁જાણીત	-11.7095
▁પશુ	-11.7098
▁उत्पत्ति	-11.7108
▁परिभाषित	-11.7108
▁रूइटोला	-11.7108
▁દસ્તાવેજ	-11.7108
▁ପାଇଟି	-11.7108
▁સંકટ	-11.7108
▁છૂટ	-11.7108
▁પ્રસાર	-11.7108
▁सकयी	-11.7109
▁कसरत	-11.711
कौन	-11.7114
કૃત	-11.7117
▁घटनाएँ	-11.7118
▁स्वीकृत	-11.7122
▁प्रसारित	-11.7122
▁जुटा	-11.713
▁ᱩᱛᱷᱱᱟᱹᱣ	-11.7133
▁निर्धारण	-11.7134
ᱪᱷᱚ	-11.7134
▁ટ્રા	-11.714
▁तंत्रज्ञानाचा	-11.7141
▁लायक	-11.7143
▁રાત	-11.7144
▁સુર	-11.7154
ᱲᱩ	-11.7156
▁स्पर्धेत	-11.7158
▁न्यायपालिका	-11.7159
▁पारिवारिक	-11.7159
▁मिश्रित	-11.7159
▁ᱨᱮᱦᱮᱫ	-11.7159
सब्ज़ियों	-11.7159
▁तालमेल	-11.7159
▁ᱥᱩᱪᱤ	-11.7161
▁मोटे	-11.7166
▁મલ્	-11.717
ary	-11.7175
▁ᱡᱩᱞᱩᱝ	-11.7184
▁संयोजन	-11.7184
▁ଦେରି	-11.7189
▁हुड़िड	-11.7189
▁એકવાર	-11.7195
hi	-11.7197
▁वधु	-11.7197
એનએસ	-11.7198
▁તહેવાર	-11.7202
▁प्रेरक	-11.7205
▁अब्दुल	-11.7209
▁નિમણૂક	-11.7209
▁ᱱᱚᱵᱷᱮᱢᱵᱚᱨ	-11.7209
▁बिरासत	-11.7209
▁ટેસ્ટ	-11.7209
▁दिय्या	-11.7209
▁नमस्ते	-11.7209
▁कार्यवाही	-11.721
શિયલ	-11.721
ᱮᱭᱤᱪ	-11.721
▁इन्हीं	-11.721
घोष	-11.7211
▁વિકસાવવા	-11.7211
सीआर	-11.7213
▁श्याम	-11.7214
▁पहना	-11.7221
▁राजेश	-11.7221
ᱸᱫᱽ	-11.7229
▁ᱜᱩᱡᱨᱟᱴ	-11.7235
▁ᱥᱟᱱᱛᱤ	-11.7235
▁मर्यादा	-11.7235
▁જીવંત	-11.7236
▁परोसे	-11.7236
▁कपड़ों	-11.7237
▁ગૌ	-11.7238
▁पन्	-11.7242
▁कुंदा	-11.7244
▁जनधन	-11.7247
ᱢᱚᱞ	-11.7251
କାତା	-11.7253
અલ	-11.7255
▁चर्चे	-11.7258
▁Day	-11.7261
▁रखरखाव	-11.7261
▁मद्रास	-11.7261
ଇନେ	-11.7261
▁बदिलि	-11.7261
▁आँद	-11.7265
▁चार्ज	-11.7267
▁गंद	-11.7267
શાસિત	-11.7267
▁गोल्ड	-11.7269
▁ગરમ	-11.7272
▁रूचि	-11.7274
▁કેટલી	-11.7276
▁चार्ट	-11.728
▁लोलो	-11.728
▁ᱡᱟᱦᱟᱭ	-11.7281
▁आर्द्रता	-11.7286
▁दीर्घकालिक	-11.7286
▁અપેક્ષા	-11.7286
▁श्रीनिवास	-11.7286
▁तुगलक	-11.7286
▁મીટર	-11.7287
ᱵᱟᱹᱛᱤᱞ	-11.7287
▁संबध	-11.7288
▁शुभकामनाएँ	-11.7289
▁होऊँगा	-11.729
▁बिलियन	-11.7291
▁હિન્દી	-11.7291
▁ᱢᱮᱱᱫᱚ	-11.7291
ପ୍କା	-11.7297
▁निकाळ	-11.7298
▁निवडणुकीत	-11.7299
દ્યોગિક	-11.7312
▁માછલી	-11.7312
▁સ્વાદિષ્ટ	-11.7312
▁बनडुअ	-11.7312
▁विजळी	-11.7312
▁कार्यक्षम	-11.7312
▁ટેકો	-11.7312
▁पठार	-11.7313
▁सकि	-11.7317
▁स्त्रिया	-11.7317
▁पद्धतियों	-11.7318
▁बराबरि	-11.732
▁गमाव	-11.7323
▁टिप	-11.7326
▁जाकेद	-11.7327
▁अर्थसंकल्प	-11.7338
▁तुसिंङ	-11.7338
▁नगरपालिका	-11.7338
▁विस्फोट	-11.7338
▁વાગ્યે	-11.7338
▁ᱫᱩᱨᱜᱷᱚᱴ	-11.7338
▁पहिली	-11.7338
ଣ୍ଡେ	-11.7338
▁दरवाजा	-11.7338
▁ka	-11.7339
▁तिलक	-11.734
▁વૃક્ષો	-11.7341
▁बेसिन	-11.7353
▁વધવા	-11.7353
ક્શન	-11.7354
▁आलियो	-11.7358
धुनिक	-11.7358
ᱵᱟᱫᱽ	-11.736
▁खाद्यान्न	-11.7363
▁संध्या	-11.7364
▁गितिः	-11.7364
▁ᱫᱷᱟᱨᱚᱱᱟ	-11.7364
▁ᱜᱩᱥᱴᱤ	-11.7364
▁જૈન	-11.7365
▁ગમે	-11.7366
▁लड़ेय	-11.7367
ᱟᱭᱤᱴ	-11.7368
ᱠᱩᱞ	-11.7372
यन्ना	-11.7376
▁दलाल	-11.7383
▁साप्ताहिक	-11.7389
▁परिवारजनों	-11.739
▁सन्देश	-11.7391
▁જારી	-11.7394
▁चौथा	-11.7395
▁मुख्यतः	-11.7396
▁समापन	-11.7396
▁सुणाव	-11.7401
▁गोपाल	-11.7404
ेन्‍द्र	-11.7409
▁गुंतवणुकी	-11.7415
▁द्रौपदी	-11.7415
▁અઠવાડિયા	-11.7415
▁વ્યાજ	-11.7415
▁ᱛᱟᱹᱯᱤᱥ	-11.7415
▁ᱥᱩᱫᱷᱨᱟᱹᱣ	-11.7415
▁અછત	-11.7415
▁सुलतान	-11.7415
▁ᱟᱸᱥ	-11.7416
▁ᱯᱩᱛᱷᱤ	-11.7416
▁श्रद्धालु	-11.7417
▁चंद्रयान	-11.7417
▁ᱩᱛᱩ	-11.7417
▁પ્રતિભા	-11.742
▁અલી	-11.7423
ᱠᱷᱚ	-11.7425
વાળી	-11.7426
▁बिगड़	-11.743
▁पासवान	-11.7433
▁मसीह	-11.7435
▁મોત	-11.7437
निर्मित	-11.744
▁लनदा	-11.7441
▁average	-11.7441
▁फेब्रुवारी	-11.7441
▁બનાવો	-11.7441
▁ᱛᱟᱦᱮᱸᱠᱟᱱᱟ	-11.7441
▁औजार	-11.7442
▁धारणा	-11.7444
▁उधार	-11.7446
▁પટ	-11.7448
▁અધિકારો	-11.7461
गैर	-11.7467
▁સુધારવા	-11.7468
▁ᱢᱩᱜᱷᱚᱞ	-11.7468
▁डोंका	-11.7468
▁उमंग	-11.7468
▁ᱮᱞᱠᱷᱟ	-11.7468
▁मत्तोर	-11.7471
▁ᱜᱷᱟᱹᱲᱤᱡ	-11.7472
▁आबुआ	-11.7477
▁गिड़िअः	-11.7479
▁कपास	-11.7484
▁सिंधु	-11.7486
▁ᱨᱚᱥ	-11.7486
ens	-11.7487
▁કંઈ	-11.749
▁ભાષાઓ	-11.7493
▁पकौड़ी	-11.7494
▁लोकसंगीत	-11.7494
▁નોકરી	-11.7494
▁આદર્શ	-11.7494
▁ᱯᱟᱥ	-11.7494
▁धंगड़ा	-11.7494
▁चेहरे	-11.7494
▁દવાઓ	-11.7494
▁ᱛᱩᱲᱤ	-11.7495
▁रनु	-11.7499
▁कटाव	-11.75
फसल	-11.7503
▁तिन्‍हुंयी	-11.7504
ର୍ବା	-11.7504
▁वाढेल	-11.7504
▁शै	-11.7507
पुत्र	-11.7507
▁रूपीया	-11.7511
᱘᱘	-11.7513
▁ચોખા	-11.752
▁પ્લેટફોર્મ	-11.752
▁ᱨᱮᱡᱤᱥᱴᱟᱨ	-11.752
▁उपन्यास	-11.752
▁बाबतीत	-11.752
▁ᱯᱟᱨᱴᱤ	-11.752
▁વર્લ્ડ	-11.752
▁છોકરી	-11.752
▁क्रोध	-11.7521
▁प्लेट	-11.7524
ᱚᱱᱛᱚ	-11.7531
▁पक्षाचे	-11.7537
▁AP	-11.754
▁घोड़ा	-11.7542
▁પ્રભાવ	-11.7546
▁निवेदन	-11.7546
मण्डल	-11.7546
▁निकासी	-11.7546
▁त्रास	-11.7547
फाई	-11.7557
▁दुब्	-11.7563
रिवाजों	-11.7566
લ્પ	-11.7572
▁बांगलादेश	-11.7573
▁ઉપસ્થિત	-11.7573
▁जबरदस्त	-11.7573
▁ᱪᱤᱱᱛᱟᱹ	-11.7573
▁ᱢᱮᱱᱟᱭᱟ	-11.7573
▁सुखद	-11.7575
▁પેદા	-11.7575
ness	-11.7579
▁मेतअ	-11.759
▁ફેબ્રુઆરી	-11.7599
▁સશક્તિકરણ	-11.7599
▁2016-17	-11.7599
▁नालंदा	-11.7599
▁गंदगी	-11.7602
▁तरुणांना	-11.7604
▁आणण्यासाठी	-11.7605
▁यथा	-11.7609
4-29	-11.7612
▁वैशिष्ट्य	-11.7626
▁કોલસા	-11.7626
▁ફૂડ	-11.7626
▁चाचणी	-11.7626
▁लिजअः	-11.7626
▁दुसरी	-11.7626
▁दाखिल	-11.7626
▁तपशील	-11.7626
▁હેતુ	-11.7627
▁व्यक्तित्व	-11.763
▁ᱵᱟᱠᱚ	-11.7643
Ch	-11.7647
▁पावन	-11.7649
▁पुण्य	-11.765
વાણિજ્ય	-11.7652
▁શાકાહારી	-11.7652
▁मणिपूर	-11.7652
▁मथुरा	-11.7652
▁સ્ટાર્ટઅપ	-11.7652
▁bi	-11.7652
▁तहसील	-11.7653
▁ᱯᱟᱨᱟᱵᱽ	-11.7653
▁ᱯᱟᱢᱯ	-11.7654
▁पंक्ति	-11.7654
▁अतीत	-11.7654
▁बरिआ	-11.7655
▁વિભાગો	-11.7658
▁इच्छित	-11.7665
▁पसन्द	-11.7666
▁दीनदयाल	-11.7679
▁परिवर्तित	-11.7679
▁ᱯᱟᱦᱟᱴᱟ	-11.7679
▁रबङ	-11.7679
▁સોંપ	-11.7679
▁रविशंकर	-11.7679
ivity	-11.7679
▁ड्राइव	-11.7679
▁स्वर्ग	-11.7684
▁झंडा	-11.7686
जुएल	-11.77
▁પગલા	-11.7706
▁ફૂલો	-11.7706
▁ᱯᱟᱹᱛᱤᱭᱟᱹᱣ	-11.7706
▁ટાપુ	-11.7706
▁जगदीश	-11.7706
▁પ્રવાહ	-11.7706
▁गार्डन	-11.7706
▁नोएडा	-11.7706
▁क्षति	-11.7706
▁ᱜᱚᱨᱚᱵᱽ	-11.7706
▁ઓફિસ	-11.7706
▁ડેટા	-11.7707
पशुपालन	-11.7707
▁ᱦᱟᱨᱟᱣ	-11.7708
▁પટેલ	-11.7708
इनिः	-11.7708
▁समजून	-11.7711
▁निवडणुकी	-11.7719
▁मूल्‍य	-11.7721
▁संजीव	-11.7721
▁जाएँगे	-11.7725
मार्ग	-11.7726
▁शेतकऱ्या	-11.7727
▁અંદાજ	-11.7732
▁પ્લાન્ટ	-11.7732
▁ᱡᱟᱱᱩᱣᱟᱨᱤ	-11.7732
▁ᱦᱩᱠᱩᱢ	-11.7732
▁आंकड़ों	-11.7732
▁जबलपुर	-11.7733
आर्थिक	-11.7735
▁कॉन्	-11.7735
▁લખ્યું	-11.7735
▁शासनकाल	-11.7739
▁सेनोःजना	-11.7747
▁ગોવા	-11.7748
▁कार्यरत	-11.775
होड़ो	-11.7758
कश्‍मीर	-11.7759
▁शीघ्र	-11.7759
▁કિનારે	-11.7759
▁મણિપુર	-11.7759
વંશ	-11.7759
▁शरद	-11.776
▁ᱥᱟᱹᱵᱩᱫᱽ	-11.776
▁पोलिसांन	-11.7761
▁उदाहरणार्थ	-11.7763
log	-11.7764
▁धूम	-11.7764
Tel	-11.777
▁कपिल	-11.7773
▁mai	-11.7775
▁रुड़ा	-11.7779
ସିବା	-11.7781
▁શોધવા	-11.7784
▁धुमधाम	-11.7786
▁व्यावहारिक	-11.7786
▁ᱦᱚᱨᱤᱭᱟᱱᱟ	-11.7786
▁ᱳᱲᱤᱥᱥᱟ	-11.7786
▁तृतीय	-11.7786
▁સામગ્રી	-11.7786
▁હિન્દુસ્તાન	-11.7786
▁ओबामा	-11.7786
▁विजली	-11.7787
▁मोसर	-11.7787
▁गौतम	-11.7787
CH	-11.7795
▁रूटा	-11.7801
▁जिन्	-11.7802
▁જોડી	-11.7809
કોટ	-11.7811
▁वैक्सीन	-11.7813
▁અનુકૂળ	-11.7813
▁ગાળા	-11.7813
▁मुर्मू	-11.7813
▁इच्चो	-11.7813
▁ᱱᱤᱢ	-11.7814
▁ट्रॅक	-11.7816
▁अनुबंध	-11.7817
▁खिलाडी	-11.7829
▁ઉજવ	-11.783
▁कब्ज	-11.7835
▁જૂના	-11.7835
▁અવરોધ	-11.784
▁લોકશાહી	-11.784
▁जरूडु	-11.784
▁दिनानिमित्त	-11.784
▁ᱛᱩᱞᱩᱡ	-11.784
▁ᱞᱟᱵᱷᱟᱱᱟᱜ	-11.7841
ମ୍ବି	-11.7841
▁समुंद	-11.7843
▁ચક્ર	-11.7843
जन्तु	-11.7844
▁लढाई	-11.7845
▁ફળો	-11.7846
▁સાધનો	-11.7855
▁ᱥᱮᱪ	-11.7855
▁पाटंग	-11.7859
▁ઇચ્છા	-11.7863
▁સંવાદ	-11.7865
▁वर्षांत	-11.7865
▁મફત	-11.7868
▁ᱫᱩᱣᱟᱹᱨ	-11.7868
▁પોશાક	-11.7868
▁इतुसइ	-11.7868
▁मॉडेल	-11.7868
▁चालुक्य	-11.7868
▁बाजरा	-11.7868
▁विनती	-11.7868
▁जीदन	-11.7869
▁વચન	-11.7869
▁टाळ	-11.7877
▁આગ્રહ	-11.7879
▁पाण्या	-11.7881
man	-11.7887
▁अजीत	-11.7887
ᱥᱚᱞ	-11.7892
▁बिसुआस	-11.7895
▁विद्यमान	-11.7895
▁मपरङ	-11.7895
▁काढून	-11.7895
▁नदियाँ	-11.7895
▁પશુપાલન	-11.7895
ମ୍ବୁ	-11.7895
▁मानचित्र	-11.7897
▁गॅस	-11.7897
▁नोटिस	-11.7898
“	-11.7899
पोषण	-11.7899
▁પહોંચ્યા	-11.79
▁तस्वीरें	-11.7902
▁लिस्ट	-11.7904
▁अधिकाऱ्यांनी	-11.7907
ᱳᱣᱟᱨ	-11.7909
आईएल	-11.7909
ᱞᱟᱝ	-11.7912
▁हक्क	-11.7913
▁वाक्य	-11.7916
over	-11.7918
▁दीर्घकालीन	-11.7922
▁વિશિષ્ટ	-11.7922
▁ᱥᱚᱨᱟᱥᱚᱨᱤ	-11.7922
▁વેબસાઇટ	-11.7922
▁प्रेरणादायी	-11.7922
▁રાહુલ	-11.7922
तन्त्र	-11.7924
▁संपन्न	-11.7924
▁सप्ताहांत	-11.7925
▁ᱱᱩᱭ	-11.7933
▁હાજરી	-11.7933
▁અમર	-11.7935
▁निहित	-11.7936
▁ᱫᱩᱞᱟᱹᱲᱚᱜ	-11.7942
▁ગ્રાહકો	-11.7946
▁अधिवेशन	-11.795
▁व्‍यापक	-11.795
▁લાંબી	-11.795
ᱥᱢᱟᱨᱴ	-11.795
▁एनडीए	-11.795
▁ᱜᱟᱹᱠᱷᱩᱲᱤᱭᱟᱹ	-11.7951
▁जलमार्ग	-11.7952
▁कार्यकर्ताओं	-11.7957
▁માફ	-11.7959
▁ᱢᱟᱱᱹ	-11.796
▁उपयोगकर्ता	-11.7962
ભૂત	-11.7964
ug	-11.7968
▁गरजेच	-11.7974
▁अभिव्यक्ति	-11.7977
▁प्रोफेसर	-11.7977
▁હિંસા	-11.7977
▁માતાપિતા	-11.7977
▁तीर्थयात्र	-11.7977
▁गहरे	-11.7977
▁प्रारूप	-11.7978
▁જવાબદાર	-11.7978
▁सियार	-11.7982
▁वाईट	-11.799
ઇસ	-11.7996
ᱫᱟᱥ	-11.7999
▁ટન	-11.8
▁ઘણ	-11.8004
▁ᱥᱴᱨᱤᱴ	-11.8005
▁ભરેલી	-11.8005
▁प्रस्‍ताव	-11.8005
▁यूनियन	-11.8005
▁ᱫᱮᱵᱤ	-11.8005
▁नाट्य	-11.8007
▁લડવા	-11.8007
▁आंकड़ा	-11.8007
▁कुपोषण	-11.8007
ack	-11.8013
▁લાવી	-11.8017
▁कानुन	-11.8017
▁गुरुवार	-11.8019
▁मेजबानी	-11.8032
▁ᱢᱚᱰᱮᱞ	-11.8032
▁ᱱᱟᱥᱚᱠ	-11.8032
▁ᱵᱚᱱᱚᱫᱚᱞ	-11.8032
▁સરળતાથી	-11.8032
▁निम्मट	-11.8032
▁ᱴᱤᱲᱤᱡ	-11.8032
▁ᱫᱷᱟᱯ	-11.8032
▁start	-11.8033
▁ᱚᱱᱚᱞᱤᱭᱟᱹ	-11.8033
▁વ્યવસાયિક	-11.8034
▁मंतरी	-11.8035
▁शीला	-11.8039
▁ज्ञात	-11.8046
▁ઘટનાઓ	-11.8047
ᱢᱩᱠᱷ	-11.805
▁मंत्र्यां	-11.8057
▁બસ	-11.8057
▁ᱟᱣᱛᱟ	-11.8059
▁નિષ્ફળ	-11.806
▁બીમારી	-11.806
▁सिक्कीम	-11.806
▁सेंद्रिय	-11.806
▁धुरवा	-11.8061
ᱹᱥᱤᱹ	-11.8065
▁लवकरच	-11.8072
▁अदिका	-11.8075
च्‍छ	-11.8087
▁સિક્કિમ	-11.8088
▁हनाटिङ	-11.8088
▁કરશો	-11.8089
▁ગ્રાહક	-11.8091
▁कागेतिंग	-11.8098
▁मोयोद्	-11.8098
ᱵᱷᱮᱱ	-11.8098
▁સાફ	-11.8099
▁गामडा	-11.8105
▁જાઓ	-11.8106
▁ठिकाण	-11.8114
▁ફાયદા	-11.8115
▁તાત્કાલિક	-11.8116
▁મુખ્યત્વે	-11.8116
▁સુપ્રીમ	-11.8116
▁ᱣᱤᱠᱤ	-11.8116
▁ᱥᱚᱢᱵᱷᱚᱵᱚᱱᱟ	-11.8116
▁ᱥᱟᱱᱟᱧ	-11.8116
▁वृत्तपत्र	-11.8116
▁જહાજ	-11.8116
▁कमेटी	-11.8116
▁किराया	-11.8117
▁ᱥᱩᱛᱨᱚ	-11.8118
▁પાર્ક	-11.8118
[...]
